Ġ Ġ
Ġ t
Ġ a
i n
h e
r e
o n
e r
ĠĠ ĠĠ
Ġ s
a t
Ġt he
e n
o r
e s
Ġ c
Ġ w
i t
a n
i s
Ġ d
o u
Ġ p
a l
Ġ f
a r
Ġ o
Ġ b
e d
in g
Ġ m
Ġa n
l e
Ġt o
i on
i c
Ġ in
Ġo f
a s
e l
o m
Ġ l
Ġan d
Ġ h
Ġ Ð
Ġt h
en t
e t
Ġ n
s t
Ð °
r o
c t
i l
ä ¸
Ġ re
ĠĠĠĠ ĠĠĠĠ
ĠĠ Ġ
Ġ e
o t
a m
Ġ I
i d
a c
Ġ g
a d
i m
u n
Ð ¸
i g
v e
o l
Ġd e
u t
Ġ is
Ð µ
u s
Ġ y
Ð ¾
o w
Ġ T
Ġ S
Ñ Ĥ
l y
Ġf or
q u
v er
Ġb e
Ġ on
u r
a y
Ġ (
at ion
ç ļ
çļ Ħ
Ġ A
Ġ C
Ġy ou
u l
Ñ Ģ
ã Ģ
Ġth at
Ð ½
s e
c e
i r
it h
â Ģ
i f
Ġs t
Ġ v
ä º
o d
a b
Ġ \
c h
Ġ it
Ġa l
a g
Ġ he
Ġ $
Ġ M
Ġc on
Ġw ith
t er
Ñ ģ
r i
e m
es t
Ġa s
a p
- -
Ġ P
Ġw h
u m
o s
re s
Ġ B
Ġp ro
is t
h t
an d
Ġc om
Ġs e
at e
p e
il l
es s
ĠĠĠĠ ĠĠĠ
æ ľ
t h
u p
Ġw e
å ı
he r
ãĢ Ĥ
ä »
k e
an t
r a
Ġ =
l d
Ġ un
o c
ou t
er s
en d
Ġ or
Ġe x
Ð »
Ġ L
Ġ D
Ġ H
ou r
Ġ F
Ġa re
å ¤
o re
r om
Ġh a
Ġ W
Ð ²
o p
n d
Ġ E
Ġ r
ĠT he
Ġa t
i v
ar t
Ġ R
å ħ
n t
al l
Ġth is
Ġw as
or t
Ġ "
Ġn ot
Ġn e
è ¿
a in
Ġ qu
Ġl a
ig ht
æ ĺ
p l
Ġ us
ct ion
Ġ G
u re
t e
å ®
Ġ en
Ġb y
u b
Ġ <
Ġ i
Ġ N
p t
Ġha ve
Ð º
it y
Ġ el
Ġs h
as s
m ent
å Ī
am e
ou ld
Ġf rom
ä ½
i es
) ;
å ľ
{ \
in e
i a
Ġc an
å Ĳ
u st
u d
= "
ĉ ĉ
âĢ Ļ
el l
i ve
Ð ´
ag e
ĠĠĠĠĠĠĠĠ ĠĠĠĠĠĠĠĠ
g e
ar d
o g
Ġc h
Ġc l
om e
i al
e ct
u e
ac k
ä ¹
æĺ ¯
ä¸ Ģ
re d
o st
Ġ O
Ġ {
ab le
at h
æ Ī
Ġp er
ic h
in d
ç Ķ
i p
Ġ le
å °
Ġyou r
Ġal l
i e
Ġ j
p er
Ġm e
. .
å Ĭ
Ġt r
a v
Ġ k
i z
x t
an s
ul t
< /
Ġd o
ãĢ ģ
c l
f f
as t
r ou
ç »
Ġw ill
o k
Ġw he
id e
Ġa b
Ġb ut
T he
it e
Ġw or
æ Ĺ
Ã ³
i b
ĠÐ ½
/ /
a re
Ġs o
a k
p ort
or m
ion s
Ġ Ñģ
Ñ ı
Ġ if
_ {
c on
Ġ J
c c
Ġ -
Ġp l
in t
ä¸ į
å Ľ
Ġ *
Ġ &
Ġ U
ic e
Ð ¼
t o
Ġ up
Ġd el
d er
d e
ac e
Ġh is
Ã ©
Ġwh ich
è ¯
as e
Ġcom p
Ñ Ĭ
im e
on e
ĠĠĠĠĠĠĠĠ ĠĠĠ
on g
Ġre s
al ly
æ ĸ
ä ¼
Ġm y
Ġa d
Ñ ĥ
Ð½ Ð¸
i le
å ¹
t her
Ġa m
æľ ī
æ Ŀ
Ð ·
åľ ¨
e g
Ġg o
Ġ }
at ed
äº Ĩ
å Ń
ĠÐ ¿
ĠÐ½ Ð°
ig n
a ct
Ġ im
å į
ou s
-- --
ÑĢ Ð°
Ġ$ \
ur n
äº º
Ġa p
Ġ V
) .
Ġon e
Ġcon t
Ġ out
re f
g h
n e
è ®
i re
Ġn o
Ġh as
ver y
Ġl o
Ġqu e
l l
æ ī
an ce
ÑĤ Ð¾
a ke
t r
ÑĤ Ð°
) ,
Ġ '
Ã Ń
Ġthe y
e p
o b
en s
Ġh ad
f t
ĠĠĠĠ Ġ
m ath
å ¸
ar y
å ¾
Ġm an
e re
Ġa r
p ro
t he
an g
r y
s o
Ã ł
ĠT h
d u
Ġs u
a il
å ·
é ĩ
ac h
" >
ĠI n
i x
è Ģ
Ġan y
ĥ ½
c om
Ġm ore
o se
f orm
or d
p h
Ġd is
Ġp art
å ¼
Ġs er
it ion
b er
å ĩ
res s
Ġthe ir
Ġd es
ĠÐ ¸
e ar
g et
ow n
k s
Ġhe r
Ġ es
ent s
ĠÐ ²
or s
Ð ³
å ¥
Ġl i
p le
ation s
Ġ K
ou nt
å Ĩ
Ã ¨
en ce
Ð ¿
ÑĤ Ðµ
Ð½ Ð°
ou nd
ro w
Ñ ĩ
Ð² Ð°
el y
r u
Ġs p
m a
Ġs a
od e
ic al
} \
è ¡
Ġs ome
å º
Ġw ould
Ġthe re
* *
é Ģ
å¤ §
Ġf e
Ġo ther
at a
Ġg et
å ¯
Ġwhe n
ÑĢ Ðµ
Ġs c
j ect
re e
} $
Ġe v
Ġne w
Ġcl ass
ver s
ä¸ Ń
ĠÐ ¾
Ġt ime
ÑĢ Ð¸
Ġthe m
Ġ our
Ġ Y
ç Ľ
ic k
y pe
I n
er t
l ow
ä¸ º
Ġwe re
Ġwh o
å Į
^ {
s p
è µ
re at
el f
Ġab out
è¿ Ļ
= =
l o
âĢ ľ
ing s
t urn
Ġp r
e x
Ð ±
in k
ay s
ä¸ ª
or y
è §
en er
Ġ |
Ġbe en
Ġt e
Ġa g
æ Ĭ
l i
è ´
ĠI t
n c
l ic
æ ķ
Ġ ro
c k
e f
ä¸ Ĭ
ar i
ç İ
å ¿
t a
Ġv a
te xt
æ ł
Ġo b
Ġ [
( )
a us
æ Ģ
Ġf un
Ġwor k
Ġk n
w e
p s
u al
å Ĵ
Ñģ ÑĤ
Ġli ke
Ġs he
Ġal so
Ġp re
è ĩ
Ġof f
ol d
is h
Ġs et
Ġb o
ri b
w o
v el
æĹ ¶
ä» ¥
æĪ ĳ
Ġth an
Ġin st
Ġo ver
Ġwh at
Ġh im
il d
Ġ est
ar k
ir st
et h
an c
on t
f r
it t
if f
ç §
e c
s c
oc k
¦ ģ
å İ
he d
} }
Ġs pe
o v
l es
on s
g r
Ġin to
Ġv al
. "
å ±
åĴ Į
y s
ter n
æ Ń
Ġon ly
Ñ Ĩ
âĢ ĵ
è ¦ģ
Ġ /
er m
Ġit s
é Ŀ
ul l
æ °
Ġs up
ĠS t
en c
ĠÐ º
ĠĠĠĠĠĠĠĠ ĠĠĠĠĠĠĠ
o ve
é Ĺ
ç ī
( \
ĠC h
Ġa cc
u g
if ic
Ġc ol
æĿ ¥
al s
Ð½ Ð¾
le ct
Ġg r
y st
Ġ +
å ½
p ut
æ Ķ
åĪ °
ç ľ
f ter
s s
ad e
ç º
ä¼ ļ
çĶ Ł
æ ²
eg in
Ġne ed
å¹ ´
ac i
Ġcom m
Ġthe n
Ġus e
å ĳ
é Ļ
å° ±
Ð» Ð¸
h at
p os
iz e
Ġh ow
è ĥ½
ï ¼
ĠÐ ´
n g
b egin
æ ĥ
Ġj ust
Ð ¹
" ,
è ½
b o
an y
er v
Ġm od
Ñģ Ðº
Ġad d
ap p
ic s
ie w
b le
o int
yst em
æ ³
ic t
æ ¯
Ġre turn
f ig
e qu
Ġm ay
âĢ Ŀ
Ġde f
Ġb et
is s
Ġc o
pe ct
er r
Ã ²
Ġt wo
at es
n ing
Ġcon s
at er
Ġp os
Ġ ent
Ġre c
åĽ ½
Ġsa id
o f
cl ud
Ġe m
i an
Ġb l
ub lic
t y
ul ar
ĠTh is
ĠW e
c ess
åı ¯
Ġkn ow
ou gh
Ġp e
E R
p r
is e
Ġy ear
Ġd iff
pt ion
Ġas s
i ent
ig h
un t
Ġse e
Ġfor m
Ġ .
Ġf irst
Ġsh ould
ä¹ Ł
Ġf in
) $
Ġc ould
Ðµ Ð½
åĩ º
_ {\
l ine
ĠÐ µ
aus e
ot h
r ight
rou nd
Ġo p
æ ŀ
ab el
s h
Ġl es
---- ----
at s
æ İ
Ġre g
it s
Ġa ct
Ġun a
i el
c al
ib le
i ed
ĠÐ ³
Ġbe c
an ge
ä ¿
ÑĢ Ð¾
am b
å¤ ļ
p ar
} {
Ġb ack
ĠH e
ad a
Ġam b
Ġwhe re
w n
Ġlo ok
Ġthe se
åı ĳ
Ġ //
Ġ _
å¯ ¹
Ġf ol
å ¦
u ch
ä» ¬
} ,
Ġ very
our ce
T h
çĶ ¨
Ġ ke
, "
Ġre l
f ul
å® ¶
r ing
on d
Ġun der
Ð ¶
Ġre m
Ġpro v
Ġm ost
è ¾
æ ĭ
Ġs ub
Ġin t
Ġm ake
a x
æ Ħ
åĲ İ
æ µ
he n
rou gh
c re
d iv
Ġsu ch
iel d
èĩ ª
s et
Ġp ar
Ġd on
æĪ Ĳ
Ġs im
i o
Ġp h
o od
Ġ< /
- >
Ġw ant
fr ac
i ous
é ¢
å ĵ
è Ĥ
è¡ Į
Ġc ur
ĠÐ¾ ÑĤ
at ing
Ġe very
Ġn ow
ç Ń
Ġc or
Ġcon st
Ġw ell
æ ¬
å ī
ri v
im es
ar g
ĠÐ ·
Ġw ay
r it
o y
r m
ä» ĸ
a ve
ä½ ľ
ä¸ ļ
ers on
Ġtr ans
op le
u es
ä¸ ĭ
I N
Ġfun ction
ot her
åŃ ¦
ç Ĳ
Ġs m
le t
: :
Ġg ener
re n
Ġa fter
Ġb u
u res
æ Į
ic a
res ent
äº İ
Ġ @
Ð¸ Ñı
ow er
é ĺ
or k
Ġat t
ut ion
ment s
Ġfol low
s elf
Ġn um
Ġth rough
' ,
åľ °
e q
è¿ ĩ
re ad
c ite
Ġd ata
Ġdiff ere
Ġ :
re nt
Ġin ter
ĠÐ¿ Ð¾
Ġs ol
( "
ĠÐ ¼
ĠU n
Ġhe l
Â ł
S t
.. .
åŃ Ĳ
Ġpro du
Ġgo od
l abel
w ard
Ġn ame
å ģ
Ñ Ħ
ĉĉ ĉĉ
il y
l ed
Ġd id
Ġdo es
he s
ra ct
qu est
ic es
Ġus ed
é ĥ½
Ġd own
Ġ end
a ir
en g
Ġg reat
r ay
Ġres ult
e v
pl ic
in s
Ġl ong
ĠÐ· Ð°
Ġev en
at ch
O N
math b
u c
if e
il ity
Ġg u
Ġus ing
Ġpe ople
Ġs ame
Ġel s
åĬ ¨
é ģ
å¥ ½
at ive
et a
f ore
r ap
t ing
y m
ĠY ou
çİ °
id ent
as h
Ġd et
o ol
æĸ ¹
Ġa c
n ot
Ġm uch
Ġc re
n ce
t s
at or
Ð» Ðµ
Ġp ublic
ĠI f
Ġre ad
Ġf ind
ar s
Ġser v
Ġf l
Ġc ap
ar ch
am ent
Ġc all
Ð² Ðµ
æ ¸
Ġhe re
v al
ç Ĥ
Ðº Ð°
åĪ Ĩ
it ies
el s
am p
æ ±
er n
( );
Ġsh ow
Ġh and
ag es
æ ´
ire ct
o ver
Ġspe c
Ð» Ð°
Ġd ist
in ce
èĢ Į
e w
ĠA nd
ÑĤ Ð¸
Ġag ain
Ġex t
å° ı
Ġman y
b re
m l
c ol
Ġs ystem
.. /
Ġe ach
é «
g ht
m er
Ġbe fore
ç» ı
Ñ ī
Ġl oc
Ġre f
ĠĠĠĠĠĠĠĠ Ġ
Ġr ight
Ġst art
é« ĺ
$ .
er a
as ed
ç «
å¾ Ĺ
Ã §
Ġc ar
ess age
Ġin v
n er
b e
in ed
Ð´ Ð¸
Ġhel p
å¿ ĥ
ri pt
$ ,
Ġm in
å Ł
è ·
æ Ľ
Ġl ine
le ft
é ķ
d ay
Ġe ff
e ver
éĿ ¢
Ġt ra
d a
ä ¾
ä¹ ĭ
ĠÑģ Ðµ
we en
Ñ ħ
at her
Ġb el
i er
è¯ ´
ĠC om
ä½ ł
Ġbec ause
R E
em ent
Ġ x
Ġo wn
Ġth ink
ak ing
W e
ç ½
è¿ ĺ
ĠP ro
Ġp ol
I t
ç Ŀ
ol og
Ð² Ð¾
at ic
math cal
å¼ Ģ
at ure
å· ¥
h o
Ġin clud
ĠA l
A T
å¤ ©
å Ģ
e ad
Ġm ade
å® ŀ
t t
æĸ °
m s
Ġst r
p end
Ġc he
Ġr un
åĬ Ľ
w ay
, \
Ġa ut
m an
å¦ Ĥ
con d
} )
ĠĠĠĠ ĠĠ
o id
Ġp oint
id er
ut e
Ġf r
} .
l a
Ġg iv
t on
al e
åħ ¬
t ain
er y
P ro
ru ct
S T
Ġbe ing
itt le
Ġval ue
== ==
Ġbet ween
an k
equ ation
_ _
æľ Ģ
Ġ X
c i
åħ ¨
Ġre p
Ġdiffere nt
Ġt ype
Ġ Ã©
in es
Ġp ass
ant s
å¾ Ī
ç ¾
å¸ Ĥ
ĠĠĠĠĠĠĠĠĠĠĠĠĠĠĠĠ ĠĠĠ
Ġde c
è¿ Ľ
Ġc ase
Ġh igh
Ġth ose
Ġm on
Ġf am
n ess
ot s
f or
Ġ ed
tr ing
Ġf il
è ¶
Ġs ign
ĠE l
ĠB ut
i qu
r ic
Ġwh ile
Ġex per
æĹ ¥
p on
Ġs ay
åī į
p ress
ction s
form ation
rou p
Ġin te
ÑĬ ÑĢ
ç ®
Ġa v
Ġp erson
Ġd ay
Ġ| |
ĠF or
E x
çĲ Ĩ
Ġv ari
eth od
Ġd i
u ally
Ġ #
am es
Ġf ound
( '
é ĥ
å® ļ
åĲ Į
am ple
) )
Ð¼ Ð°
æ³ ķ
** **
m e
ä½ ĵ
t il
ou se
Ġe qu
Ġst ud
d d
Ġpro ble
m in
ç ¬
v ent
c es
Ġl ist
ç Ł
Ġs om
æ Ļ
Ġt ake
A R
n ame
è½ ¦
C on
Ġm ust
he re
it ed
çŃ ī
Ġpl ay
} (
çľ ĭ
ç Ħ
è °
L E
od y
Ð» Ð¾
re st
Ġin d
Ġpos s
sp an
et s
Ġ Q
Ġha v
un d
ur ing
Ġyear s
æī Ģ
åħ ¶
de f
Ð´ Ð°
it at
} ^
Ġl ast
Ġch ar
Ġinst all
Ġre qu
in ess
Th is
l ess
l and
é £
th is
Ġb oth
} _
ou ght
> </
ĠA r
p re
Ġs ur
Ð¸ ÑĤÐµ
Ġb r
Ġ err
~ \
unt u
Ġm at
Ġl ittle
a ut
ion al
s ub
çĤ ¹
Ġre al
g an
Ġst ill
Ġ --
i red
um ent
in al
w ork
c ent
en se
éķ ¿
å Ŀ
c ed
Ð½ Ðµ
Ġnum ber
èĢ ħ
v es
ce pt
Ġb est
äº ĭ
Ġre st
> <
Ã º
id th
iz ed
ä¸Ģ ä¸ª
ind ow
Ġb us
é Ĥ
Ñ Ī
ä¸ İ
æ ı
al k
Ġdel s
: //
ation al
æľ º
ph a
ĠÐ ¡
p art
æĥ ħ
p ly
Ġle t
åĲ Ī
e e
Ġin f
Ñĩ Ðµ
av a
Ġm em
Ġt erm
ĠA n
æľ ¬
Ðº Ð¾
ir c
è Ĭ
b l
äº §
Ġ* /
Ġcur rent
çĿ Ģ
gr am
c o
b r
Ġto o
çĦ ¶
Ã ¡
Ġg l
Ġv ol
éĹ ´
ä¸ »
é Ľ
Ġw r
è ī
as on
æľ Ī
Ġpart ic
Ġim port
Ġm ight
ar n
æ į
Ġin s
æ² ¡
é ¡
Ġwith out
a red
a ult
Ġv is
Ġ z
å½ ĵ
# #
éĩ Į
Â ·
Ġtr y
æ ¶
b ar
å §
ot e
éĥ ¨
é ļ
ĠL a
Ġc ount
Ġt em
ĠÐ¿ ÑĢÐµ
w ays
al pha
in a
Ð³ Ð°
ad es
O R
Ġpro cess
åľ º
t ic
pe c
åĬ ł
C om
ä½ Ĩ
ĠÐ ±
ç Ī
a j
s er
Ġl l
Ġe le
Ġo ld
Ġd irect
Ġf act
vel op
t en
ter s
ro p
Ġh ome
ä¹ Ī
Ġop en
v en
Ġ ve
ĠH ow
ĠĠĠĠĠĠĠĠĠĠĠĠĠĠĠĠ ĠĠĠĠĠĠĠĠĠĠĠĠĠĠĠĠ
ÑĨ Ð¸
Ġt est
Ġl ife
æĢ §
ç ¨
åĽ ł
ĠÐº Ð¾
ĠA s
Ġwor d
åĮ ĸ
Ġap pro
éĩ į
e xt
eth ing
E N
åĵ ģ
t d
Ġm en
N ame
an n
Ġm ed
is hed
åħ ³
Ġc le
A L
Ġse em
or n
oc i
ro l
ç ¤
i ence
Ġin formation
a z
éģ ĵ
Ġsm all
Ġf ile
èµ ·
Ġdis c
) \
i or
ri ed
Ġp ost
ro ss
æ¯ Ķ
ad d
er g
as es
ar m
a u
ri end
lo ad
è ģ
ak es
o ot
) :
v ed
Ġdes c
ĠS h
in c
åĨ ħ
b s
y p
ht ml
in u
ĉĉ ĉ
Ġs elf
th ing
Ġc ent
m od
e k
Ġqu est
. ,
v a
Ġc our
ç§ į
æĽ ´
el ta
al se
p i
s um
amb da
I D
Ġcon f
ar c
Ġpl ace
../ ../
iv es
éĢ ļ
ust om
id es
é Ķ
g g
æĪĳ ä»¬
Ġ ra
le ase
Ġdes ign
w are
Ġp ower
ĠC on
åº ¦
Ġpro per
åİ »
Ġp resent
v iew
æŀ ľ
ĠÐ °
n ect
ĠÐ Ł
I d
Ġor der
å »
ne w
Ġe as
tr ans
Ġh app
å· ±
Ġc r
Ġwor ld
re m
Ð² Ð¸
ĉ }
I f
å° Ĩ
ç ©
æ° ´
at ur
ç Ļ
Ġth ree
æĹ ł
Ġsup port
i vers
ç¾ İ
ĠF r
ar ge
Ġfe w
ĠC l
$ \
ert ain
Ġse cond
Ġcom e
Ġne ver
Ġch ild
cc ess
Ġto p
c ur
am ma
Ġgo ing
éĤ £
Ġsom ething
æ Ł
åı¯ ä»¥
E l
ap t
Ġ >
S E
um n
l ation
e red
Ġo per
us s
al th
am et
b ack
èĩª å·±
v ar
å ¢
ar ly
Ġfollow ing
Ġ ide
åħ ¥
ver t
Ġb re
T o
vers ion
p ed
im port
al ity
å¸ ¸
if y
ic i
Ġs l
æī ĭ
Ġ et
åĮ º
re am
rap h
æł ·
Ġan other
_ \
s ource
Ġde v
Ġhe ad
enc y
Ġ\ \
ç ķ
Ġre ally
es c
i k
Ġh ref
C h
ĠR e
Ġtr ue
= \
Ġpro f
æĸ ĩ
T ype
æ ģ
Ġs k
ist s
å¤ ĸ
æ¬ ¡
ä¸ ī
ä½ į
re g
it or
Ġeff ect
ç ³
Ġprodu ct
y n
A N
m u
Ġt urn
ç Ĺ
æĦ ı
é ħ
Ġo pt
Ð´ Ðµ
Ġp ur
è ¢
ĠThe y
b y
Ġp ut
Ġal ways
äº Ľ
ÑģÐº Ð¸
w h
Ġs ince
æĺ İ
é ľ
ç ĸ
re en
? "
éĩ ı
Ġm ain
ä» İ
Ġs w
âĢ Ķ
ot t
g er
çĽ ¸
A r
Ġst ate
âĢ ŀ
Ġel se
com m
Ġ Z
ĠS e
Ġa round
as k
Ġ id
Ġin de
ĠD e
F or
at t
s on
are nt
C l
Ð½Ð¸ Ñı
d ate
Ġm ark
è º
Ġ= >
p or
ch ool
ï¼ Ľ
is m
æı Ĳ
mathb b
s w
in ing
ĠN ew
m essage
i en
Ġall ow
y le
Ġm et
Ġth ings
it em
it z
-------- --------
S tring
st r
Ġbet ter
Ġmod el
st and
Ġf ield
æĥ ³
Ġle ad
o le
o pe
m ed
ch n
Ġgiv en
A l
Ġ `
ro ll
er ing
Ġad v
l og
iz ation
ra w
ç¬ ¬
ig ma
Ġst and
Ġcon d
} _{
if ied
Ġpro gram
Ð¼ Ðµ
æľ Ł
Ġde velop
pl ay
eng th
Ġs ure
è Ĳ
Ġ ,
Ġm ethod
èµ Ħ
Y ou
l oc
} ^{
ep s
è ĥ
Ġme an
Ġse g
Ġto t
Ġc are
a h
it her
Ġup on
Ġproble m
ä¿ Ŀ
Ġv an
Ġp at
Ġp res
ĠThe re
ç ĥ
ĠÐ ļ
Ġh ard
om en
R es
ce ption
ĠE x
os s
C T
Ġ !
åº Ķ
Ð¿ Ð¾
è ĭ
c ul
ĠS o
ĠÐ¸ Ð·
Ġas k
åģ ļ
ç ¥
Ġs ing
ĉ \
ç ²
Ġf ree
u le
s erv
Ġs it
r al
o h
Ġap pe
è Ħ
Ġg ive
ent ial
æ´ »
Ġbus iness
çĶ µ
ail able
èº «
it al
con t
Ġper form
Ġne xt
é Ĵ
r on
Ġw on
Ġle ft
I T
ct or
h or
- \
c ode
ht t
Ġl og
A s
è® ©
Ġlo ve
Ġpr im
ĠI s
at ely
ĠS he
Ġke y
å± ķ
æŃ ¤
ri a
Ġbo ok
re turn
iv ely
Ġf riend
c he
æĦ Ł
åı ª
ĠT r
Ġs ent
Ġex pl
å¹ ³
Ġt en
Ð¼ Ð¸
e le
Ġg ot
t ype
u ff
o ok
å¹ ¶
çĽ ®
an e
Ġl ight
éĩ ĳ
ĠT o
Ġob ject
ï¼ ģ
S S
Ġex pect
ate g
b ol
as ter
å» º
or g
çī ©
å ĸ
Ġn on
it ions
b f
Ġis s
ac he
Ġc ou
w idth
al ign
å ķ
e y
ĠW h
us h
riv ate
Ġc al
V al
ç ģ
cl ass
æ ·
ab ly
Ġerr or
Ġinte rest
^ {\
Ġcomp le
æ° ĳ
Ġch o
ĠM r
ph i
åĬ ¡
Ġposs ible
se ction
ap s
Ġf ull
mathb f
Ġex ample
it le
é ©
æŃ £
åı Ĭ
ain s
è¢ «
æ²¡ æľī
Ġm ar
m et
Ġfe el
ç ´
Ġth ought
è¡ ¨
åĲ į
ç ±
A n
å® ī
f e
/ >
h ip
ï¼ Ł
Ġcons ider
l ish
et y
ri es
l ambda
è Ī
ic ally
R ef
Ġcor re
ĠÐ ľ
Ġd at
b ers
l ing
Ġ )
ĠC ol
Ġke ep
Ġm ult
ere nce
w here
er c
Ġin cre
Ġl ess
nc ia
op t
Ġab le
ĠÑģ ÑĬ
Ġv ar
Ġse u
c d
w w
L ist
R O
Ġd ri
Ġle vel
Ġp ort
um e
ĠÐ ĳ
Ġch ange
è® ¾
é ¦
ac es
æķ °
n et
a w
id ed
Ġre ce
anc es
ç ł
in ter
ent ly
Ġb ro
åĳ ĺ
if t
åĪ ¶
E n
A nd
r ist
ar get
bo x
ab ility
ĠÐ Ĵ
f ace
t op
ç ¼
æ ¡
par am
d en
ĠE ng
ĠP l
id a
Ġc ost
w ith
Ġbu ild
E D
Ġn et
un ic
Ġloc al
Ġa way
r r
g o
ÑģÐº Ð°
an a
Ðº Ð¸
èĢ ģ
Ġpro ject
å· ²
ĠÐº Ð°
Ġst at
ut il
ä¸ ¤
f o
em ber
Ġl arge
Ġ= =
ä¿ ¡
Ġd uring
m on
æĪ ĸ
ent ion
Ġav ailable
åĪ ©
Ġo cc
Ġp o
Ġfin al
Ġl im
Ġab ove
Ñ İ
is ion
Ġt re
ĠI nd
Ġc irc
Ġm om
è į
Ġen c
Ġ {\
fig ure
Ġche ck
olog y
Ġv iew
Ġp ot
is ed
act er
çŁ ¥
Ð³ Ð¾
iv ed
ad o
Ñĩ Ð°
çī ¹
ĠE n
Ġw ater
us e
read y
A M
ÑĬ Ð»
åħ ĥ
ĠA p
Ġn ull
al t
æ° Ķ
Ġch ang
as ure
ĠN o
Ġf ar
Ġd one
L L
ç³ »
iss ion
ĠĠĠĠĠĠĠĠ ĠĠĠĠĠ
Ġc ame
" />
Ġimport ant
Ġt able
m ost
å¥ ³
ab les
ir d
b ut
un ity
Ġwith in
Ġap plic
Ġc ustom
il on
Ġs ide
Ġbe h
ç ¡
Ġp ack
oc ument
he ad
Ġa ff
f un
B ut
g es
v ious
Ð½Ð¸ Ðµ
å°± æĺ¯
Ġ ÑĦ
Ġgener al
ail s
Ð¾ ÑĢ
ä» £
ang le
å £
Ġd r
Ġs ize
Ġpro b
Ġt ell
d is
è· ¯
ç® ¡
ĠG r
im ent
le ction
u it
Ġserv ice
æķ Ļ
on a
Ġth ing
Ð¾ Ð½
Ġin c
Ġcall ed
Ġor ig
ĠO n
g a
ĠA ll
Ġh um
E T
a it
Ġte xt
ç½ ĳ
Ġn om
nc ies
ap er
Ġm ov
Ġ ver
ag er
u ck
ç» Ļ
C ont
our s
Ġ Ñĥ
Ġp op
ĠÐ´ Ð°
Ġk ind
Ġ ÑĢÐ°
Ġpl an
H e
Ġth ough
Ġh ist
Ġap p
Ġse va
Ðµ ÑĢ
Ġme ans
Ġcon nect
ke y
d ata
Ġar t
ĠW hat
Ġacc ess
Ġin tern
ãĢ ĭ
" )
at al
ial ly
éĹ ®
ãĢ Ĭ
n o
ie ve
Ġresult s
ĠW hen
åı ¸
é¢ ĺ
å¼ ı
è§ £
du ct
Ġl ib
\ \
Ġagain st
Ġan al
Ġmon th
f ect
rib ut
Ġte chn
T r
Ġe y
ĠO r
n a
. _
ar ray
ä¸Ń åĽ½
âĢ ¦
Ġl ow
b eta
Ġhav ing
æ »
p ose
Ġf re
at ter
l ist
Ġv oid
Ġb as
Ġp rom
ĠÐ Ĳ
Ġd ays
Ġre port
æī ĵ
åĪ «
s igma
Ġquest ion
av en
D E
it ive
Ġsp ace
Ġde pend
pl oy
' )
al f
} {\
trans lation
one y
å¼ º
Ġcomm and
Ġf alse
Ġen ough
äº ¤
pon se
Ġpro te
b untu
ĠĠĠĠĠĠĠĠĠĠĠĠĠĠĠĠ ĠĠĠĠĠĠĠ
g l
ä» ·
è® ¡
Ġev ent
ver n
! "
p x
é ª
é ĵ
I C
is ter
å° ĳ
ĠM ar
re t
äº Į
I I
Ġ( \
ard s
çº ¿
Ð· Ð¸
å ŀ
Ġg row
Ġs um
ç ¦
Ġte am
Ġh ouse
p m
æ Ĥ
Ġon ce
Ġwe ek
Ġro om
Ġrep resent
ro id
è £
Ġb ig
ir on
Ġc ertain
ap e
Ġal ready
ĠÐ³ Ð¾
th at
ç¨ ĭ
ĠS p
^{ -
Ġsh ort
ä¸ ĩ
Ġunder stand
l er
ä½ ¿
l u
in ation
b t
ĠA mer
in clud
ir t
é »
pl es
Ġpartic ular
math rm
Ġg roup
p ond
A C
ition al
a ction
il es
ĉ <
m y
" );
å¥ ¹
Ġt imes
Ġl ot
Ġor gan
i um
Ġcre ate
Ġcomp any
ĠTh at
ĠP r
ĠA d
åı Ĺ
st ring
æİ ¥
èī ²
åİ Ł
ĠU S
Ġfam ily
Ġy et
r c
C ol
ess ion
Ġp ay
end ed
Ġg ame
ÑĢ Ñĥ
indow s
Ġ version
è Ļ
Ġcour se
Ġm us
Ġex c
g round
il ar
æĮ ģ
a f
Ġsu ccess
Ġb en
Ð½Ð° ÑĤÐ°
Ġex ist
W hat
+ \
Ġre t
Ġwh y
Ġ u
Ġun til
Ġm or
Ġe ver
s q
ou th
Ġres pect
it ch
* }
Ġn ight
Ġacc ount
å¤ ´
é£ İ
åĲ ĳ
ĠP h
Ġs at
æĶ ¾
um ber
Ġst ring
sc ript
çľ Ł
o x
åį ģ
æį ®
Ð° ÑĢ
Ġe lect
ad or
op y
åĽ ŀ
ĠL e
Ġw ent
**** ****
ri ption
Ġus er
it er
Ġf ore
] {
å·¥ ä½ľ
ĠM y
Ġb it
çĽ ´
Ġf our
ç» ĵ
w ord
==== ====
Ġcont rol
æ¯ ı
i us
er o
ak en
ist r
Ġwork ing
Ġs chool
èĩ ³
Ġbe g
æľ į
åı ĺ
åŁ º
å¤ Ħ
Ġt yp
Ġm ot
g amma
Ġ Â
ĠU buntu
O b
Ġlook ing
Ġcomp ut
h ing
ater ial
ar row
ĠÐ ¢
æĬ Ĭ
B y
] ,
at ures
Ġ ÑĤ
on es
( $
Ġwor ks
I S
iqu e
D ata
Ġal ong
s ide
ar ing
E S
p ing
¥ ¿
Ġse lect
or ies
le y
l s
ĠÐ´ Ð¾
ord ing
Ġgo vern
le m
Ġ ident
ĠR es
Ġar g
è´ ¨
ip s
Ð° Ð½
ĠB e
Ġex p
ĠÐ Ķ
I ON
ä¸ ľ
Ġp rivate
Ġof ten
Ġla w
Ġle ast
ĠC an
i ver
éľ Ģ
Ġle g
ur a
éĿ ŀ
ur s
Ġl ay
Ġen g
Ġm ind
^ \
v ol
ur ther
orm al
aj or
P h
ill s
ĠG od
åį ķ
Ġprov ide
åĲ Ħ
æµ ·
R e
or th
Ñģ Ð¸
Ġmom ent
ri p
Ġin put
H E
Ġexper ience
Ġh old
Ġsh all
O T
ub untu
"> <
æĶ ¶
se c
m p
oc ial
Ġst ruct
n ow
ĠÐ¿ ÑĢÐ¾
è ¥¿
Ġm ag
ĠB l
Ġpar amet
pos ed
Ġhe alth
ĠA t
ĠÑģ Ð°
m it
Ġre ason
ĠM an
m b
éĹ ¨
f ile
æĬ Ģ
oh n
ist a
åħ¬ åı¸
o ff
Ġsing le
t est
Ġe ither
H ow
rr or
Ġw rit
Ġin it
Ġyou ng
og le
Ġm ill
Ġse en
Ġout put
åı £
] ;
åĨ į
ap h
it ud
Ġse ver
val ue
i od
U n
in st
Ġso ft
Ð´ Ð¾
A P
ud o
r ho
Ġsup er
con st
Ġdoes n
Ġan sw
Ġinclud ing
le q
ward s
" :
Ð½Ð¸ ÑĤÐµ
get her
Ġb ased
Ġto gether
ou ble
Ġex press
d elta
æĶ ¿
" .
d o
Ġit em
or der
ific ation
Ġen erg
Ã ¯
) }
ac ions
Ġh i
iv ing
iv ity
ĠÐ½ Ðµ
ĠC ar
çĪ ±
Ã ¼
ide o
Ġf ix
Ġbel ow
s el
éĻ ¢
ä» ¶
b ig
Ġp ast
Ġm aking
om an
l ib
å ²
æł ¼
L a
æľ ¯
çĶ ±
ĠG u
Ġmark et
Ñģ ÑĤÐ°
ore d
Ġsit u
f ort
le g
åķ Ĩ
inc ip
Ġcl os
âĢ ĺ
al es
Ġob tain
a i
our ces
Ġ era
æĢ »
æµ ģ
b ody
c hed
the ta
ĠÐ Ŀ
è¿Ļ ä¸ª
åĢ Ļ
ic an
ÑģÑĤ Ð¸
Ġal t
Ġcorre ct
se arch
ul es
O n
ä» »
Ġcomp let
ac y
Ġli k
t ime
Ġcom b
ĠThe n
Ġm ass
ä» Ĭ
ang u
Ġinv est
t able
ĠÐ¾ Ð±
è¿ Ĳ
ta u
Ġph ot
Ġm ove
Ġen v
id s
è ±
ul ation
$ -
ref ore
Val ue
ĠUn ivers
åŃ ©
Ġp ract
u ro
ym bol
s k
æ ®
Ġh tt
en ed
Ġstr ong
ĉ if
æī į
Ġre pl
de v
The re
å¸ ¦
O S
ç§ ĳ
Ġh ig
éĢ ł
un a
Ġ& &
Ġent re
Ġp ob
Ġs ays
Ġsever al
S h
Ġbre ak
S et
a im
Ġsim ple
Ġcan not
iqu es
t imes
qu e
em pt
ĠĠĠĠĠĠĠĠ ĠĠĠĠ
Ġre du
Ġme et
Ġc ode
] .
Ġd est
Ġrequ ire
æ± Ĥ
// //
ĠW ith
am s
Ġne cess
Ġadd ress
Ġc as
åħ Ī
Ġhe art
Ġd iv
Ġf ut
Ġwho le
}$ ,
um p
oc us
ur ation
ain t
in it
c le
Ġdet erm
n u
å± ±
Ġnot hing
è® °
}$ .
ĉ //
I m
is on
éĢ ī
id ual
C O
b u
Ġim pro
Ġchild ren
ĠCh rist
è® ¤
Ġ ?
ĠÑģ Ð¸
s ize
Ġ %
Ġon line
t es
ar ning
æ ¼
! !
Ġp age
ur y
ro du
Ð¿ Ð°
Ġspec ial
Ġval ues
å¸ Ī
å¯ ¼
Ġcol or
en e
Ġm ax
ail ed
Ġare a
æĬ ¥
åŁ İ
ar r
è° ĥ
eq ref
Ġspec ific
ĠP er
Ġm oney
} (\
åŀ ĭ
i ents
è İ
Ġf ace
Ġcont inu
Ġto ok
è§ Ħ
ou d
Ġcomm on
åĮ »
Ġs ound
x i
å¢ ŀ
ĠB r
Ġst op
Ġle arn
Ġother s
Ġword s
Ġre d
Ġt alk
is ing
å Ķ
Ġs ense
Ġc reat
Ġb ound
s m
è¯ Ŀ
Ġsim ilar
Ġp el
Ġcount ry
an ks
b all
Ġp ath
ç« ĭ
Ġsu gg
å® Į
ä» Ģ
Ġcont ent
æ º
çº §
è Į
un g
in o
ri x
Ð¿ Ð¸
ic ial
Ġre quest
è´ ¹
åĽł ä¸º
Ġab s
ĠS c
im al
Ð· Ð°
Ref er
I s
Ġhow ever
Ġj ob
m at
Ġl and
å½ ±
end ing
æĹ¶ åĢĻ
G et
Ġd om
. )
Ġal g
un e
Ġb ody
ĠÐ¿ ÑĢÐ¸
Ġdesc rib
ĠP ar
åı Ī
Ġsugg est
å® ¹
Ġs ource
Ñģ ÑĤÐ¾
ĠD o
Ġvol t
atur al
col or
res h
ĠT e
ä¼ ł
S o
é ¥
èģ Ķ
ĠQ u
ens ion
Ġm ajor
éĺ Ł
å¦Ĥ æŀľ
part ial
Ġqu ite
ä»Ģ ä¹Ī
V iew
æķ Ī
åį Ĺ
Ñģ Ðµ
ain ed
ä¸ ĵ
A S
Ġob serv
æķ ´
ĠHow ever
æ¸ ħ
ome ga
ft y
f rom
Ġenerg y
Ġes c
ag ement
æł ĩ
ä¸ ĸ
Ġr ange
" ;
O r
Ġt w
è ħ
ict ion
çĹ ħ
ure d
Ġhim self
m and
ro om
ĠĠĠĠĠĠĠĠ ĠĠ
Ð» Ñı
Ġc amp
è¾ ¾
ir m
Ġkn own
om et
æĪ ĺ
u ed
æĹ¶ éĹ´
Ġm akes
Ġcon c
enc es
) );
Ġfil es
ç ħ
pos ition
row s
ç¤ º
Ġchar acter
ful ly
ä»ĸ ä»¬
ç» Ł
Ġwhe ther
Ġp od
l ight
A D
Ġa ir
Ġbe aut
A p
S e
èĬ ±
è¯ ¥
åĪ Ľ
c m
[ '
b a
Ġdo ing
Ġes pec
èĬ Ĥ
W ith
Ġin div
Ġh alf
Ġtot al
Ġper fect
r t
ic ro
è¿ ĳ
ÑĬ ÑĤ
ic ient
Ġvis it
U T
I M
N o
bo ok
Ġal s
W h
ol l
Ġa quest
ag ed
åı °
Ð ¡
ne ction
ä¼ ģ
Ġeas y
Ġv i
Ġac ross
iv al
Ġserv ices
åĩ ł
c hes
Ġst re
Ġb ase
Ġb ar
ĠÐ ł
Ð Ł
Ġe ar
Ġide a
è¯ ģ
Ð³ ÑĢÐ°
i ar
Ġbec ome
wh ich
ac ed
Ġam ong
ol s
Ġd ue
j oy
Ġrun ning
æĪ ¿
Ġany thing
Ġme asure
Ġr ather
æ¶ Ī
p ath
ĠC ent
ut es
Ġneed s
il t
çļĦ äºº
f ield
qu ad
Ġf lo
ĠS tring
Ġc aus
Ġpr incip
å Ħ
W hen
Ġtr ad
Ġf av
é¡ ¹
Ġf ill
Ġd en
Ġf a
ne y
ÑĢÐ¸ Ñı
I nd
M od
çĻ ½
Ġpos ition
ç² ¾
ç¤ ¾
Ġs ite
Ġdisc uss
sp ace
å½ ¢
ple ment
Ġqu al
Ġal most
Ġ$ (
è¾ ĥ
m m
Ġl os
Ġlo ad
ä¹ ¦
A ll
r s
til de
| \
Ex ception
Ġdid n
ĠÐ ĵ
Ġp aper
U R
Ġim age
it a
ĠJ ohn
Ġp ress
Ġst atic
ÑĨ Ð¸Ñı
in fty
è§ Ĥ
Ġt amb
Ġr ad
ie f
cc i
Ġnet work
z e
IN G
A B
æĮ ĩ
Ð¶ Ðµ
Ġim p
ur al
è§ ģ
Ġne ar
Ġsu ff
ç© º
m ary
im um
Ġan n
le x
å® ĥ
çĲ ĥ
Ġseem s
Ð¼ Ð¾
re w
åı ĭ
Ġm aterial
Ġcont in
ç ĭ
fun ction
èĢ ĥ
Ġdef ault
th ough
Ġse arch
åıĳ å±ķ
Ġ/ **
æ¸ ¸
åĦ ¿
Ġact ually
row n
se e
Ġh om
im ate
Ġcor res
t ies
Ġrec ord
Ġwe bs
Q u
Ġ ÑĢÐµ
åĽ Ľ
èµ °
ar a
od es
ig ure
è¶ Ĭ
Ġet c
åħ ī
I nt
b it
p en
s im
htt p
æ³ ¨
os p
ĠI N
åŃ© åŃĲ
Ġst yle
Ġqu ick
è§ ī
is f
ur ant
ra in
C H
æ £
ob al
ic y
ÑģÑĤ Ð²Ð¾
Ġt arget
ĠThe se
å¿ «
Ġd ocument
ic ult
' );
Ġcl ose
at ors
i ke
Ġsol ution
Ġg round
ĉ return
è¿Ľ è¡Į
as c
Ġc ut
Ġfun d
.. ..
æ² »
Ġf ood
Ġne g
e b
Ġrequ ired
r ary
Ð»Ðµ Ð´
Ġinclud e
æĺ ĵ
E rror
ic on
Ġstud y
Ġbl ack
Ġa ction
èĤ ¡
g u
Ġget ting
Ġt aken
Ġso on
D elta
l im
ç Ĭ
éĹ® é¢ĺ
ç» Ħ
Ġcom es
Ġindiv idual
Ġopt ions
( ).
erv ice
Ob ject
æĪ ·
i res
Ġst ep
Ġg ir
Ġf low
ib ility
Ġcon fig
Ġper iod
Ġt ro
Ñĩ Ð¸
è§ Ĩ
Ġf all
if ul
åĬ Ł
Ġl ater
Ġbu y
æİ ¨
ĠC ont
ĠO ne
åħ ·
f l
Ġem ploy
Ġo ption
èµ Ľ
åĮ Ĺ
el t
cl us
at us
is k
Ġ! =
ac hed
Ġpoint s
Ġbeg in
Ġh ab
ru ction
j s
r am
tern al
loc ation
Ð± Ð¾
av ing
ra f
Q L
eg a
æĿ ¡
le ment
Ġmat ter
ä¸ Ķ
ĠS er
Ġsa w
ab ase
Ġtry ing
Ġex act
ce ed
Ġansw er
n b
Ġqu ality
in ary
id d
Ñī Ð°
D ef
ĠEng lish
r up
rib ute
æĶ ¹
d own
o ke
rib ution
åĲ ĥ
A dd
ĠA ss
Ġres p
ur l
sel ves
Ġl ive
ĠD es
æĬ ķ
T est
Ġar tic
Ġshow s
åı ĸ
éļ ¾
g ress
$ $
å¤ ª
g ed
Ġto ld
un ch
ĠÑĢÐ° Ð·
Ġey es
ind ex
ç± »
Ġcomp on
t ings
Ġh ot
æ· ±
em pl
ĠÐ »
iron ment
a ff
Ġind ic
le v
ch o
st er
cd ot
ol ution
v ing
ĠB y
Ġ ...
end s
Ġl arg
A t
æŃ ¥
Ġf ac
ver age
Ġto day
Ġf urther
ç¡ ®
Ġt reat
Ġd er
N D
é£ Ł
Ġse par
p ublic
itt ed
Ġex ec
l ay
Ġph ys
ore m
ĠE st
ç¥ ŀ
Ġproper ty
_ ,
## ##
Ġpre vious
Ġpre t
Ġm ap
ä¸į æĺ¯
Ġor g
å¤ ĩ
angu age
n s
in put
å¾Ī å¤ļ
l ink
ĠV al
Ġh or
ari o
ĠÐ³Ð¾ Ð´Ð¸
Ġsub ject
Ġm il
t ab
å§ ĭ
æ¬ ¾
Ġm iss
è½ ¬
æ ĳ
Ġs ocial
ä¼ģ ä¸ļ
Ġinst ead
Ġiss ue
ur ch
çķ Į
ig u
u x
o in
èĤ ²
ott om
com p
Ġass oci
ab or
and o
ut h
id ence
on y
us er
Ġorig inal
og raph
Ġbel ieve
ä½Ĩ æĺ¯
Ġl ink
Ġask ed
ĠM ay
å·² ç»ı
Ġpr int
åĳ ¨
itt en
é¢ Ĩ
ell s
id ing
ab led
N ot
med i
æ ¹
um er
o on
ĠS ystem
å¸Ĥ åľº
Ġ ÑĤÐ¾
Ġh ope
è¿Ļ æł·
Ġt ried
Ġ// /
ĠG o
U S
ĠIn st
Ġcle ar
Ġp ref
p ack
ÑĢ ÑĬ
I G
Ġw alk
um ents
} [
Ġt ri
ä½ ķ
åį İ
M y
Ġs il
Ġperson al
op s
Cl ass
is c
ĠÐ¿ÑĢÐµ Ð·
Ġfut ure
O M
Ġwh ite
s up
å¼ ł
Ġoff er
èĲ ¥
' ]
ĠN ot
æ ħ
F F
Ġp ri
Ġind ust
Ġst ory
Ġevery thing
"> </
i u
Ġh ost
Ġsign ific
Ġele ment
ĠC he
Ġde g
ä¼ ĺ
æ ¢
P ar
æīĢ ä»¥
Ġen joy
Ġsh own
Ġwr ite
Ġser ver
Ġdev ice
åĩ Ĩ
ra ft
Ġpar a
æģ ¯
() );
ä¹ ł
Ġs ens
Ġapplic ation
Ġso bre
ĠC al
ut ions
og n
ul a
Ġest ab
eq n
T ext
ĠI nt
Ġcont act
o res
Ġ ill
å¸ ĥ
å¹ ¿
Ġcon text
Ġs ort
ĠS te
r id
ist ic
ag s
åħ ±
w ise
m en
inu x
Ð° Ð»
Ġam ount
con om
Ġadd ed
éĢ Ł
Ġprob ably
çĥ Ń
Ġp ict
ĠS up
i ans
Ġspe ak
} }\
Ġcorres pond
Ġp a
ä¹ Ĳ
Ġt itle
p ace
åĬ ŀ
led ge
Ġinde x
ĠE d
Ġv ia
nb sp
av es
ĠÐºÐ° ÑĤÐ¾
Ġan t
Ġterm s
ä¹Ł æĺ¯
éĽ Ĩ
Ġpob l
it es
Ð Ĵ
åħ »
éħ į
ĠÐ ŀ
Ġvolt age
Ġwe b
Ġcont ain
æĶ ¯
é Ł
Ġre view
p oint
Ġen s
f ra
Ġc ity
and s
Ġp red
Ġs i
Ġperform ance
Ġb ring
h a
Ġm ach
as ing
Ġhav ia
Ġdri ve
Ġdis play
Ġex am
re l
ys is
K ey
Ġ ess
Ġfe atures
Ġstart ed
Ġb ad
Ġhum an
éĺ ²
r ite
Ġf ocus
m ega
è£ ħ
h aps
åĨ ³
Ġben ef
ust r
Ġpro p
åı į
Ð²Ð° Ð½Ðµ
bo ard
Ġh ours
Ġde al
Ġcol umn
ĠG e
Ġw ait
re c
åĮ ħ
Ġfre qu
)$ .
Ð³ Ð¸
u f
l ished
Ġp or
ĠÐ ĺ
ç» Ń
U LL
Ġp ie
å¤ į
Ġprof ess
Ġstud ents
Ð²Ð° ÑĤ
Ġ Ã
Ġp le
Ġw omen
Ġinte gr
ä½ İ
s l
ĠH is
Ġint rodu
Ġbl ock
çĶŁ æ´»
å ĥ
Ġb ed
æł ¡
Ġaut hor
M an
ell ow
å® ¢
Ġinv ol
Ġwon der
Ġm ol
e ff
Ġc ases
Ð¿ Ðµ
Ġfr ont
ĠC or
P E
port s
Ġar ray
ĠC o
per ty
Ġhig her
b ed
æ ¨
Ġact iv
Ġs em
e ction
Ġsat isf
å± Ģ
} ;
ç ª
Ġp arent
åı¯ èĥ½
è¿ĺ æĺ¯
Ġc rit
Ġw in
R equ
Ġaut om
é© ¬
Ġres ist
itt ing
Ġn atural
F ile
old s
åĢ ¼
Ġse ction
l ia
Ġproduct s
Ġsome one
Ġac cept
op er
â Ķ
Ġqu ant
ĠF l
uro pe
æĿ ĥ
x im
è ı
ou ch
T ER
Ġd ire
Ġent ire
T ime
Ġv ideo
Ġdiff icult
i i
T R
æľ ª
ip le
Ġcle an
Ġwebs ite
g roup
Ġe arly
æ Ĳ
Ġsim ply
en n
Ġl ower
çī ĩ
o ad
roll er
æº Ĳ
å® Ŀ
\ ,
Ġr ate
ou nc
ĠÐ Ľ
åĪ Ļ
Ġcomple te
ĠM ed
Ġinst ance
Ġf ou
L O
ĠÐ² ÑĬ
d f
Ġlim it
: "
Ġvari ous
æĺ ¾
Ġar ch
Ġt aking
åĬ ¿
çº ¢
+ +
n av
ur g
Ġappro ach
il ities
Ġcal cul
Ġsc he
ĠL et
L A
Ġh on
è¶ ħ
Ġits elf
Ġm essage
çİ ¯
ä¾ ¿
Ġpot ential
m ar
u i
å ¨
htt ps
Ġl ength
Ð± Ð¸
è® º
Ġappe ar
Ġre search
ma x
Ġup date
O mega
åĨ µ
or ld
éĻ ¤
Ġinstall ed
= '
Ġc ult
y l
w as
åı Ĥ
f er
çľ ģ
æ Ĵ
Ġ/ >
ĠR eg
Ġc ard
çİ ĭ
Ġfriend s
er al
åį ĩ
Ġmem bers
i et
æ ļ
Ġ util
ä¼ Ĺ
se qu
in ition
åį ³
AT E
Ñĥ ÑĢ
en ing
itud e
éľĢ è¦ģ
In st
end er
Ġcre ated
m ission
Ġcomp et
li ke
çł Ķ
m ap
o ice
ÑĬÐ» Ð³Ð°
æĢ ģ
! --
err or
T hat
p y
n ode
Ġed uc
Ġre comm
åĨ Ľ
Ġdown load
and om
l t
Ġf ine
i j
åĬ ©
æł ¹
eps ilon
Ġan g
äº Ķ
ĠĠĠĠĠĠĠĠĠĠĠĠĠĠĠĠ ĠĠĠĠĠĠĠĠĠĠĠ
Ġf ire
F rom
å¹ ²
y nc
Ġf ive
Ġp ers
d om
Ġ ÑĤÐµ
text bf
c apt
en a
Ġhand s
ove red
Ñī Ðµ
Ġn ormal
ĠUnivers ity
in ks
ĠÐ´ Ðµ
Ġexpect ed
__ __
Ġmin utes
} _{\
am ed
Ġp lease
Ġneed ed
ä¾ Ľ
' ;
å¼ ķ
Ġw indow
åĳ Ĭ
Ñģ Ð°
ĠS ant
raph ics
æľį åĬ¡
Ġser ies
Ġr ound
m ber
S c
Ġconst ant
I P
Ġs al
Ġag o
Ġbo x
ĠI m
Ġhtt p
Ġprote ct
Ġg e
é¦ ĸ
u ly
l ength
æŁ ¥
( ),
is es
Ġmod els
äºº çļĦ
Ġcond ition
Ġa ud
Ġs ud
Ġhe ard
le ep
Ġcomp an
il s
ast ic
èĩªå·± çļĦ
Ġd rop
c ome
Ġst e
åĥ ı
un s
O f
Ġpr ice
Ġm ount
åĽ ¾
he l
Ġth us
æĢ Ŀ
åĽ ¢
Ġcomm unity
ĠAmer ican
çİ° åľ¨
æ¡ Ī
A d
ÑģÐº Ð¾
éĿŀ å¸¸
Ġsh are
ĠA fter
anc ed
ll a
air s
Ġes p
Ġlook ed
pr int
Ġlik ely
con fig
Ġsoft ware
k en
Ġreg ard
Ġback ground
Ġ Ñħ
æ» ¡
Ġm other
Ġbo ot
å¤§ å®¶
ener al
Ġsc reen
éĥ½ æĺ¯
è¶ ³
Ġgr aph
E vent
Ġst ay
ww w
ç ı
Ġext ra
ĠM ac
æĿ ĳ
Ġrel ations
Ġf er
L et
' :
or ith
g ing
ot a
Ġd im
b in
Ġdo or
pl ied
Ġfe ature
ok en
Ġbeaut iful
Ġlong er
ĠIn tern
Ġm atch
un der
çľ ¼
ro s
ps ilon
ps i
Ġd ig
å¿ ħ
Ġstand ard
Ġchang es
Ġtr ack
d b
Ġh ol
j ust
Ġtra ining
l ock
çİ ĩ
ou n
ell ing
og raf
Ġproble ms
ĠP ol
æĸ Ļ
èĩ ´
os a
Ġop port
æ® µ
ĠN ow
ĠA b
rou ght
ist es
Ġdevelop ment
y a
Ġtem per
æİ Ĵ
Ġf ather
am a
çļĦ æĹ¶åĢĻ
Ġfin s
Ġpre c
EN T
y ou
Ġ vers
çħ §
Ġdef ined
Ġb and
ä¹ °
sq rt
ä½ ı
Ġmonth s
Ġpartic ip
ä» ħ
Ġa ch
)$ ,
ĠÐ ¥
å¾ Ģ
cur ity
Ġd os
ĠW ill
ĠM e
Ġc ross
irt ual
Ġmus ic
. </
Ġf ul
Ġw all
å ©
Ġl at
ÑĢÐ° ÑĤ
çģ «
è¾ ¹
Ġpret ty
ĉĉĉĉ ĉ
Ġw oman
ç Į
P I
Ġde cl
c ount
Ġreg ular
ag ing
Ġsystem s
' '
Ġp an
Ġl oss
n ia
yn am
res ult
^ *
åı ·
è¯ Ĩ
Ġa w
ĠO ur
c up
ĠD r
Ġn ode
Ġis n
ĠÐ² Ð¾
ÑĨ Ð°
ĠW indows
å Ļ
v are
nc es
éļ ı
åį ´
Ġs on
æľ Ľ
æĬ ¤
Ġs un
ç¦ »
Ġle ave
M L
ir it
Ġprov ided
é ¾
s ing
b m
Ġd ate
m ore
Ġcl ick
ĠÐ¼ Ðµ
ĠA dd
Ġdet ails
çļĦ ä¸Ģ
Ġwe ight
åĸ ľ
Ġacc ording
Ġs ym
Ġcomple x
ĠM in
Ġl ines
Ð ĺ
Ġd raw
sub section
ĠB o
Ġus ually
Ġc ause
Ġinit ial
Ġf ast
Ġfor ward
Ġquest ions
f il
Ġrem ov
Ġact ual
Ġadd ition
Ġwh ose
Ġpobl aci
our n
Ġcom ing
ra v
Ġ ÑĩÐµ
åħ ĭ
um b
Ġse ason
Ġstruct ure
il der
O ver
å¤ Ł
éĢ Ĥ
è® ¸
E d
Ġdiffere nce
capt ion
æ² ¹
or a
i as
G amma
Ġresp ons
éĢļ è¿ĩ
Ġenv ironment
Ġro ot
k n
Ġhist ory
her s
Ġnot e
Ġw atch
Ġde ath
n on
Ġcl aim
Ġcho ose
Ġim plement
Ġp ick
et er
/ *
Ġf it
or age
Ġap ply
Ġwr ong
U N
åŃ ĺ
Ġs low
ur b
Ġm ention
Ġg ave
Ġmy self
çļĦ æĺ¯
r ad
c or
p res
iz ing
Ġpart s
Ġnecess ary
Ġ );
å¤ ±
Ġimpro ve
Ġev ents
ign ed
Ġgiv es
çĶ ·
Ġc am
r im
or ks
c an
ĠP art
æĸ ¯
N ow
sum mary
" "
ann el
n ers
æŀ ģ
è® ®
éĻ ħ
eqn array
Ġ ri
Ġespec ially
Ġde ep
Ġres ponse
vare psilon
ang er
Ġgovern ment
Ġg en
nd er
ç§ °
It em
Ġ ~
ĠR ep
Requ est
Ð° Ð¹
idd le
åĳ ½
Ġf oot
C E
åŃ Ĺ
Ġp ub
éª Į
åĪ° äºĨ
ef ore
Ġmor ning
Ġass ert
st yle
Ġspe ct
çº ¦
Ġd ark
ç´ ł
ç± ³
Ġw ar
Ġass um
---------------- ----------------
o oth
ĠY ork
pon ent
Ġbeh ind
F r
Ġk new
St ate
b or
Ñģ Ð¾
Ġm ode
tern s
Ġth ird
} =
ph p
Ġfollow s
ç½ ®
è¡ Ģ
Ġthem selves
å¼Ģ å§ĭ
unic ip
Ġp ain
D o
è± ¡
Ġc a
Ġwrit ing
Ġd am
Ġiss ues
Ġfav or
ĠS et
D e
ĠH ere
Ġcap ac
æĸ ½
v is
Ġpl ant
ĠÐ½ Ð¾
B u
F ield
ĠM on
Ġdi ag
äº ¿
Ġwr itten
T E
ÑģÐºÐ° ÑĤÐ°
u el
å· ŀ
eg raphics
includ egraphics
Ġcond itions
I L
E lement
å¢ ĥ
Ġs ix
Ġsignific ant
Ġc opy
min istr
ĠG et
æ¬ ¢
Ġcol l
Ð» Ñĥ
tr ue
æĸ Ń
F orm
Ġs we
Ġcons ist
Ġt akes
pl ies
ol a
Ġa ge
ear ch
ĠÐ ¤
Ġrece ived
Ġpop ular
Ġs n
æİ §
è¯ ķ
il le
pro of
i os
s udo
Ġrem ain
Ġpur ch
er ra
è¿ ŀ
us ed
Ġcirc uit
ĠY our
r ide
t ot
Ġbuild ing
h ab
Ġrel ated
éĶ Ģ
Ġc red
Ġle arning
y d
o o
L e
Ġknow ledge
Ġwor th
ĠI I
em ph
Ð ĳ
ad y
ograf ia
c ion
h ib
Ġup d
Ġturn ed
Ġcomput er
ÑĢÐ° Ð½
) {
Ġc i
ob ject
Ġ/ *
çĻ ¾
P S
_ .
ĠCom p
ĠP a
p o
Ġs us
cre t
p ri
æ¼ Ķ
e ed
Ġp et
Ġro ad
åĵ į
èİ ·
m d
éĻ Ĳ
è ¨
Ġgr ad
ĠÐ¼ Ñĥ
h and
Ġinde pend
Ġmean ing
v oid
Ġf ail
Ġw idth
Ġthe refore
d es
è¯ ·
) =
Ġfr ame
r ict
Ġwant ed
m ing
ort s
Ġ} );
Ġspe ed
æµ İ
Ġadd itional
Ġhe ld
ĠN ULL
In fo
M ap
E qu
rou ps
A G
éĴ ±
ĠE urope
çŁ¥ éģĵ
th on
åİ Ĩ
c a
Ġread y
ĠM ore
ern el
ole an
}^ {\
c ast
Ġst ates
Ġmult iple
ç¬¬ ä¸Ģ
Ġl iter
N ode
ab la
æĥħ åĨµ
æ¨ ¡
val id
Ġprov ides
op h
Ġ( $
Ġsa ve
pl ace
ĠO b
éĺ ³
ĠÐ³ ÑĢÐ°
S he
R ead
ĠÐ ķ
åĻ ¨
=" +
y ing
it ing
ill a
Ġm ent
The n
U p
Ġch all
s u
ch i
åģ ¥
Ð¼ ÐµÐ½
plic ation
äº§ åĵģ
Ġval id
ens ive
ÑĢÐµ Ð·
ĠB ar
ide red
å¯¹ äºİ
Ġpol it
Ġ} ,
Ġacc om
Ð ł
Ġins ide
ver se
è½ »
Ġfam il
Ñĩ Ð½Ð¸
æĬĢ æľ¯
è¨ Ģ
f in
ĠA m
æŀ Ħ
Ġto wn
Ġcl ient
Ġ q
^{ (
Ġim medi
å¥½ çļĦ
ic le
æĻ ¯
å§ Ķ
le ge
j ava
Ġeas ily
çī Į
ian a
se lect
if ier
Ġ\ ,
B e
ç ¢
å ĭ
ens ity
d t
Ind ex
an ch
Ġse us
è¿Ļ äºĽ
Ġincre ase
è´ £
Ġd ou
. '
cent er
ord in
Ġ$ {\
ç§ ¯
Ġbl og
ap i
m ult
Ġs qu
() )
~ ~
at form
Ġin form
å¾ ·
Ġw ays
Ġhe ar
P ath
Ġl anguage
oc s
it ats
Ġpart y
åĽ½ å®¶
O ne
Ġt ax
ç® Ĺ
Ġcon nection
åı Į
Ġlook s
Ġbe com
Ġartic le
ç» Ī
I R
pl it
ĠÐ³Ð¾Ð´Ð¸ Ð½Ð°
Ġdirect ly
ç®¡ çĲĨ
æĺ Ł
ent y
Ġm is
Ġsw itch
è¿ ľ
Ġun ique
Ġl iving
Ġbe gan
Ġc ast
åĨ ľ
Ġdes pr
rup t
ç« Ļ
h ood
Ġl ost
é¢ Ħ
Ġus ers
ĠS m
Ġst ore
èĲ ½
Ġb lo
Ġse c
ĠSt ate
u k
Ġf elt
Ġass ist
Ġanal ysis
P l
t itle
ĠS ome
Ð´ ÐµÐ½
Ġsc ript
E nt
æĹ ©
Ġseem ed
Ġrem ove
c all
äº ²
esc ription
Ġrec ogn
und red
ä» ½
Ġsom et
Ġa pt
Ġyour self
Ġf air
ĠG l
| -
Ġn ames
h ost
ĠC ount
Ġd ir
ap ter
sh ip
é» Ħ
Ġpack age
å£ «
æĸ¹ éĿ¢
æ± Ł
å¤§ çļĦ
ill ed
Ġmethod s
ug ht
Ġatt empt
st art
i am
h am
ĠP e
åĪ ĩ
ĠUn ited
Ð¶ Ð°
Ġw ish
ne xt
ge q
å¾ ®
ä¹ ī
ob ile
ç» ´
ĠD ep
ä¸Ģ äºĽ
åº ķ
any a
Ġform at
ĠA ct
in ner
ĠF rom
Ġ( )
in y
ere nt
ĠS im
or ing
p ass
g s
[ ]
åĲĮ æĹ¶
at ives
Ġbeh av
O D
Ġparamet ers
h i
r angle
Ġinf lu
Ġs end
Ġcons idered
Ġim ag
right arrow
Ġco ver
Ġb rought
press ion
Ġsign al
ĠÐ ¶
Con text
Ġw ood
d ing
le te
S er
d raw
Ġstr ateg
Res ult
éĩ ĩ
ç» Ĩ
=" ../../
ac ion
oc ks
Ð ļ
N ew
Ð Ĳ
O L
v i
g y
Ġbo ard
ÑģÐº Ð¸Ñı
re ate
Ġcho ice
ĠM od
Ġatt ack
æ¸ ©
ÑĬ Ð½
Ġmed ia
Ġpos itive
äº ¬
Ġon es
ĠR ob
Ġaff ect
ä¾ Ŀ
Ġb al
Ġmach ine
it ect
s i
ch ange
Ġmill ion
ä¸į èĥ½
Ġ-- >
Ġest im
A ct
iv a
Ġout side
éĻ ©
Ġcontin ue
ĠJ an
` `
Ġtra vel
Ġmem ory
z z
def ault
qu ot
pt y
Ġor d
n es
ĠR ec
p arent
Ġsub st
che ck
H ere
Ġele ments
çĸ Ĺ
w id
Ġdat abase
Ġconnect ed
in fo
è ŀ
Ġread ing
bo ot
Ġfunction s
èĭ ±
Ġn ature
æĭ ī
b ased
Ġd riv
èį ¯
b ase
è ĳ
ate ix
b and
ĠĠĠĠĠĠĠĠ ĠĠĠĠĠĠ
. ~\
Ġnew s
Ġpo or
i ant
Ġloc ation
kn own
ĠC ons
us r
Ġreg ion
/ **
Ġbu ilt
g en
ĠC ap
em a
us ing
Ġe conom
Ġcomm unic
Con fig
Ġse qu
ĠE m
ar ies
ach ing
Ġ ir
Ġm it
an es
Ġav oid
ĠD on
ĠO f
k top
ä¸Ģ å®ļ
Ġgr an
) (
g ener
ĠO ff
M S
Ġequ ip
at re
å¦ Ī
ĠB u
Ġmod ern
æĪĲ ä¸º
al u
ell a
Ġg ames
c er
Ġfix ed
arc el
ĠA g
Ġrec ent
ĠA S
oc al
Ġdist ribution
æĭ ©
av y
Ġd ouble
Ġ: =
Ġsent ence
Ġhapp y
æ´» åĬ¨
st ate
ĠÐ¼ Ð¾
C C
åĽ Ń
ĠJ ust
èģ Į
Ġcap t
ch an
Ġl as
Ġl abel
Ġwh om
con f
cre ate
. }
ĠI D
Ġcol lect
Ġoff ice
æķĻ èĤ²
ä¸ĸ çķĮ
C ode
ous ly
ç© ¶
Ġem ail
******** ********
çĬ ¶
M A
ren ch
Ġref er
Ġset ting
bl ock
Ġtyp es
uf act
e ks
Ġro le
Ġdist ance
Ġgo es
w hat
ve c
åİ ĭ
Ġany one
æĻ º
Ġc y
Ã ½
w ide
Ġitem s
Ġsomet imes
Ġd og
ac ing
ou l
em ents
ĠCh ar
Ġde ad
i ers
Ġand roid
Ġcomp os
. ]
A tt
U L
S ervice
éĿ Ĵ
n ic
Ġper cent
ĠEl s
over line
Ġser ve
å± ŀ
A fter
s he
ĠK ing
ĠT HE
åĳ ³
Ġ( !
ight s
Ġ- >
åĳ ¢
ÑĤÐµ Ð»
orith m
opt ion
li ent
Ġdi vers
ç¤¾ ä¼ļ
var phi
ĠJ o
B ig
ap ache
Ġh our
Ġt im
it ar
ĠH er
Ġn or
O ut
p an
ĠS un
Ar ray
å° Ķ
Ġm ix
Ġgir l
Ġexper i
ĠI S
un k
Ġpass ed
Ġpri or
cont ent
re qu
Ġindust ry
et urn
Ġex cept
h ol
x y
åº ·
Ġj ava
Ġeng ine
b olds
enc ed
å£ °
O P
Ġsa f
Ġexact ly
éĩį è¦ģ
c irc
p at
oc ol
ç»ı æµİ
as te
ig o
in ally
bolds ymbol
Ġc and
ac hes
ur ance
Ġc ateg
ĠSt ates
e ix
æĮ ī
Ð½Ð¾ ÑģÑĤ
Ġj ud
æŁ Ĳ
h is
R eg
ä½¿ çĶ¨
fra k
Ġpre vent
Ġide as
Ġs rc
Ġci ut
qu ery
al le
æ ¥
Ġdet ect
Ð´ Ñĥ
ĠS ee
P er
Ġus es
q l
x x
Ġcurrent ly
Ġto wards
Ġv oice
Ġa verage
T able
Ġany s
over n
Ġb all
& \
ç¦ ı
Ġfe et
éĢī æĭ©
id ge
L og
Ä Ľ
Ġsup ply
çļ ®
Ġs old
[ \
S ize
I V
ĠL ond
g n
ĠL ord
Ġtrans form
éħ Ĵ
Ġc op
Ġvi ol
Ġqu ery
Ġco ok
ve y
Tr ans
Ġprofess ional
Ġoff ers
Ġwork ed
H and
Ġgl obal
Ġe ren
id ay
Ġde b
Ġparamet er
Ġrem ember
éĤ£ ä¹Ī
Ġcomp ar
ĠS outh
u ge
Ġin n
Ġallow s
Ġb atter
ĠC ity
it c
Ġc ell
Ġcom fort
il i
att le
Ġl ate
ĠP C
Ġim m
Ġocc ur
Ġpre p
ĠE s
olog ical
Ġde part
Ġh undred
å®ī åħ¨
éĻ į
Ġfe ed
qu es
Ġc atal
ĠS ch
}, \
so ft
Ġfor ce
ç¾ ¤
uff er
ers ion
, --
Ġun s
Ġcompan ies
m as
ĠM iss
gr ad
Ġper haps
E st
ig ation
Ġrece ive
r ation
Ð± Ð°
h line
Ġent er
ĠR ev
Ġsh ip
ĠN orth
f low
act ive
å ¡
re et
ĠM ark
Ġd if
//// ////
anc ial
Ġ ÑĨ
Ġr andom
Ġch arg
ĠC atal
ĠA ut
in i
ĠĠĠĠĠĠĠĠĠĠĠĠĠĠĠĠ Ġ
é ¸
F I
Ġd ed
t ica
èĻ ½
ec ause
pre t
Ġn one
ĠB rit
S ystem
un ction
Ġph one
Ġal one
ĠP res
Ġth row
f oot
Ġmult i
Ġman agement
æŀ Ĺ
RO M
è¯ Ń
arg in
åħ ħ
Ġag re
Ġt ask
åŃ¦ çĶŁ
è´ Ń
åį Ĭ
, '
loc al
b ra
ĠM c
it able
Ð¸ Ð»
} ).
ä½ľ ä¸º
Ġto ol
Ġt al
it ter
at ge
Ġim ages
Ġcom ment
s f
ĠD E
so le
Ð Ŀ
Ġcom pl
ä¼ ¤
åĲ ¬
p ol
inst all
Ð± Ðµ
c ap
ĠG erm
Ġconc ern
ĠH ar
Ġproper ties
Ġg old
c ing
includ e
Ġcent er
m ark
LE CT
enc ies
Ġrelations hip
im ents
l in
Man ager
Ġal tern
Ġstre ng
Ġinclud es
iz es
ĠA nt
Ġphys ical
but ton
) ^
Ñ Į
å ł
ä¸ ¥
Ġnum er
Ġbec ame
atic ally
ud a
de red
åĩº çİ°
ĠS ec
In ter
Ġassoci ated
Ġt ree
Ġabs ol
Ġres ol
è¿ĺ æľī
ser ver
ĠF ig
a res
ĠTr ans
iv en
m iss
Ġobtain ed
ĠA ust
w ell
E E
e ch
Ġne igh
ä¾ ĭ
T S
Ġy es
a ix
Ġest at
ac ional
ĠD is
Ġr out
ç Ĩ
Ġ ut
æ¯ į
Ġan im
æĿ ¿
Ġa ix
======== ========
Ġchar ge
âĢ ł
uc i
ä¿ ®
Ġst ra
Ġsay ing
æī ¾
ef ul
id den
å¯ Į
Ġlet ter
ĠO F
çķ Ļ
et c
Ã ±
oci ety
è®¾ è®¡
ust er
Ġatt ention
ĉ </
Ðµ ÑĤÐ¾
Ġar r
èŀ į
ĠN et
ab s
or ge
ä¸Ń çļĦ
åĿ ļ
n y
åİ ¿
Ġw ife
ail y
Ġhom es
æĿ İ
Ġst ar
æ£ Ģ
Ġquick ly
å± Ĥ
Ð¶ Ð¸
ĠÐº ÑĬ
def ine
Ġt ouch
M essage
ra int
Ġdesign ed
Ġc ele
Ġd urant
j a
Ġw ind
Ġcont ains
Ġsur pr
D B
A A
m o
åĿ ĩ
math frak
ib ly
Ġg one
ir ing
äºĨ ä¸Ģ
Ġa f
è· Ł
ĠÐľ Ð°
Ġse curity
å½± åĵį
Ġl ed
ĠW orld
Ġacc ur
ad ors
ĠH ol
éŁ ³
çĽ Ĭ
ĠMr s
æĺ ¥
Ġp ull
Ð² ÑĬÑĢ
Ġsitu ation
Ġsur face
Ġpro ced
ĠS w
Ġr isk
Ġtr ust
åº Ĺ
ĠN e
is me
Ġb ur
Ġcon vert
ä¹ĭ åĲİ
ç® Ģ
i pe
Ġ row
çŁ ³
Ġprim er
Ġimp act
Ġdri ver
p ost
Ġcou ple
Ġare as
Å Ļ
Ġ rom
Ġcont ract
Ġens ure
Ġeffect ive
Ġchang ed
Ġrec ently
ĠM ad
Ġact ive
y ear
ub e
anc y
Ġm ort
E s
} }$
æķ ħ
ock et
Ġs leep
äº ī
u gh
h ow
Ġref erence
im age
Ġm a
ĠS chool
Ġhe ight
Ġinterest ing
R ec
Ġpur pose
è´ ¢
Ġdire ction
The y
ÑĢÐµ Ð´
Ġm ateix
ar ily
é¡¹ çĽ®
Ġtechn ology
Ġfollow ed
Ġrest a
ĠP at
d at
m es
Ġbl ue
Ġde p
åĪ Ĵ
ĠP al
Ġw ide
y nt
ĠA ug
c s
l ong
åĩ ı
g t
ĠS ince
pt ions
Ġevery one
Ġbook s
O ur
Ġstat us
Ġch ance
T H
M P
Ġde mand
Ġcomplet ely
æĬķ èµĦ
c ore
iv il
Ġe p
æ ĵ
å± ħ
åħ ļ
ĠU p
Ñī Ð¸
Ġse a
Ġm i
re p
Ġcou n
åŃ £
å² ģ
Ġn ice
Ġha ir
app ing
æĢ İ
ĠA ng
åĶ ®
èĮ ĥ
Ġst ream
Ñħ Ð¾
éĶ Ļ
é¦ Ļ
èī º
m itted
ĠUS B
f s
è¿Ļ ç§į
Ġsh op
Ġdis k
we b
amet er
ĠH igh
Ġco ol
Ġ= ==
Ġpract ice
ĠN ational
ut s
ĠS E
ĠĠĠĠĠĠĠĠĠĠĠĠĠĠĠĠ ĠĠĠĠĠĠĠĠĠĠĠĠĠĠĠ
Ġsol utions
ĠP ort
C he
ens ions
st ruct
Ð ŀ
Ġrel ig
Ġcustom ers
f ord
Ġg reen
Ġmain tain
Ġrecomm end
Ġp en
Ġlarg er
å® ³
ĠD av
å° ½
Ġf resh
p a
c ss
Ġcon duct
Ġpol icy
Ġthe ory
Ġ_ _
è¯ Ħ
Ġvari able
Ġconst ruct
æĺ¯ ä¸Ģ
ĠA cc
Ġful ly
Ġt ip
ĠA ND
Ġinclud ed
p age
æĿ Ĳ
Ġth ous
oc ation
Ġst ru
ä»¥ åıĬ
ĠGo ogle
Ġun it
è§ Ĵ
Â »
Ġp al
Ġst eps
Ġr at
Ġmem ber
ç¾İ åĽ½
u ct
N S
j o
Ġf igure
pos s
Ð¸ Ð·
r un
c ar
m ain
ÑĤ Ñĥ
C ount
sm all
Ġev alu
è¡ ¥
Ġt err
Ġus eful
A ss
ĠSt ud
y ond
Ġfield s
Ġb ill
Ġpro gress
åı ¤
Ġpro of
Ġpart ition
æ¯Ķ è¾ĥ
é¾ Ļ
ÑĤ ÑĢÐ°
l angle
é» ĳ
d ir
ĠS an
D ate
å¿ µ
çİ ©
ä¸» è¦ģ
h as
Ġreturn ed
Ġcar ry
ĠW est
Ġs ong
mod el
æľ ĭ
åħ į
au gh
åĪ Ŀ
te red
Y es
åĪ Ĺ
Ġf ear
ate ver
åĩ »
ĠR em
Ġm ess
æŃ »
åıĳ çİ°
Ġsl ight
ot es
ä¸į ä¼ļ
ass ert
èĢĮ ä¸Ķ
? ?
Ġform er
Ñģ ÑĤÐµ
Ðµ Ðº
ic o
se mb
em bre
Ġf et
Ġm unicip
Ġprincip al
a quest
n ames
æī ¿
er ia
C all
ĠÐ Ĺ
F A
è® ²
ash ing
wo od
Ġin cl
Ġp air
Ġs av
Ġget s
æĸĩ åĮĸ
Ġph ase
it ation
Ġest aven
Ġd ynam
un ities
L ambda
text it
ld ots
åľ Ł
æĿ¥ çļĦ
è Ń
con s
Ġm al
Ð² Ñı
çĽ® åīį
Ġqu ar
Col or
ish ing
Ġun ivers
Ġve h
u a
å»º è®¾
not e
S ub
Ġst aff
l ang
U ser
L ay
h ad
en y
Ġsa fe
ial og
Ġalt res
Ġbo y
Ġdescrib ed
in ct
Ġb ottom
AB LE
Ġm aster
Ñģ Ð½Ð¾
ĉ &
Ġin sp
ul ations
Ġpict ure
il ed
ound s
Ġm er
app a
Ġf ont
Ġgiv ing
Ġnum bers
ak er
Ġwe eks
é ²
ĠA pr
her n
ex p
Ġdeg ree
ÑĬÐ»Ð³Ð° ÑĢ
çĽ ĺ
Ġsc ale
Ġexpress ion
ĠP ost
Ġc ert
Ġthink ing
d et
Ġeffect s
ir th
èĥ½ å¤Ł
ri ef
Ġc atch
U E
U M
ĠR ed
w orks
at ory
as ons
Ð¶ Ð´Ð°
Ġc ry
Ġac qu
ĠG eneral
éĥ¨ åĪĨ
åŃ¦ ä¹ł
ard en
ab y
åŁ Ł
Ġsp irit
ri ve
Ġcompon ent
bu ild
ĠN OT
Ġam az
Ġb order
æĹ ħ
ĠV a
äºº æ°ĳ
Ġexec ut
ur t
Mod el
Ġcol lection
oc r
Ġm es
Ġal though
e es
ç³» ç»Ł
ç ¿
åħ¶ å®ŀ
ĠWh ile
ä¸Ĭ çļĦ
Ġb i
Ġc ada
å¸ ®
O W
de b
ov a
ĠÐ¼ Ð°
Ġv iv
Ġg as
al ing
h ome
Ġ} ;
æ± ½
ĠO ct
c p
Ð½Ð¸ Ðº
Ġdirect ory
ĠÐĿ Ð°
cur rent
ac er
Ġh op
åĨ Ļ
åĽ ´
äºº åĳĺ
èŃ ¦
k y
ĠB ro
Ġpie ce
un es
ri e
æľĭ åıĭ
Ð¸ÑĤÐµ Ð»
ĉ {
art ment
ens ure
Ġopport unity
cite p
Ġbro ad
V ER
æĪĸ èĢħ
lo ok
ĠÐŁ Ð¾
ere nces
en ame
Ġin j
Ġman ufact
] )
Ġmat rix
om a
Ġz ero
ĠD ef
Ġg roups
Ġbut ton
s a
ug in
] :
è´ Ł
èĥ½ åĬĽ
ell ent
Ġar m
Ġre pe
ÑĦ Ð¸
ä¸į åĲĮ
Ġstart ing
Ġt er
çŃ ĸ
Ġar riv
al d
Ġd ress
Ġfor t
c ase
or row
Ġlead ing
ĠR E
it ants
èĪ ¬
Ġcon v
è¦ģ æ±Ĥ
k a
Ð² ÐµÐ½
p erson
ĠÐ¿ Ðµ
ĠL es
pect ed
Ðº Ðµ
is i
Ġ ign
ĠL ist
Ġbe yond
Ph i
æ ¤
C an
Ġlat est
ch ar
ĠWh y
ĠF irst
ĠS ub
Ġh it
ĠP ark
D es
Ġprodu ction
go ogle
il de
ist ics
Ġro ll
Ġdou bt
z a
ĠÐ² Ð¸
arcel ona
å¾ ħ
Ġtr uth
æŃ ¢
çł ´
ĠLond on
Ġthrough out
ĠV ol
ad em
on i
ic ed
äº Ĵ
Ġequ al
Ġs am
Ġblo od
om s
Ġdef ine
Ġre ach
ĠÂ «
k ing
cl es
\ %
Ġcorrespond ing
çī Ī
Ġed ge
Ġtem por
ial s
Ġtemper ature
AL L
Ġc at
Ġm id
Ġfor ma
Ġapplic ations
Ġm icro
an o
æĻ ®
ch ild
act ory
Ġintern al
on ly
T D
äº ļ
Ġadv ant
op en
Ġre nd
in n
E X
P r
C lient
f ol
Ġset tings
ĠS al
il ing
itc hen
c her
Ġp ued
a ctions
Ġv ict
åį ı
ag o
S P
ä¸į è¦ģ
äº ĳ
u ary
ĠS QL
Ġke pt
d ist
ow s
Ġf ailed
g ar
Ġallow ed
éĵ ¶
ĠH ouse
ev ent
èµ· æĿ¥
åį ĥ
D is
ä¸ ¾
ag on
Qu ery
up s
. \
Ġcele br
è¯ »
åĸ Ħ
Ðº Ñĥ
id o
Ġconfig uration
h ouse
èĻ½ çĦ¶
if orm
ag ue
æĽ ¾
cl ient
Ġey e
se m
ang ed
Ġop in
oth ing
ĠF rench
N ote
E nd
C D
æ² ³
n abla
at ively
O h
sub set
el ine
Ġgrow th
Ġess ential
} ),
ĠÑģ ÑĤÐ°
åı ²
Ġinde ed
al y
Ġoff ic
( (
d im
Ġtreat ment
æıĲ ä¾Ľ
Ġj a
Ġear th
re ct
Ġex terns
Ð½Ð¾ ÑĤÐ¾
us ion
Ġstra ight
or ia
it ors
ĉ $
Ð» Ñİ
Ġass ume
Ġpref er
Ġgener ally
æĻ ļ
Ġf ight
Ġent ry
U P
ot o
Ġex ists
çĶ »
Ġmax imum
åĲ ¦
ly ing
Ġcertain ly
m box
k appa
Ġg ent
å® ĺ
H T
Ġmol t
Ġplay ing
ĠAl so
Ġequ ival
ÑĪ Ðµ
Ġappro pri
è¿Ļ ä¸Ģ
Ġopt im
est s
Ġcap ital
Ġ` `
Ġclos ed
Ġhab itat
is hes
Ġser ious
re y
ĠÐ¿Ð¾ Ð´
Ġv ac
f alse
å¿ Ĺ
Ġfact or
Ġcons ult
Ġeduc ation
the n
Ġciut at
re es
er ior
Ġhapp en
ĠAmer ica
å¾ ĭ
En lla
æ¹ ĸ
çłĶ ç©¶
Ġexper iment
f irst
con tain
ĠO S
is ions
Ä į
ro y
A b
çª ģ
Ġl ives
he ight
bt n
Ġme chan
åĲ §
C K
Ġappro xim
ä¸į è¿ĩ
> &
ä¸º äºĨ
} )$
ĠS ol
Ġc u
as ion
r ase
Ġlevel s
ĠA c
Ġf ig
Ġne arly
P U
çĽ ĳ
Ġfil m
r d
Ġve ctor
Ġp are
li er
Ġap pre
ul ate
Ġpre m
gr ade
and roid
Ġt res
Ġhe at
Ġdec ided
AM E
row ser
Ġgreat er
åį ļ
ot ed
Ġj o
Ġcon ver
ĠCl ass
it ory
Ġfeel ing
Ġtre ball
ig en
ith ub
it ution
IN E
Ġc old
ber t
Ġstat ement
S up
Ġimmedi ately
Ġto ols
åħ ´
Ġman ner
çĭ ¬
r um
l ig
Ġcompon ents
Ġpl aces
Ġcom o
Ġdat as
Ġf irm
ĠM arch
T O
Ġres ources
y thon
Ð² ÑĢÐ¸
H z
ot imes
om b
Ġse x
Ġab ility
Ġb ank
ensure math
Ġindepend ent
Ġp riv
n ull
r is
æĪ ı
A ut
éĢ ģ
o es
Ġobserv ed
åĲ ¸
Ġdis s
Ġs in
Ð ľ
ç ĵ
Ġsol id
çı Ń
æ ¿
Ġ ;
sq l
ĠCent er
Ġgo al
Ġcomp ared
Ġ ing
è¯ ī
Ġdev ices
Ð½Ð¸Ðµ ÑĤÐ¾
ä¸ª äºº
åĸľ æ¬¢
ĠÐ¿ÑĢÐµ Ð´
le vel
m ail
Ġcons um
Ġsk in
åº §
}} {
Ġanal y
èĤ ī
er ve
Ġoper ation
Ġfil ter
im a
åģ ľ
c el
Ġset s
Ġmod ule
S QL
Ð¼Ð° Ð½
an ys
Ġrequ ires
å· ®
Ġsum mer
åħ¶ ä»ĸ
æĸ¹ å¼ı
åº ľ
è¯ ¾
ĠM ag
Ġbr and
Ġmeet ing
re r
Ġo il
ĠWe b
he st
Ġcustom er
ist ry
Ġbro ther
ct ors
] (
ic ense
Ġre lease
iz er
ÑĦ Ð¸Ñı
s y
Ġpl atform
äº «
ä¿¡ æģ¯
çŁ Ń
Ġk ernel
Ġt end
Ġvari ety
Ġappe ars
Ġd ream
å¸ Į
Ġoff icial
Ġlay er
åı ¦
åŁİ å¸Ĥ
æł ¸
ourn al
æ ¦
d ot
Ð²Ð° ÑĤÐ°
Ġbegin ning
h ave
ĠM art
c os
Ġst d
Ġaut o
Ġw arm
âĢ ¢
Ġloc ated
Ġexist ing
åį ¡
Ġselect ed
Ġr ule
å¤§ åŃ¦
Ġgr and
Ġc os
[ "
ĠAn y
ul s
ĠM us
con nect
Ġro t
ĠM or
ĠO pen
z y
plic it
s pec
Ġv el
F irst
Ð» ÐµÐ½
m ethod
Ġt ill
ĠB arcelona
Ġinter face
Ġline ar
Ġstreng th
ie ved
Ġap plied
æĭ ħ
p ng
ĠC amp
ul ated
Ġg ain
ÑĩÐ° ÑģÑĤ
und le
Over ride
Ġw indows
Se lect
Ġpred ict
Ġcent ral
Ġp ow
ant ic
ĠL em
Ġ ]
Ġs ample
p c
Ġfin ally
Ġfin ancial
al ed
Ġequ ation
\ |
Ġro b
è®¤ ä¸º
æµ ĭ
çĪ ¶
Ġre le
æ ½
con text
Ġmention ed
Ġach ieve
lev ant
Pro perty
ĠBl ack
Ġst age
% ,
d s
Ġdec ision
l ast
Ġmit j
Ġrespect ively
ĠÐļ Ð°
a el
/ \
ap pro
èı ľ
Ġsud den
od ing
è¡¨ ç¤º
t ics
ĠO ut
ĠW ar
am ily
Ġmen u
ÐºÐ° ÑĤÐ°
=" #
æĦ ¿
Ġtrans fer
Ġw ire
Ġh us
="../../ ../../
Ġpro posed
E L
im g
æį ¢
Ġinf o
Ġhigh ly
Ġgu ess
it ary
f ind
ic ks
ar is
Ġm ist
init ely
S igma
v ille
Ġe cho
ç¼ ĸ
Ð»Ð¸ Ñı
è Ľ
P C
Ġfrequ ency
en ge
ĠÑģ Ð»ÐµÐ´
æĭ ¿
S C
ar ant
Ġk ing
Ġcon cept
Ġconst ruction
åºĶ è¯¥
ĠS T
ä¸Ģ çĽ´
st atic
Ġdesc ription
serv ice
ĠAp ple
Ġext rem
Ġlim ited
ribut ed
Ġj oin
å ĺ
" ).
pack age
Ġf em
Ġd ensity
F il
ĉĉĉĉ ĉĉ
Ġm as
ro te
ĠL ib
Ġhand le
empl ate
Ġconst ru
N et
Ð¼ Ð²ÑĢÐ¸
ĠFr anc
Ġex erc
ĠEng land
y les
Ġbatter y
B ar
d ots
Ðº ÑĤÐ¾
( {
Ġclass es
P art
, -
Ġk ids
ç» Ŀ
r ar
å© ļ
l en
or ph
w rite
r at
ing u
Ġg al
ç» ĩ
ĠP lease
Ġh ar
è´ §
Ġbecom es
wh ile
dis play
Ġbas is
åıĳ çĶŁ
Ġb right
Ġt or
nt ic
ç¥ ¨
Ð¸ ÑĤÐ¾
Ġdes p
ĠR ead
ac le
p ers
Ġnot ice
Ġn il
ĠA re
Ñī Ð¾
p et
ash ion
app ed
cent ering
æ¿ Ģ
ch a
ç´ §
Ġhtt ps
n um
Ġse cret
Ġs udo
ĠSer ver
æīĢ æľī
ä¸Ģ æł·
Ġde mon
f lo
ĠB en
ÑĪ Ð¸
ĠPh il
Ġ Ãº
L ine
ĠD ata
E xt
M ethod
How ever
ĠS M
ribut es
ra ction
R A
D F
ä½ł çļĦ
Ġst uff
ĠA quest
ĠO N
ĠApr il
C ON
pl ing
Ġcl ients
add ing
Ġm iddle
ĠT est
Ġcour t
Ġ ÑĢÐ¾
ify ing
Res ponse
Ġpass word
Ġ< <
Ġe ight
Ġdef inition
h im
Ġinc or
Ġob j
Ġl ock
Ġvol ume
Ġam pl
ĠÐ £
æĤ £
Ġd augh
St art
ĠS tr
ib li
Ġprim era
å® ¤
Ġe at
Ð½ Ð³
g ithub
Ġr ules
re ly
In put
Ġmov ing
Ġc ab
p df
Ġc ru
ä¸Ń å¿ĥ
è Ĵ
åĪ ļ
re quest
Ġinvest ig
Ġinterest ed
ĠH am
fr ame
Ġcred it
ĠR o
r ics
è¡Į ä¸ļ
Ġten ia
ç» §
ĠJ une
Ġno ise
P O
Ð¾ Ð½Ð°
Wh y
ĠT V
ord s
Ġmaterial s
S ource
ob er
wid et
Ġen em
ĠE very
ER T
Ġs ales
éģ ĩ
Ġre ve
Ġb ud
ĠA ir
Ġdig ital
Ġswe et
Ġcon vers
Ġwe ak
ĠTh us
Ġsc en
æķ° æį®
S D
Ġinvol ved
Ġplay ers
Ġm iles
ur rent
ĠSe pt
ĠAr t
Ġflo or
ĠR uss
ĠG overn
Ġprogram s
c ks
im s
c ia
Ġse lection
Ġpresent ed
Ġre v
in te
ĠÐº ÑĢÐ°
clus ion
Ġw el
Ġsmall er
Ġcand id
um s
Ġerr ors
h old
Ġother wise
ĠD ay
Ðĺ Ð·
St ream
pr ime
l n
çĶ ļ
S tr
Ġman era
é£ ŀ
Ġst ood
s we
Ġhapp ened
f ree
Ġb ul
Ġv irtual
Ġobject s
f ill
Im age
) ]
W ell
ind ing
n ight
ing er
Ġneg ative
ä¸Ģ èµ·
Ġmay be
Ġte ac
the y
Ġst ock
Ġn orm
ĠC our
åĲ «
ru it
Ġpro ve
em por
çľĭ åĪ°
b on
H ER
ĠM a
Ġex ternal
ĠIn ter
. --
ä» ĺ
th m
Ġ Ãł
çī¹ åĪ«
Ġprim ary
ol f
Ġe arn
Ġprodu ce
Ġs ession
I F
Ġcl ub
i ation
Ġtrans port
\ !
Ġcomm it
åħ Ń
us iness
åĵ ª
ell ed
é Ĩ
åģ¥ åº·
Ð Ķ
çİ¯ å¢ĥ
um in
$ {
Ġqu an
Ġpl ans
Ġhel ps
il er
Ġnom bre
G B
it ute
Ġw at
ĠAug ust
Ġded ic
ĠCom m
widet ilde
Ġgl ass
o e
æĢİ ä¹Ī
Ġint ent
Ġappre ci
Ġreport ed
å Ĥ
non umber
Ġplay er
t arget
sc ale
å¹´ çļĦ
ĠF eb
Ġexc ellent
Ġstud ent
} -
Ġalg orithm
s ystem
Ġunderstand ing
æĭ Ľ
Ġexpl ain
Ġper o
Ġhist or
n ica
ĠC O
Ġher self
éĴ Ł
The se
Ġright s
G roup
ĠT ra
ĠM at
Ġn ational
Ġas pect
Ġref lect
P ol
opt ions
Ġincre asing
a ign
ot ion
icro soft
Ġa ware
Ġf ab
cl aim
Ġwas n
ar p
æĿ¥ è¯´
r an
ĠM ich
é¢ Ŀ
Ġpl aced
a fter
O ff
; &
ä»ĸ çļĦ
Ġhe avy
åĿ Ĺ
Ġpro t
Ġbas ic
Ġd ues
Ġse ves
Ġproject s
Ġarg ument
éķ ĩ
Ġ ult
ç½ Ĺ
Ġset t
Ġw ild
Ġsuff icient
ĠPres ident
Ġd ut
' .
ĠPa ul
Ġp ages
ĠÐ¢ Ð¾
ĠT om
ĠJ es
çĹ Ľ
Ġd oc
Ġsh ape
=" ../
U s
Ġinter pret
> (
Ġst orage
ne ver
ec ut
A cc
Ġp els
Ġchall eng
Ð²Ðµ ÑĢ
Ġeven ing
Ġcl oud
è§ī å¾Ĺ
C L
Ġh uge
Ġcom ments
Ġd aily
Ġn av
åī §
Ġro ck
all a
ç² ī
Ġsm ooth
Ġterm inal
ĠM ont
åħ¶ ä¸Ń
Ġs ale
ç¬¬ äºĮ
erv ices
Ġl ack
Ġtalk ing
å¥ Ĺ
ĠE ven
ĠD irect
os en
X X
Ġform s
net ic
å· ¦
Ġdis e
Ġcreat ing
Ġbu ff
Ġad ministr
ed s
if est
Ġtra in
Ð° ÑĢÐ¸
Ġres ource
ounc ed
ĠM al
c ertain
ĠJ ap
èī ¯
Ġfa ith
åĵģ çīĮ
ĉ public
st ream
å¤ «
Ġch urch
Ġ Ñİ
ĠSe ction
Ġun less
Ġgu ard
Ðµ Ð»
æŃ ¦
å· ´
k m
\ [
l or
{ -
Ġpres ident
erv ed
Ġmot or
ri al
Ġwh atever
Ġme as
ĠD ev
Ġappropri ate
é ¼
Ġk ill
æł¹ æį®
S ON
P A
I O
ÑĢÐµ Ð½
ĠS ir
åį «
act ers
Ġh y
Ġparent s
è¿Ļ æĺ¯
f a
åħ «
é¡ »
åı ³
Ġbehav ior
] [
Ġf urn
u id
ed ia
p g
Ġe j
Ġsupport ed
app end
Ġs ources
Ġredu ce
Ġthan k
Ġr ap
æĪĳ çļĦ
are n
Ġw ave
a ud
Ġre ached
te x
ĠR ef
Ġdemon str
Ġbel ong
-- -
ĠIn c
G e
Ġst ri
ĠJ ack
Ġopen ed
I ST
; </
An y
tab ular
ĠJ uly
Ġsequ ence
Ġc ore
Ġdevelop ed
Ġenc our
Ġup per
Ġremov ed
èĥ Į
cl os
æ¶Ī è´¹
Ġ ÑĤÐ°
Ġy ield
Ġactiv ities
ä¸Ģ èĪ¬
i ance
ĠÐ¸ Ð¼Ð°
Ġbo ol
ĠT able
Ġsk ills
Ġsaf ety
Ġfol der
ap ers
Ġs ell
ä» ĭ
el ess
Ġact ivity
ĠT ime
j son
çĽ¸ åħ³
Bu ilder
åģ ĩ
R em
ĠCount y
Ġmov ed
Ġcirc um
éĵ ģ
ĠK e
Ġrel ative
Ġpe ace
Ġpres ence
ĠH ist
pro p
str ong
Ġorig in
Ġtra v
osp ital
P os
æ±½ è½¦
çĸ «
æħ ¢
Ġdec or
æľĢ åĲİ
Ġsuccess ful
ĠA fr
pro cess
B ox
ro ot
Ġin du
Ġgener ated
St atus
Ġhus band
Ġdon es
Âł anys
AR T
M e
for ce
Ġco ordin
Ġamaz ing
Ġpa id
Ġt our
ĠT w
ĠL og
Ġd ie
Ġprotect ed
Ġdom ain
> >
ä¹ ¡
ĠO R
ĠG reat
Ġdeterm ine
ear s
Ġcom en
ä¸ĵ ä¸ļ
Ġexam ples
ç© ¿
Ġd ry
Ġleg al
Ġag ree
Ġno vel
b lic
ĠAust ral
ä»· æł¼
d l
Ġmed ical
def ined
ĠN ote
D esc
Ġpress ure
ä¹ ħ
ber g
poss ible
ĠD el
æĴ Ń
b el
Ġh ous
ri er
the re
ĠC r
Ġins urance
Ġ vert
de pend
com ing
çº ª
Th anks
all s
Ġpub lished
åį ĸ
ograph y
ĠS ervice
åº Ń
Ġpro ceed
Ġcost s
} +
ä¸ ´
å¯ Ĩ
ä»Ĭ å¤©
Y PE
ĠS k
å® ¡
U B
v est
Ġcount ries
ĠB el
Ġm argin
Ġeff ort
Ġsepar ate
Ġn ord
k g
ç« ł
Ġt rip
Ġpr ay
Ġcould n
Ġn amed
Ġaquest a
Ġw rote
al a
ĠF ile
Ġdam age
Ġr ank
Ġgu ide
ÑĢ Ñı
x ml
Ġsp ot
Ġprov iding
åĽł æŃ¤
col umn
Ð½ Ñı
b urg
Ð· Ð¾
ib er
åıª æľī
ĠO ther
Ġdirect or
ç« ¯
Ġpat ients
Ġhapp ens
Ġcont ra
Ġev idence
äº§ ä¸ļ
æĸ¹ æ³ķ
æī ¹
ä¼ ¼
æĶ¿ åºľ
Ġlead ers
Ġfavor ite
alle l
Ġf ellow
in et
Ġd anger
Ġpolit ical
Ġintern et
Ġmiss ing
Ġoper ator
ig ger
ä½ Ļ
Ġcont r
iv o
Ġcontinu ed
è¡ £
Ġins ert
S ince
g est
ç¨ ³
c at
ĠB er
å¥ ĩ
ĠB ook
d r
Ġb es
Ġinstall ation
äº ®
ang ing
im in
#### ####
Ð¿ Ñĥ
Che ck
d ed
ÑĤÐ¾ ÑĩÐ½Ð¸
T P
Ġmon itor
Ġcoun ter
ĠÐ¿ ÑĢÐ°
Ġspec ified
åĨħ å®¹
ou ter
Ġvari ables
å¸Į æľĽ
D D
hab itants
Ġsee ing
Ġdeterm ined
Ġpop ulation
å® £
j ar
ĠDav id
å¹³ åı°
Ġlo ved
Ġpan el
an i
Ġsp ent
Ġde m
æī §
ĠS eg
Ġem pty
ove mber
Ġp ark
ĠHe alth
Ġth ick
Ġob vious
æĭ į
Ġcent re
ĠM o
as ks
è¿ĩ ç¨ĭ
ĠO h
ĠC ast
å®ŀ çİ°
E M
ĠH ome
st ract
Ġm ur
u est
Ġ& =
ĠF e
ph one
C A
ÑĨ Ðµ
ect or
Ġh arm
Ġcon sequ
ĠCon st
w ill
arg s
åŃ¦ æł¡
ce mber
ot hes
ĠS pec
ens or
Ġb urn
Ġide al
é Ń
} ]
I A
Ġelect ron
ĠÐ¼ Ð¸
åį °
é º
he ntic
B ase
Ġdescrib e
åĪ ĺ
f ont
H ist
ap pe
ĠM ost
' ).
ĠÑĦ Ð¾Ð½
Ð ĵ
Ġs igu
id ents
Ġs ymbol
Ġme ant
åĮĹ äº¬
æ³ ¢
d y
ĠBrit ish
i ol
U til
G L
âĶ Ģ
Ġch annel
åĪ »
f ast
Ġm ine
Ġt ables
ĠI P
cul es
Ġpurch ase
åħ³ ç³»
Ġlearn ed
çĶļ èĩ³
ĠÐ¿ ÑĬÑĢ
çĶŁ äº§
ã ģ
: \
Ġad just
c ell
æ¯ Ĵ
Ġplay ed
Ġcons erv
ĠÐ¸ Ð½
ç»Ħ ç»ĩ
E m
Ġadd ing
Ð¾ Ð±
Ġb ath
Ġto ward
end o
c it
Ġcrit ical
Ġear lier
ĠCal if
çķ ¥
c r
t ra
ĠFr ance
å¥ ĸ
P ost
ri age
Ġbo olean
mod ule
ic ol
Ġc ant
m em
ä¹ İ
Ġs en
C reate
ĠS en
sh ould
æīĭ æľº
Ġre asons
Cont ent
Ġth read
Ġqu iet
) </
ĠF ree
id ers
ĠH el
Ġg ar
Ð² Ð¸Ñı
am ents
un ya
Ġrequire ments
L ast
ĠU s
ĠV er
m id
Ġtr ade
Ġg ra
Ġdepend s
æĿ ¾
ĠH T
Ġf ell
éĺ ¿
Ġb ra
Ġr an
Ġv ill
x a
Ġparticular ly
fort un
ç» ľ
Ð ¢
Ð²Ð°Ð½Ðµ ÑĤÐ¾
A V
rom e
Ġwonder ful
" ]
ĠJan uary
Ġeas ier
Ġadvant age
head er
ĠÐ± Ð¸
Å ¡
sh ow
\ {
z eta
a e
Ġde cre
iction ary
ry pt
ĠJ ose
ĠU se
å½ ķ
fun c
Ġsp read
æ¥ ¼
Ġk itchen
P oint
ĠU K
ur ity
ĠÃ ī
Ġinst ant
} =\
Ġl atter
semb ly
Ġsp in
ri ver
j av
Ġincre ased
ĠLa w
Ġ+ =
Ġsit es
ind er
erc ial
åĲ Ĺ
names pace
ç¬ ĳ
Ġdom in
Ġmag n
Ġsur round
w hen
ĠF ace
äºĨ è§£
Ġcare er
Ġprodu ced
ud e
st ar
Ġd a
Ð· Ðµ
Ġt ick
å ª
èĭ ¦
C P
Ġ( *
Ġtem pl
Ġelect ric
G o
å®¹ æĺĵ
Ar g
Ġr ich
èĩª çĦ¶
Ġm obile
anc ing
v ari
Ġwould n
ĠC ong
ç» ĥ
ĠChe ck
s rc
Ġshow ed
åį ł
ĠFr an
åĮ» éĻ¢
Ġt orn
ÑģÐº Ð¸ÑĤÐµ
Ġdr ink
Ġfin ished
ens ional
Ġfl at
ad ata
ĠM il
Ñĥ Ð»
Ġre n
Ġc ivil
id ad
Ġ Ñĩ
ĠS ci
ed eral
ĠD em
ĠAss oci
ĠW ell
ĠThe orem
ac ement
z en
ÑĤÐ¾ÑĩÐ½Ð¸ ÑĨÐ¸
per ties
D on
c y
Ġb irth
S te
comm and
éĻ Ī
S pec
ÑĤ ÑĢÐ¾
Ġhav en
ä¸į ä»ħ
Ġest ud
ä¸ °
Ġadv ice
ed ge
R ep
Ġp ed
çĶ± äºİ
æ´ Ĺ
ĠM ount
Ġpict ures
ĠM ary
S im
Ġp aint
) =\
è¿Ļæł· çļĦ
Ġde ar
Ġpro s
* /
Ġm ut
æ³¨ æĦı
uc le
ĠS am
en u
b ottom
Ġdaugh ter
A re
Ġp un
cl ose
\ ]
st atus
Ġres pond
ĠF ROM
Ġhold s
ribut ions
Ġp ool
ä½ľ çĶ¨
Ġequip ment
ar ia
è½ ½
åĽ½ éĻħ
Ġshow ing
AT ION
ĠM et
ĠE q
il a
Ġchar acters
èĮ ¶
è Ĺ
ĠCh urch
ĠE X
åŁº æľ¬
H ead
Ġcar ried
ĠUn its
RE E
Ġ er
ĠT or
Def ault
ad s
B C
lay out
Ġb ow
Ġbenef its
sk ip
our ney
Ġp in
Ġknow s
ol es
Ġsh ot
Ġex ception
f it
Ġfor g
F e
Ġf an
Com mand
ĠTh anks
Ġgrow ing
oc a
ĠT ype
æį Ł
Ġsh ared
åľ° æĸ¹
Ġopin ion
er ies
Ġw id
ĠÐļ Ð¾
rib e
Ġun d
Ġbro ken
Ġdat os
swe red
é¡ º
Ġhig hest
ĠInd ia
Ġf arm
Ġem erg
ĠSt reet
âĶ Ĥ
Ġcon j
Ġr ace
Ġphot os
è¿Ļ éĩĮ
Ġit er
Ġlib rary
SE LECT
Ġdef in
fin ished
____ ____
ĠI II
am ing
Ġr ates
Ġwait ing
å ³
Ġrun s
F l
s ia
S ome
re me
ĠJ ames
Ġeff icient
om in
Ġre nt
Ġt u
Ġres olution
Ġst ars
olog ia
Ġfind ing
itz ar
å¦Ĥ ä½ķ
Com ponent
w in
Ġver b
st e
ä¸Ģ æ¬¡
ĠR ich
Ġstud ies
ĠThe refore
ad ow
ĠG reen
æĹ ı
Ġoff ered
å¯ Ł
d i
( -
Ġrem ains
Ġrem ark
Ġmin imum
ĠÑĤÐ¾ Ð²Ð°
Ġd ru
w ho
ab ilities
Inst ance
Ġm ir
åıª æĺ¯
it u
AN D
Ġm ac
åĬ ³
Ġ Î
Ġo cup
è¿ ½
ÐºÐ° Ð½
Ġmarket ing
Ġar rib
ĠSept ember
Ġill ustr
ĠG ood
r l
åī ¯
Ġhor se
te e
ä¸į æĸŃ
Ġwant s
al g
Ġsh ut
f ess
K E
p rivate
Ġreturn s
ĠOct ober
T oken
æĽ´ å¤ļ
Ġt a
çļĦ äºĭ
Ġfun cion
Ġh acer
Ġmed ic
ĠY es
çī Ľ
Ġan swered
S p
Ġfin ite
æĵ į
Ġpre par
Ġsp end
) }\
ashing ton
ĠF igure
è Ĩ
Ġprob ability
own load
Ġdo ctor
G ener
ĠP re
ĠP et
Ġest e
ĠÐºÐ¾ Ð½
ru ary
b ro
æ¶ ¨
b efore
O per
Ġt ag
Ġequival ent
Ġv s
Ġpack ages
Y our
Ġintern ational
Ġus ual
O pen
ic ious
du c
Ġsym met
M ore
Ġa x
æĭ ¥
ĠL inux
Ġst ress
} |
Ġcaus ed
å¤ ľ
ĠOb ject
land s
ele ment
ÐĺÐ· ÑĤÐ¾ÑĩÐ½Ð¸ÑĨÐ¸
ç¨ İ
Ġtre es
Ð¹ ÑĤÐ¾
Ġhabitat ges
èĦ ĳ
Ġad m
ĠS u
Ġsound s
B l
s g
Ġt ract
ĠG al
r or
Ġd ied
A m
Ph one
åŁ ¹
ĠCatal unya
Ġdef initely
Ġfor get
è¿Ľ åħ¥
Ġex hib
fr ont
cont rol
st on
Ġp ure
Ġsecond s
b les
ä¸ ½
æľ ¨
Ġc overed
æ¯ Ľ
Ġsim pl
Wh ile
Ġst ation
n umber
d oc
A ction
Ġstru gg
r ate
Ġindividual s
Ġappe ared
Ġexp and
ter m
Ġad apt
Ġconst raint
Ġgu arant
Ġth r
Ġre levant
Ġgl ad
P R
ĠIntern ational
é¢ ĳ
æĦŁ è§ī
æ¯ ķ
m ake
form at
ex ec
Ġcon ven
Ġtrans l
Ġen h
Ġ url
¤ Ĳ
UL T
apt op
è½ ®
s ome
Ġs ight
çĹ ĩ
ĠS ur
Ġover all
em p
ç¼ º
Ġc art
Ġman ager
ĠChrist ian
ĠÐ²Ð¾ Ð¹
Ġexper t
Ġ rows
éĽ ¨
text width
$ )
è¾ Ĩ
M in
Ð· Ð²Ð°
P T
éĿ ©
Ġb orn
ter ior
h an
Ġll oc
Ġ ubuntu
è ĵ
Ġvel oc
el se
comm on
. ~
omet ry
Ġstrateg y
ĠF ound
us hed
B ack
ĠF orm
ĠÐºÑĬ Ð¼
ç ¯
H el
ĠN one
Ġsqu are
g in
he et
Ġmot ion
atur day
v o
D A
Ġthan ks
ge bra
Ġt ab
çĦ¶ åĲİ
U I
S ty
ap a
Ġautom atically
sc he
Ġy e
m t
Ġc it
Ġla ugh
Ġc row
ÑĪ Ð°
cre te
Ġcle arly
pos es
Ġl uck
d el
Hand ler
Ġst ick
ä» ¤
Ġoper ations
Ġocc up
Ġen able
Ġper t
åĬŁ èĥ½
åŃĺ åľ¨
asc ript
ell ig
es tern
Ġrel ation
çĽ´ æİ¥
Ġopen ing
è´ µ
é ±
æĪĲ åĬŁ
ĠÐºÐ¾ Ð¸ÑĤÐ¾
Ġcamp aign
èĤ ¤
in f
èĥ ľ
ĠÐŁ ÑĢÐµÐ·
Ġproper ly
Ġd u
ĠG roup
èĪ ª
}_ \
Ġs ac
S I
Ġadv ance
Ġarch itect
â ķ
ens es
Ġext ract
P re
å½ ©
s plit
up date
èİ· å¾Ĺ
ou nce
D C
ĠCh ina
åĩ Ģ
åħ¨ åĽ½
ĠL ou
ic les
L oad
i ors
ed ding
eng o
ĠM em
L ink
iz ations
ĠPl ay
ĠQ ue
Ġv ent
ĠÐ½Ð° Ð¹
Ġs oul
ĠA rm
ĠD et
Ġbenef it
Ġlo op
Ð± Ð»Ð¸
Ġd oll
å°± ä¼ļ
èº« ä½ĵ
Ġatt ract
åĽ °
Ġf if
pos ite
Ġl inks
èĢģ å¸Ī
it ure
v ider
Ġg rav
r as
ä¸Ģ ç§į
åı «
ĠF il
Ġprof ile
ici ency
Ġth ou
ä¸ Ŀ
Ġb ird
Ð´ Ð½Ð¾
all ow
ĠA M
Ġs pl
é± ¼
Ġslight ly
ä¹Ł ä¸į
ĠD ec
éĢ Ģ
ro t
{ (
C ell
O ptions
Ġby tes
ĠF in
ĠCol lege
Ġrest rict
itz aci
Å ¾
ĠP M
åħ· æľī
Ġp ush
Ġfr anc
Ġset up
b b
ant ed
Ġn ation
åĢ Ł
ĠWh ite
ON T
å¹ ¸
Ð½ Ð´
ut ely
ĠÐ¿ Ð°
ĠĠĠĠĠĠĠĠĠĠĠĠĠĠĠĠ ĠĠĠĠĠĠĠĠĠĠĠĠĠĠĠĠĠĠĠ
ĠÐ²ÑĬ Ð²
ent al
em s
om bre
ä½ Ľ
ä¸ ĥ
ç§ Ģ
æĲ Ń
ĠR eturn
Ġc ried
P lease
ĠE nt
Ġorgan ization
Ġperform ed
men u
ĠĠĠĠĠĠĠĠĠĠĠĠĠĠĠĠ ĠĠĠĠ
Ġan c
ed er
Ġdel iver
éĿ Ļ
Ġtrans ition
or ry
/ .
ç§ĳ æĬĢ
Res ource
ĠE ach
N ext
pro perty
N ull
æĭ ¬
R L
Ġar ms
N umber
ĠÐ ¨
et te
â Ĥ
ĠSun day
Ġinflu ence
Ġ icon
èĭ ı
ĠTe chn
ing ly
ra el
Ġle aving
m ember
ang es
ĠÐ² ÑĢÐµ
Ġpat tern
as y
Ġplan ning
ĠRob ert
ient e
ç¬ Ķ
è§Ħ å®ļ
ç» ¿
et her
ĠÐĹ Ð°
ĠComp any
b um
æĶ »
ĠD C
ĠEst ats
ĠE ast
ĠN ovember
è¾ ĵ
ĠJ er
ä»¥ ä¸Ĭ
b ound
if i
Ġvis ual
Ġse ven
Ġpr ices
Ã ¶
ve re
Ġrele ased
le ctions
ĠÐ´ Ð¸
wide hat
}^ \
åĿ Ĳ
Ġhot el
ree k
ÑģÑĤ ÑĢÐ¾
D et
P age
ĠD an
Ġreg ist
çº ³
åĪ ¤
ĠT H
ĠL o
Ġsu c
ff ic
ĠDe cember
Ġupd ated
ĠTh om
è ĸ
Ġr ing
Ġdet ail
Ġchang ing
ĠW he
ĠĠĠĠĠĠĠĠĠĠĠĠĠĠĠĠ ĠĠĠĠĠ
æłĩ åĩĨ
d iff
ÑģÑĤÐ²Ð¾ ÑĤÐ¾
) ^{
Ġass ign
; \
ĠM ill
Ġextrem ely
ä¸Ģ ä¸ĭ
Ġapp oint
Ġcomplet ed
Ġfr ag
Ġass ess
Ġs ir
ä»£ è¡¨
re al
ĠP rem
ĠÐ» Ð¸
ä¸¤ ä¸ª
ĠÐºÐ¾ Ð¹ÑĤÐ¾
S H
ç§ »
i very
F T
Ġtest ing
cl ick
é ¤Ĳ
å¼ Ĥ
åħ °
æŃ Į
Ġt ant
List ener
Ġval or
Ð¿ ÑĢÐ°
Ġj un
Att ribute
Ñı ÑĤ
ĠÐ¸ Ð»Ð¸
Ġsm art
Ġre li
S ee
çĨ Ł
Ġtem ps
ä»Ĭ å¹´
åį Ī
Ġch ief
Ġdif erent
æıĲ é«ĺ
clud e
v an
cd ots
Ġon to
åĨ ²
åĨ ·
Ġtrad itional
åįķ ä½į
P RO
ac c
cul a
Con st
Ġthought s
Ġprocess es
Ch ar
ĉ var
éĿ ł
Ġposs ess
åİŁ åĽł
pro duct
Ġth y
Cl ick
Ð¿ ÑĢÐ¾
è® Ń
ru ctions
Ġm o
Ġ" ""
as ant
Ġext ension
ĠChrist mas
ÑģÑĤ ÑĢÐ°
Ġph rase
Ġphot o
Ġregard ing
u ce
ĠO ver
m ic
Ġwe ather
Ġcircum st
Ġsp ring
w ere
ĠP o
et ime
ç½ĳ ç»ľ
Ġocc asion
orn ia
æ° ¸
æ± ī
ĠH en
Ġcor ner
lem ma
N av
æĢ ¥
Ġa qu
Ġqu als
Ġfact ors
Ð»Ð¾ ÑĤÐ¾
Ġold er
Ġinst r
Ġtr uly
ç²¾ ç¥ŀ
V ersion
the ir
Ðº Ñģ
Ġcall s
Ġlead s
ĠD i
IN T
m eta
Ġpl us
Ġn ative
ĠH ot
Ġgir ls
Ġext ends
El s
B lock
P L
Ġb aby
ix er
Ġs ist
Ġne ut
Ġsc ore
pro ject
amet ers
ĠR el
çģ µ
Ġn ou
Ġsc ene
é© ¾
ãĢ Ĳ
A g
Ġintrodu ced
vol ution
Ġpower ful
b our
Ġestab lished
Ġveh icle
Ġrepl ied
Ġ\ {
L abel
ĠL ED
k er
è¡Į ä¸º
èį ī
Ġri ver
Ġde lete
Ġap art
Ñģ ÑĬ
Ġfill ed
f riend
å¢ŀ åĬł
Ġs and
çĸ ĳ
as hed
om orph
Ġpie ces
ãĢ ĳ
out put
æıĲ åįĩ
Ġsec ure
nc y
å®Į æĪĲ
< !--
Ġfamil ies
Ġl ady
Ġth reat
Ġcon eg
c ie
Ġtr ouble
stand ing
Ġf ashion
gr aph
ag ger
Tr ue
Ġcomb ination
Ġus age
ä¸Ģ æŃ¥
å·¥ ç¨ĭ
ĠW ork
Ġb ug
pro du
Ser ver
oun ter
çļĦ å¤§
å® ģ
Ġp as
Ġst ories
I B
Ġfor th
math sf
ond ay
ER R
du le
Ġw ine
ue ix
Ġrap id
ĠW ashington
åĲĪ ä½ľ
ĠC as
Ġpat ient
ĠA C
Ġd ro
ĠFr iday
M M
Ġsc ience
Ġproced ure
} /
a a
Ġview s
Ġperson es
is ation
ĠGe orge
Ġpr in
Ġs ociety
on ic
t w
ÑĤ ÑĬÑĢ
Ġspec ies
Ðµ Ð²
åĩº äºĨ
Ñģ Ð»ÐµÐ´
Ġare n
d esc
Ġa im
Ġch osen
Ġsc ope
) -
å¿ħ é¡»
ĠUnivers itat
çĶ ³
oper ator
ĠC am
Fr ame
æķĪ æŀľ
ĠÐ²ÑĢÐµ Ð¼Ðµ
Ġcon cent
ĠÐ± ÑĬÐ»Ð³Ð°ÑĢ
y r
ĠDep artment
p ush
Ġf at
Ġl ad
Ġle aves
ĠC le
Ġprote ction
æł ĳ
èĭ ¥
Ġcol ors
ç« Ł
o very
est ival
com ple
Ġneigh bor
æ² Ļ
Ġlaw s
olog ies
è¡ Ĺ
l am
enc i
Ġsup pose
åı ¥
Ð¶ Ð´Ñĥ
HER E
Ġprof ession
ĠG old
Ġmov ie
Ġim plies
ĠA tt
Ġf lex
F O
åĢ Ĵ
Ġfor ces
N E
èĦ ¸
åľ Ī
ĠV iew
Ġstre et
it o
P si
ĠPro gram
s es
Ġve g
ç» ©
ĠFace book
Ġl ots
Ġm ig
Ġad opt
Ġsh ift
Ġc ells
c ies
ĠÐ¸ Ð¼
F actory
Ġg ift
Ġgener ate
Ġc e
Ġcent ury
Ġaff ord
Ġcommunic ation
Ġmin ute
ma z
Ã ¤
F ig
}) \
è¡¨ çİ°
od ay
Ġl ab
Ġ( (
Ġr ise
Ġmove ment
Ġc in
ĠCl ub
æ¢ ¦
æĬ Ĺ
è¿Ĳ åĬ¨
Ġinter view
Ġfin ish
æŀ Ĳ
Ġdiscuss ion
hen s
ĠIntern et
N O
st ood
We b
k it
Ġg arden
and er
ĠM use
Ġd ra
ĠE xt
çĻ »
åİĨ åı²
C R
ĠM er
OR T
tot ype
Ġinn ov
æ²» çĸĹ
d escription
ix ed
Ġf i
æ¸¸ æĪı
Ð ¤
ĠĠĠĠĠĠĠĠĠĠĠĠĠĠĠĠ ĠĠ
en v
åĮħ æĭ¬
ç¡ Ģ
Ġrepresent ation
Ġestab lish
q quad
Ġbeaut y
Ġatt end
se g
ç £
éļ ľ
åħ³ æ³¨
ĠB ay
B ook
Ġthous and
at o
åŁº ç¡Ģ
Ġp rou
Ġad ult
ig a
equ iv
Ġg ate
è· ĳ
Ġim press
d igo
t ag
Ġch ain
Ġa ctions
un finished
Ġpol ice
Ġfore ign
Ġcol lege
åĩº æĿ¥
ot ic
it ness
u er
um an
èĦ ļ
R un
st d
Ġown er
ic ions
è´£ ä»»
ĠE nd
Ġstr ange
çļĦ è¯Ŀ
Ġrepl ace
el er
ĠJes us
at in
Ġpod er
ĠDes ign
å «
é² ľ
Ġlarg est
Ġj ourney
we ight
Ġent ered
Ġdel ay
sc ious
æ¬ §
Ġquar ter
am in
å¯¼ èĩ´
as p
ĠÐ²ÑĬ Ð·
ateg ory
ĠM any
åĪĽ æĸ°
Equ al
è§£ åĨ³
G r
Ñħ Ð°
å¾ ģ
w s
But ton
ind ent
Ġh yp
R el
Ġten ien
Ġbud get
Ġcapac ity
Ñĩ ÐµÐ½
Ġprocess ing
ĠL eg
ack s
end ar
o ct
é¥ ®
ar th
Ġlo se
av or
Ġkeep ing
c ut
è° Ī
æĢ ķ
B A
å¹ ħ
Ġche m
Ap p
å¢ŀ éķ¿
é¥ Ń
ific ations
Ð¿ ÑĢÐµ
D O
å® Ī
æ¸ ¯
Ġa head
Ġvers ions
çĶ¨ æĪ·
sup port
ex pected
Up date
j ection
Ð½Ð¸ ÑĨÐ¸
C ons
low ing
æ ĩ
m ys
Ġ( "
ĠO nce
Ġreport s
ç ĳ
Ġanim als
" ),
ent ry
Ġ Ñı
Ġcon sole
Ġth rows
ĉĉĉĉ ĉĉĉĉ
Ġra ised
r il
éĥ¨ éĹ¨
Ġra ise
Ġshe ll
Ðµ Ð¹
Ġprep ared
æĳ Ħ
Ch ild
ĠÐ §
åķ Ĭ
< ?
Ġs now
es e
Ġredu ced
f ic
ap ed
åĪĨ éĴŁ
ĠInd ian
Ġdist inct
ro c
ĠÐ¡ Ð¾
d p
Com p
Ð¿Ð¾ Ð»
ĠL O
Ġdiag ram
ex ample
Ġstart s
w ould
em ple
ç»§ ç»Ń
ç ĩ
RE F
Ġt it
S ec
Ġco ff
åĲĦ ç§į
è´ «
Ġd inner
ed om
= {
Col umn
ĠM ake
T e
H P
ĠT O
ĠFeb ruary
b en
Ġtw enty
Ġapp arent
Ġprevious ly
D at
B U
Ð³ Ñĥ
ĠÐ´ ÑĢÑĥ
ĠE sp
or ial
ĠB re
ĠNet work
Ġne ither
t ed
è¿ İ
B uffer
Ġpro pos
Ġcl ock
ÑĢÐ° ÑĤÐ°
Ġest imate
Ġdriv ing
In it
Ġtro ba
se y
Ġresist ance
ir a
yp es
Ġsup posed
é¡ ¾
ã ĥ
Ġreg ions
æĶ¿ çŃĸ
äºº ä»¬
Ġgr up
ĠS ervices
Ġpost ed
d rop
Ġperfect ly
tt p
åħ³ äºİ
unt ime
ĠO l
g ers
if ts
ĠGerm an
ri an
ä¹ĭ éĹ´
r ica
do or
ĠP ublic
Ġp unt
ÑģÑĤ Ð²Ðµ
ç« ŀ
}} (
Sty le
Ġ ur
Ġest a
Ġaud io
Ġhelp ed
æĶ¯ æĮģ
ĠC D
ĠS pr
Ġstop ped
ĠS il
M et
Ġg all
od er
Ġhe nce
ev en
Ġrat io
al let
ĠCour t
æĢ Ģ
II I
Ġb at
Ġb ot
ä» į
ĠL ife
è° ¢
Ġsche me
c are
Ġm outh
Ġcam era
ĠP ower
Ġhealth y
Ġsur v
èĽ ĭ
ob j
Form at
Ġdepend ing
ap es
è¿Ļ ä¹Ī
Ġl aptop
V er
Ġaltern ative
Ġschool s
æĽ´ åĬł
ff ff
rit er
F S
Ġ$ (\
M at
èĦ ±
Ġh o
ar ks
contain er
Ġim possible
Ġh idden
æĤ ¨
{ {\
x space
ot ing
Ġquant um
Ġed itor
ren ce
t at
è ľ
åĨ ł
æĹħ æ¸¸
ç´ ¢
Â °
Ġpl ug
Ġc up
Ġpart ners
N AME
M r
Ġw a
og r
ĠLem ma
Ġun its
N N
ĠS aturday
Ġch air
Ġto ts
è´¨ éĩı
æĿ Ģ
Ġcomm ercial
Ġposs ibly
Ġcontr ast
ĠWill iam
and on
Ġwe ar
Ġl ived
fil ter
Ġst one
Ġdise ase
ak s
iver se
Ñĩ Ð²Ð°
Ġt all
++ )
è° ģ
åİ Ĥ
}\ \
ä¸ľ è¥¿
ĉ this
rem ove
Ġw inter
æİ ī
Ġb attle
ans ion
Ġj ug
S L
Ġsc ient
ĠA PI
nav bar
Ġn orth
ĠA lex
Ġspe ech
ĠM ax
Ġl abor
and a
ĠAn n
ä¹ Ŀ
Ġmanufact ure
ĠCalif ornia
å¸® åĬ©
ĠCon f
M on
Ġf ish
yn ch
æľ Ŀ
Ġt ur
od ed
| |
st ack
t im
Ġsol ve
Ġad vert
ĠAr ch
y es
ĠC H
ĠEurope an
V is
bl ack
Ġlist ed
k ind
Ġdri vers
Ġserv ed
at tr
Ġaut h
Ġgrad u
Ġm ission
Ġfamil iar
Fil ter
Ġke ys
Ġrecord s
Ġro se
ä¹ĭ åīį
åª Ĵ
l ines
Ġentire ly
åĽ½ åĨħ
ern ame
ide os
ĠT ur
et ch
Ġrel ax
. /
Ġask ing
pect ive
Ð´ Ð½Ð°
b ur
s ica
Ġcor por
ĠÂ £
en vol
å¤Ħ çĲĨ
Ġb rief
D ev
ĠV ir
Ġ iron
Ġappear ance
n ormal
", "
ĠU N
l inux
Ġdes ired
æķ ĳ
Ġdep th
ript or
ac ity
Ġ\ $
vent ion
Ġten ir
Ġcateg ory
è®° èĢħ
åĵ Ī
ir ation
Ġpass ion
Ġgent le
s in
ĠIn s
éĹ »
Out put
Lay out
ĠB usiness
æĻº èĥ½
Ġhon est
Ġdir ig
çļĦ å°ı
ÑģÑĤ Ð²Ð°
P at
ul se
Âł habitants
çŃ ¾
s n
Ġo dd
Ġbound ary
åĲ ¯
mat rix
eg er
â Ĩ
åº ı
çĿ ¡
Ġman age
Ġown ers
as i
Ġsh oot
Ġpl ain
Ġj e
' $
Ġse ctor
Ġn odes
es ome
Ð´Ð¸ Ð½
ĠW il
ounc il
å½¢ æĪĲ
Ġj oy
Ġoff set
Ġc ash
res ponse
Ġcult ure
ç³ ĸ
ä»» ä½ķ
^ +
å¥ ¶
ol ar
å½ĵ æĹ¶
Ġbo ys
Ġelect r
Ġla unch
Ġdis pos
if act
] $
ÑĨ Ð¸ÑĤÐµ
ĠSt art
ud io
ç½ ª
un n
os c
éĻ¤ äºĨ
Ġmag netic
p ad
Ġdes ire
Ġexperi enced
roll ed
ĠSm ith
åľ° åĮº
ĠH D
Ġs ynt
Ġident ify
s d
ne ctions
æ¯Ķ èµĽ
ĠÐ¿ Ð¸
Ġor ient
Ġ il
ĠJ ul
ĠK ey
fortun ately
ĠA L
C o
pt r
è½ ¯
ç» ¼
ines e
Ġyou th
D ep
Al so
Ð· Ð½Ð°
}^{ (
go ing
Ġc ards
æĺ¯ åĲ¦
sc r
Ġs outh
Ġint ended
Ġb ag
' ),
Ġrespons ible
OR D
ç»ĵ æŀľ
Ġdec ide
æľī çļĦ
ann ed
Ġsuper ior
on om
ĠW here
Ġstr ict
ĠP ack
åħ ¸
Ġcont roller
æľº æŀĦ
ĠW ho
Ġcomp are
ĠDe velop
S O
åıĳ å¸ĥ
Ġcontain ing
. $
Ġf le
M ay
d ocument
Ġbe at
ĠPro ject
Ġstand ing
Ġcon ce
ĠCan ada
Ġpol ic
Ġemploy ees
ol ic
ent ed
c ache
ĠC all
s or
miss ions
b i
ak ed
ĠFl or
Ġ& \
ĠPar is
b et
Ġfab ric
ĠPl an
Ġext ended
t ml
Ġchall enge
Ġcompar ison
Ġsp oke
Ġg erm
å° ļ
M ax
R eturn
g le
Ġin tr
ru le
Ġhard ware
èģ ļ
Ġmil itary
Ġenc ara
ll es
Ġb on
Ġequ ations
ĠU sing
çŃ Ķ
Ġreg ister
Ġb ought
ed y
ag n
å®ŀ éĻħ
Ġag ent
ĠP ress
é¡ ¶
Ġn atur
Ġadv anced
w ater
ab out
Ġeff orts
T op
envol up
pr im
od o
è¿ Ŀ
-- "
Ġconf lic
Ġthe rm
Ġread er
y g
Ġupd ates
}\ ,
Ġsudden ly
Ġbo at
Ġtre nd
ĠM ain
ĠL ook
çľŁ çļĦ
back ground
Ġform al
~ $
ic ate
Cont roller
Ġ ÑĩÐ°ÑģÑĤ
ab il
Ġopport unities
çģ ¯
éģ ¿
Ġgener ation
Ġal ign
ser ve
Ġbe ar
Ġpart ir
ament e
å®¶ åºŃ
Ġup grade
M em
o ch
Ġ< !--
cc ion
Ġmet al
Ġv ary
v id
{ }
LA SS
Ġd ual
Ġsome what
Ġun iform
j e
Ġfav our
Ðº ÑĤ
b al
Ġdes ktop
Ġbre ath
Ġk m
éĵ¶ è¡Į
æľī éĻĲ
ĠÐ± Ð°
c ial
Ġm ant
ĠJ e
Ġf ant
R I
E ng
p ower
Ġcomfort able
ic ans
app y
å¤ ı
se ct
omet imes
Ġte le
Ġrep air
y e
ÑĪ Ð½Ð¸
ub re
Ġel imin
ĠB ecause
ç¤ ¼
C ar
Ġlist en
ä»· åĢ¼
s ur
Ġspe aking
ĠB est
Ġs ust
é¦ Ĩ
ĠC ON
ĠC a
P ack
umer ate
éľ ²
Ġh ur
ĠNew s
if ies
il os
ç» į
ĠÐ° ÑĢ
éĶ ®
t ol
Ġex plicit
Ġgo als
ÐŁ Ð¾
ĠL l
ĠL ong
Sc ript
he tic
s ign
Ġimport ance
éĴ Ī
æĸ° çļĦ
è¾¾ åĪ°
Ġtempl ate
äº¤ éĢļ
Ġan omen
åĸ Ŀ
ont al
UR L
éħ ¸
æŁ ĵ
å¨ ģ
Ġback up
ä¸Ģ çĤ¹
Ġhon or
åı ¶
æīį èĥ½
æĿ ¨
Ġche ap
èĹ ı
è¿ °
W rite
} :
Ġre con
al i
P erson
Ġbal ance
æ¯ı å¤©
Ð¼Ð¸ ÑĢÐ°
it ut
Ġ ought
æĹł æ³ķ
Add ress
ä¼ ´
em pres
è· Į
ĠS ing
f iles
ĠV is
Ñı ÑĤÐ¾
AC K
Th ank
æĸ Ĺ
Ġarg uments
éĢł æĪĲ
Ġsuggest ed
Ġsh aring
æĹ¶ ä»£
Ġmunicip i
Ġr ough
v as
Ġhigh light
é© ¶
æķ £
rib le
F unction
f aces
Ð½Ð¾ Ð²
Ġpr on
Ġn ucle
Ġen abled
et ing
l ies
Ġfail ure
}} {\
æ¯Ķ å¦Ĥ
æľª æĿ¥
ro ad
Ġdut y
og ether
Ġcomp at
Ġtest s
éĢ Ĳ
plic ations
Ġob lig
çĽ ĸ
U se
Ġprom pt
un c
Ġoff ering
ĠÑģ ÑĢÐµ
ĠRes earch
ĠS um
Ġconf irm
Ġ{ @
h av
k in
Ġdiscuss ed
æľī äºĽ
Ġcaus es
re ens
ĠAp p
p p
ä¼ ĳ
Ġf aster
ĠE v
ã Ĥ
ĠÐ½Ðµ Ð³Ð¾
å½ĵ çĦ¶
Ġartic les
S A
ĠT op
Ġord ers
Ġform ed
& =
il ton
ĠC E
Ġre ct
st rap
P o
Ġcy cle
ic ion
Ġdisc over
çĶ °
os h
Ġdel ight
Ġmess ages
Ð»Ð¸ ÑĤÐµ
ÐºÐ¾ Ð²
ĠN or
Ġeconom ic
ob ert
Ġtra ffic
on al
Ġtyp ically
Ġdoc uments
å¼Ģ å±ķ
Ġlet ters
ç©º éĹ´
Ġaccom pl
Ġoper ating
ĠThe ir
ĠFr ank
ĠL u
Ġexist ence
ĠÐ½ Ñı
t x
Ġte lev
Ġo k
is ters
Ġvis ible
person es
ĠB et
t n
ĠMich ael
pre c
ik i
Ð²Ðµ ÑĤ
éĺ ¶
Ġqu ed
ä¿ ĥ
Ġden ote
ck now
ĉ "
R ow
st ep
Ġexc ited
Ġ* *
t ree
ç¬¬ ä¸ī
l os
ĠB as
id el
res ents
Ġt asks
Ġbusiness es
Ġs ides
Ġgal ax
Âł persones
é¸ ¡
tern oon
ĠGr an
or ig
Ġs ister
ä¿Ŀ æĬ¤
end if
Ġturn s
Ġqu ad
re nd
å½ Ĵ
éĢ ı
am m
Ġun certain
ĠH all
( [
ex as
Ġjob s
Ġreview s
Ġann ounced
en ess
', '
ĠD iv
cit et
val ues
èµĦ æºĲ
Ġun known
clus ive
éĶĢ åĶ®
M O
Ġev olution
ĠB ig
ot al
æİ§ åĪ¶
line ar
Ġi Phone
J ust
åĪĨ æŀĲ
Ġnot es
âĶĢ âĶĢ
Ġob st
t ical
Ġabsol utely
ĠR oy
Ġcol our
Ġacc ident
ĠS l
ä½ ³
ä¸ĩ åħĥ
Ġent ertain
Ġl ie
D ec
Ġtechn iques
æ¶ ²
Ð Ľ
èį £
ĠAng el
Ġsu itable
c ard
ĠC ouncil
éļı çĿĢ
Ġb rain
çĪ ¸
Ġtop ic
ĠE rror
Ġset embre
Ġlog in
AG E
pl ed
ĠT wo
Ġnot iced
ĠP eter
ne q
éª ¨
} +\
Ġpar allel
B O
ĠD ate
t xt
ad ing
äº§ çĶŁ
åį ±
Ġpr ison
ĠÐľ Ð¸
$ (
Ġder iv
ĠOn ly
Ġincor por
Ġca ught
æľī æķĪ
Ġrad io
ĠO ld
ĠR iver
Ġput ting
ä¸Ĭ æµ·
ĠM A
Ġremain ing
Ġprou d
Ġment re
Ġs le
Ġcon figure
Ġd ar
m ac
ĠG ener
Ġdet ailed
Ġy a
Ġwel come
Ġresult ing
ä¿Ŀ æĮģ
ä¹Ł æľī
ĠL ove
ĠM onday
åĬ ª
b ul
bre ak
Ġcontinu ous
se cond
çĤ İ
Ġfl ag
et es
å¸ ģ
Ġconvers ation
Ġdisc overed
Ġll arg
se gu
y al
% ;
Ġcoff ee
æ¸ Ĳ
Ġem bed
Ġem b
ad os
å®Į åħ¨
//////// ////////
C M
ul ed
Ġagre ement
ari an
Ġfun ci
Ġs itting
é ¹
ĠA v
ĠĠĠĠĠĠĠĠĠĠĠĠĠĠĠĠĠĠĠĠĠĠĠĠĠĠĠĠĠĠĠĠ ĠĠĠĠĠĠĠĠĠĠĠĠĠĠĠĠĠĠĠĠĠĠĠĠĠĠĠĠĠĠĠĠ
æ´ ²
Ġr id
Val id
é¥ °
âķ Ĳ
Ġconsist ent
ĠG L
ĠSant a
B o
rid ge
on ym
Ġman aged
éľĢ æ±Ĥ
ÑĮ Ð¾
Ġtrans action
å» ¶
Ġtechn ical
let s
d irect
| ^
gener ic
e z
Ġhelp ful
åıª è¦ģ
ÐĿ Ð°
Ġthe e
Ġl if
äº¤ æĺĵ
Ġ ice
éĩĩ çĶ¨
ĠSo ft
L ength
ÑĩÐµ ÑģÐºÐ¸
Ġslow ly
å°ı æĹ¶
ap ple
ĠÐ° Ð²
Ġrem ote
Ġbl ocks
è ¸
Ġcommand s
ĠOff ice
Ġst ored
un it
Ġbuff er
çĸ ¾
Ð¾ Ð³ÑĢÐ°
Ġsam ples
æĪĳä»¬ çļĦ
Ġc ens
ĠF ort
Ġinvest ment
ĠG en
aut hor
h y
éĽĨ åĽ¢
ĠN E
b res
is her
çĪ Ĩ
éĽ ª
ĠM icrosoft
w rap
â Ħ
Ġs ad
ÑĬÑĢ Ð¶Ð°
ç®Ģ åįķ
ĠA T
M ode
çĬ ¯
ter day
Ġmeas ures
Ġm ail
Ġap ps
cc ions
bu f
Ġv en
M ar
Ġpod en
D irect
Ġform ula
us es
Ġinst ructions
Ġt aste
Ġst able
æµ ª
Ġan tic
Ġdes envolup
iz ar
å· ¨
s pe
) /
. [
ç« ¥
ĠT amb
è¶ħ è¿ĩ
( &
Ġflo at
Ġenem y
ä¸į å°ĳ
ĠÐ² Ðµ
Ġweek end
dev ice
å¾Ĺ åĪ°
æĭ¥ æľī
çİ ī
Ġgu any
Ġa ward
Ġteam s
E nc
å¹¶ ä¸Ķ
ĠM ass
ament al
i at
ell o
c f
op l
h igh
ic ing
s uch
çŁ¥ è¯Ĩ
Ġh an
Ġval u
ĠAl though
e per
ĠD u
t wo
Ð° Ð·
N A
ĠS a
ain er
Ġant i
h space
çº ·
ĠF ore
Ġwor se
Ġf ills
è´ ´
Ġsuc ceed
æī ĺ
O K
} );
Ġsigu iente
ÑģÐºÐ¾ ÑĤÐ¾
Ð¼ Ð¸Ñı
A ccess
Ġv ess
param s
æ¨¡ å¼ı
Ġin ner
Ġe gg
Ġhold ing
ç´ ¯
Ġpay ment
re v
ĠC A
Ġent r
m ode
Ġabsol ute
Ġnet works
ĠL ike
Ġreal ity
ien e
åł Ĥ
Ð¼Ðµ ÑĢÐ¸
åħ¨ çĲĥ
Ġan imal
Ġsk y
p op
Ġop posite
ri z
é ½
ï ¿
C al
ä¼ł ç»Ł
G u
Ð¿ ÑĢÐ¸
ĠIs rael
ific aci
ç ĺ
Ġmar ried
ĠÐºÐ¾ Ð¼
åĵ ¥
ĠGovern ment
Ðº ÑĬ
ä»¥ åĲİ
blic a
os es
Ġarriv ed
L C
æĬ ĵ
éĥ½ ä¼ļ
Ġsp r
Ġmost ly
ant a
ÑĤÐµ Ð½
Ġconf idence
é¢ ľ
M I
Ġk illed
Ġpl enty
alt res
çľŁ æŃ£
he red
ĠJ ew
Ġsp aces
Ġmed ium
Ġwrit er
å¦Ī å¦Ī
r ich
oct ubre
Ġfeed back
s ol
T ask
å¼ ¹
em on
sc ope
sy ch
ĠS i
çŃ ĳ
Ġmin im
Ġj oint
ĠFranc is
W here
å·¦ åı³
Ġdist rict
or ough
} -\
Ġa con
Ġexpl an
ĠI V
u an
Ð½Ð¸Ñı ÑĤ
Ġconsider ing
Ġf ruit
æĺ¯ åľ¨
ĠMan agement
Ġcall ing
L ook
jav ascript
ĠÑģ ÑĤÑĢÐ°
Ġll ib
ĠB ill
åĽ º
is l
pon ents
Ġnumer ous
Ġs ch
Ġto w
ĠP an
Ġrep resents
{ {
å¤ ®
Ġfore st
resh old
K e
n orm
æĺ¯ ä¸Ģä¸ª
ÑĬÐ»Ð³Ð° ÑĢÐ¸Ñı
g reg
Ġw edding
Ġpl ane
Ġhe ro
ĠB ack
Ġ[ ]
Ġco eff
Ġsav ed
om ething
act or
l ife
Ġc od
Ġexpl ained
D S
o om
ĠSci ence
Ġc amb
G E
äº¿ åħĥ
C I
éĽ Ħ
ĠCent ral
Ġcl uster
Ġd ur
åĨ °
Ġspect rum
ĠÐ¶ Ð¸
Ġqu atre
ĠR oman
æľº ä¼ļ
off set
Ġmajor ity
ĠT im
Ġincre ases
Ġthem e
inst ance
ĠMar ia
ä½ľ åĵģ
ll ustr
Ġcomb ined
æ¶ ¦
os ing
k es
Ġimplement ation
iz ontal
Ġ eth
w indow
ci ples
Ġfam ous
Ġcont empor
ĠW ed
Ġtw ice
ä¸ļ åĬ¡
ĠRep ublic
Ġv ir
Ġmus ical
m ut
C ase
Ð½Ð¾ Ð³Ð¾
ven ue
ĠÐ± Ð¾
es a
Ġpart ies
ref erence
Ġcorrect ly
ĠGr and
Ġwatch ing
ici ans
Ġdest roy
ÐµÐ½ Ðµ
lay er
d est
æĮ ¥
h ist
Ġresist or
éĩĳ èŀį
c raft
Ġve get
çİ° åľº
Ġesp any
ĠN ame
ĠRev iew
Ġad vent
te en
æĹ ¢
ĠRe al
åĿļ æĮģ
urs day
å® ľ
Ġroom s
æĿ¥ è¶Ĭ
CO L
ell er
Ġb rowser
åıĤ åĬł
ach ine
ĠAssoci ation
åĬª åĬĽ
v m
Ðº Ð»Ñİ
å®¢ æĪ·
\ "
at ges
B ibli
S eg
å° ¤
Pro cess
w ar
Ġexerc ise
ä»ĭ ç»į
éĩ İ
ĠE duc
Ġpract ical
éĥ½ æľī
Ġn arrow
Ġdel ivery
Ġaccur acy
Ġra in
SE T
Ġs ota
en umerate
æĤ£ èĢħ
çĽ® æłĩ
è± Ĩ
Ġv irt
ä¹ĭ ä¸Ģ
IT H
Ġfriend ly
) +
Ġv ida
item ize
Equ als
æĿ¡ ä»¶
Ġr ub
Ġend ed
ĠA R
ues day
art s
è· Ŀ
Ġm ad
C S
ÑĢÐ¸ ÑĤÐµ
ĠM el
Ġc able
n i
the m
Ġem ph
Ġkey board
ĠP en
æ¦ Ĥ
ĠB Y
or i
Ðµ Ð»Ðµ
bl ing
Ġb an
Ġcomp act
out hern
ĠC reate
Ġansw ers
ĠCor por
in er
è¶Ĭ æĿ¥è¶Ĭ
un ci
the orem
ĠAr ray
éĺ ´
no indent
ĠS ocial
st yles
ĠSt ar
è®¸ å¤ļ
Ġm arc
Ġsing ular
ten ance
Ñĩ Ð½Ð¾
ĉ ĠĠĠ
Ġwill ing
ĠÑĤ Ñı
Ġinf in
ĠE qu
Ġb its
Ġsignificant ly
Ġs plit
ĠA maz
ĠI r
Ġpo et
Ġframe work
æ´ ¾
Ġem pres
Ġproble ma
CT ION
r ated
èĻ ļ
est ic
ĠI d
ç§¯ æŀģ
ida e
un te
et t
Ġlo v
Ġm aps
a ire
çĪ¶ æ¯į
ĠJ ava
Ġla id
u int
ĠIn formation
æ¤ į
Ġhelp ing
] \
ĠÐ´ Ñĥ
Ġrepe ated
ĠDo es
Ġdim ension
Ġident ity
Ġgreat est
Ġsee k
ĠB oth
ĠÐĳ ÑĬÐ»Ð³Ð°ÑĢÐ¸Ñı
ĠÐ ¦
F ONT
Ġ- \
S che
ĠO per
èĻ ĳ
Ġour selves
Ġar bit
Ġev ol
Ġis land
Ġturn ing
æ°´ å¹³
ĠR oad
Ġn ut
èµĦ éĩĳ
Ð½Ðµ ÑĤÐ¾
Ġann ual
Ġv end
F i
f ull
æĽ ²
âķĲ âķĲ
R ev
Ñı Ð²Ð°
deb ug
Ġex change
ĠSup er
Ġs alt
Ġmeasure d
( {\
Ġinc ome
å° Ħ
) }{
z er
T C
ĠInt el
Ġb read
v ia
Ġse at
Ġviv ien
ĠM aster
Ġs an
Ġun able
ĠÐºÐ¾ ÑıÑĤÐ¾
åĩĨ å¤ĩ
æĺ¾ ç¤º
Ġc raft
Z E
D escription
ÑĨÐ¸Ñı ÑĤÐ°
Ġcl im
Ġcit iz
äº Ī
( _
ĠIt s
not ation
Ġwall s
Ed it
ĠÐ¡ Ðµ
P ort
Ġple asure
Ġro of
um es
ç§ĳ åŃ¦
éĩį çĤ¹
ĠB ur
Ġshe l
AT H
åħ µ
C RE
Ġcl ar
par se
D W
Ðº ÑĤÐ¸
b as
Ð½ Ñĥ
ĠÑģÑĬ Ñģ
p es
Ġespec ial
Ġanal og
Ġcircumst ances
Ġex pos
ĠBo ard
Ġrout e
Ġp ython
Ġpart ner
ĠLou is
~~ ~~
$ }
Ġaf ternoon
å¥ ¥
Ġatt ribute
ob s
Ġsist ema
Ġdeg rees
çļ ĩ
Ġin qu
Ġst ret
Ġdiag n
ict ure
od ies
è¯ Ĺ
ĠChar les
ĠÐĴ Ð¸
Ñģ Ð¸ÑĤÐµ
ak ers
Ġb ott
r b
ÑĤÐ¾ ÑĢ
Ġm el
Ġt ail
Ġst ated
Ġpl ants
Ġf ro
ist ed
Ġc ad
Ġpr ime
Ġp int
ĠÐ³ÑĢÐ° Ð´
Ġterr itor
Ġ( -
Ġp m
Cont rol
Ġsm ile
Ġwas te
al o
çł ģ
ian o
ann els
per t
ce an
Ġcl in
Ġcirc le
flo at
Ġpers ons
Ġbl ess
av ors
r ange
I E
Ġpass ing
è Ķ
out e
Ġes col
Ġpur poses
operator name
am er
wh ite
IG N
dim ensional
Ġp il
ĠÐ³Ð¾Ð´Ð¸ Ð½Ð¸
ĠThom as
y our
ï¿ ½
æģ ¶
E ach
Ġhab it
ors es
ĠÐĳ Ð¾
ious ly
Ġn a
ĠAustral ia
ä¸į åĪ°
x ic
is ms
ĠS oc
åĨ³ å®ļ
ĠB ra
j ud
requ ire
æŀ ¶
med ia
Ġsc hed
å¦Ĥ æŃ¤
.... ....
èīº æľ¯
Ġexpl ore
åĳ ¼
Ġterm in
nes day
in ent
æľŁ éĹ´
Ġreg ul
ç¡ ¬
Ġrecomm ended
ĠTh ank
sh ot
m aster
Ġb inary
ou red
or gan
ĠS pe
y er
éĽ ·
ð Ł
Ġc ache
Ġvis ion
å§ Ĳ
Ġinc red
åº Ĩ
Ġsol o
æĥ Ĭ
ĠR ad
Ġar my
f i
icol umn
Ġinter ior
C urrent
Ġcomp re
Ġ Ã¨
co pe
å® «
ĠF ol
å¼Ģ åıĳ
m atic
è´ ·
ä¸į åı¯
m i
ĠAcc ording
fra id
v space
ĠC ard
à ¤
Ġabs or
ig er
Ġtri al
Ġh at
Ġest ate
Ġcontain er
Ġaud ience
G R
Ġsuccess fully
ĠW ood
ĠB i
Ġcoll abor
Ġdatas et
Ġpro pi
Ġrec overy
A c
ce ived
Ġess ay
è¯ ¯
Ġc av
Ġreg i
mult icolumn
Ġinter action
è¿ ·
appro x
éĽ ¶
Ð»Ð° ÑģÑĤ
Ġbecom ing
pe res
atur a
è®¡ åĪĴ
ÑĨÐ¸ Ð¸
Ġpost s
ĠC ustom
m atch
Ġt ips
] );
ag raph
Ġsc al
ĠCh inese
a is
Ġcolumn s
Ġdivers os
å³ °
Ġunder stood
Ġman ual
Ġg od
ari ant
é¢Ĩ å¯¼
R ight
Ġper man
m bre
éĻ Ħ
ri ev
åħ¨ éĿ¢
Ġf old
V AL
L es
: </
re ra
Ġor dered
Ġep is
ĠG ir
ĠI T
M E
èĤ ¥
ĠT exas
ari os
Ġv ideos
Ġp apers
Ġpl ot
ä¸į å¾Ĺ
Ġbus y
Ġmat ters
Ġwalk ing
T HE
åĲĪ åĲĮ
AR Y
im ages
L ib
ÑĢÐ° Ð·
å¸ Ŀ
Ġd ating
G A
ip ped
k i
Ġde let
Ġrest art
xt ure
æĹ¥ æľ¬
Ġbo ost
Ġlead er
Ġexp ensive
Ġ ..
D r
ĠR et
ä¾ §
Ġthe rap
Ġend s
Ġteac her
Ġspecific ally
Ġint ellig
Ġbr idge
Ġb rown
Bibli ografia
ĠJo an
u zz
ist ent
Ġdrop ped
çĸ« æĥħ
s ys
å¼ ±
ĠÐºÐ¾ ÐµÑĤÐ¾
Ġwe ap
C ache
Ġresta ur
Ġex ceed
D ele
an ing
u rop
an im
pl ug
å¸ Ń
= -
Ð² Ð¸ÑĤÐµ
> ,
ĠP R
Ġst ack
es p
AT A
An other
Ġtyp ical
claim ed
éĩ Ĭ
de c
çĶŁ åĳ½
Ġeff iciency
h r
æĹ §
Ġth in
Ġjo ined
ĠFound ation
empl o
Ġang le
ĠC are
æİ ¢
Ġ" /
æĮģ ç»Ń
ĠT ext
ick en
Ġ\ |
AN T
Ġne ck
Ġinit i
a qu
ĠÑģ Ð²Ð¾
Ġfe e
Ð²Ð° Ð½
et at
f ound
ĠPe ople
Ġterm e
Ġcreat ive
ĠCh ild
Ġdra wn
èĤ ¯
æĺİ æĺ¾
g ence
Ġsub sc
é¢Ĩ åŁŁ
l at
ç»ı è¿ĩ
ĠL and
Ġdiffere nces
co very
ĠH and
Ġaffect ed
Ġcur ve
Ġport ion
Ġflow ers
ad ed
Ðº ÑĢÐ¸
N ames
st at
ĠPro v
pr ise
!! !
æĿ¥ çľĭ
çĥ Ī
è´ ¥
æĮī çħ§
Ġfre edom
L ocation
ĠB ank
un ning
ĠAnd roid
Ġdiferent s
Ġfurn iture
ĠL ake
æĿ Ĥ
ÐŁ ÑĢÐµÐ·
S earch
Ð ķ
Ġal gebra
u ario
Ġf ans
Ġany where
EN D
ĠU nder
Ġmill or
b ing
-------- ----
ä¸º ä»Ģä¹Ī
& &
st one
ag a
room s
Ġ! ==
Ġrel atively
ed it
Ġpre v
Ġd ust
Ġsc an
ĠÐ¼Ðµ Ð¶Ð´Ñĥ
Ġa fraid
w r
G l
Ġveloc ity
ov ed
ĠÑģ Ð²Ðµ
ĠE lect
Ġwor ry
è¶ £
s ession
I X
U RE
au ge
ĠĠĠĠĠĠĠĠĠĠĠĠĠĠĠĠ ĠĠĠĠĠĠ
èĢ ³
ä¸ĭ æĿ¥
out s
d on
Ġh yd
ĠW ord
Ġthous ands
Ġg rew
Ġpro port
T arget
Ġ( '
Ġp ec
**************** ****************
sh are
h us
åĪ© çĶ¨
ĠF urther
ĠR om
Ġdis put
Ġ$ .
Ġd in
ĠPro fess
Ġte aching
Ð½Ð¾ Ð²Ðµ
ĠJ im
ĠP ass
éĤ£ äºĽ
Ġp ix
ĠSp ace
Ġprov ed
Ġder ived
}} _
ĠR am
Ġfrequ ently
ç»¼ åĲĪ
Ġindic ate
Ġra il
å° ¼
Ġt ard
B S
ĠH ave
ĠC re
ul ous
Ġint el
Ġfl ux
Ġaccur ate
å¹¶ ä¸į
ad er
Ġlov ely
m osp
Ġap are
ĠA N
æĢ§ çļĦ
} '
Ġed it
istr ation
pro totype
Ġcall back
clud ed
g ood
h op
Ġexpress ed
Ġgu ys
se curity
Ġb aix
ir ty
Ġs ick
Ġli qu
b at
ĠBu ild
ĠÐ± Ðµ
Ġdist ingu
ĠB al
ant e
ĠOn line
Ġre i
Ġmom ents
ĠN S
Ġl en
b uffer
ur ies
W E
ĠRich ard
E very
ĠR equ
æľī ä¸Ģ
ĠL ight
Ġmin or
i est
t emplate
ĠJ O
Ġh ast
ĠL icense
sc ape
Ġvill age
m ica
m orrow
Ġwalk ed
st ic
al ysis
AP TER
ap se
p ref
Ġl ic
ĠN O
th rough
ĠT erm
Ð Ĺ
f inal
Ġhous es
Ġy ellow
word s
ĠCol or
ive red
T YPE
Ġla un
b ind
ĠEng ine
è® ¿
c n
æļ ĸ
ä½ľ èĢħ
Ġtre ated
ort hern
çĶ ²
Ð» Ð½Ð¸
Ġsus p
W indow
Ġf ault
ol ly
Ġ> =
hol der
D R
æĬ ĺ
Ġp ip
aus s
åĪ« äºº
Ġaccept ed
åįģ åĪĨ
or ter
pos itory
) }$
Ġh ole
Ġqu i
ĠInst itute
O p
U rl
ĠHen ry
s v
åĩº çļĦ
Ġrec all
om ic
ĠB rown
Ġdecl ar
il arly
ĠÐ¿ Ð»Ð°
Âł Âł
ĠU ser
Ġem ot
æ¶ ī
Ġrem ained
Ġfair ly
Ð»Ð¸ Ð·Ð°
mod al
Ġaccount s
ĠS ociety
ä½ł ä»¬
or ation
ÐºÐ¾ Ð»Ð¾
k o
ĠU RL
ĠPro duct
Ġp adding
Ġcan cer
Ġab ans
ĠW ater
è¿Ľ ä¸ĢæŃ¥
Ġd b
è´Ł è´£
Ġh ospital
ĠTr ue
O nce
è¯ į
åĨ ¬
m ade
Ġtell s
Ġseg ons
Ġforg ot
Ġsub t
ĠSt and
p ons
Ġr ide
ott ed
Ġdr ag
util s
empt y
F ol
up lic
ĠH ill
Ġallow ing
ĠIs land
act ual
è®© äºº
cle ar
ĠÐ¿ÑĢÐµ Ð¿
ĠÐ¾ ÑĢ
Ġo sc
Ġex cess
ĠH a
Le vel
é£İ éĻ©
N e
ĠA P
az z
end ent
add ress
= (
Ġmark ed
Ġs ou
ĠM ap
Ġm erc
Ġbill ion
ac cess
vid ia
Ġrec ip
Ġmed iana
Ġsche dule
ÑĢÐ°ÑĤ ÐºÐ¸
Ġknow ing
Ġno ve
ĠN ova
åıĹ åĪ°
è¯ Ĭ
Ġsur vey
Ġclaim s
et ooth
Ġof icial
ĠMus ic
Ġb ond
ac a
Ġ< =
Ġatt ached
ĠS uch
Ġm ouse
æľĢ ç»Ī
ç»ı å¸¸
V E
å² Ľ
_ ;
Ġemph as
Ġexperi ences
la w
M B
è¿ĩ åİ»
Ġs ports
Ġhy per
Ġr u
æĿĲ æĸĻ
\ }$
Ġdes embre
ĠP op
Ġf ly
ç§ ĭ
ob e
pro d
åº Ĭ
By Id
ĠC ode
m ay
Ġpl a
Ġele g
Ġloc ations
am ples
ĠÐŁ Ð°
ĠL uc
Ġste el
ic ago
ick er
P ass
çĥ Ł
Ġliter ature
Ġbr anch
ĠR ock
åıĺ åĮĸ
ĠÐ·Ð° Ð¿Ð¾
ÐĴ ÑĬÐ½
å»º è®®
Ġauth ors
Ġfor ced
Ġex port
Ġt ight
W idth
Ð¼Ð° ÑĤÐ°
Ð» Ð½Ð¾
for ward
Ġexper iments
Ġj ul
ynch ron
Ġcon nections
su ccess
çī Ļ
Ġl le
ĠT ry
Ġment al
æ¡ ¥
C or
ĠÑģÐ° Ð¼Ð¾
w atch
qu are
çĬ¶ æĢģ
Ġar c
Ġl ift
è½¦ åŀĭ
æĿ Ł
unt ament
ĠV an
Ġobserv ations
Ġtot ally
åªĴ ä½ĵ
de p
Ġb low
P i
int o
min us
B undle
ĠĠĠĠĠĠĠĠĠĠĠĠĠĠĠĠ ĠĠĠĠĠĠĠĠĠ
Ġad j
in ations
ä¹ ±
Ġdr am
Ġanc ient
ff ect
Ġdedic ated
Ġcheck ed
å¸¦ æĿ¥
å± Ĭ
ĠÐ Ļ
p ool
Ġmar riage
Pro vider
Ġinstall ing
rel ated
Ġlay ers
Ġcare fully
Ġmix ed
Ġl ux
app oint
h ot
math scr
Ġme rely
ST R
Ġmot iv
Ġcons ists
ĠL ear
ç»ı èĲ¥
Ð´Ðµ Ð½Ð¸
n am
Ġprom ise
ĠÐ¾ ÑģÐ½Ð¾
V ert
æĵį ä½ľ
Ġw itness
al ian
çĽ Ľ
å±ŀ äºİ
Ġd ies
i our
å¹´ è½»
Ġing red
ä½ĵ éªĮ
æ ¾
C opy
ĠMod el
Ġac adem
tr y
éĨ Ĵ
å ´
ĠEn ter
Ġnot ed
å® ½
$ _
å¦ »
Ġele v
Ġchalleng es
åĢ º
Def n
ĠJ ac
Ġis ol
V e
Th read
ĠMad rid
Ġwork ers
ÑĤ Ð¸Ñı
r g
Ġoper ators
ĠCar ol
il it
em ail
å° ģ
çĿ £
Ġcalcul ated
ä¹Ł ä¼ļ
' >
ific ate
ĠÐ¿ÑĢÐµÐ¿ ÑĢÐ°ÑĤÐºÐ¸
R S
Ġma ig
èĵ Ŀ
Ġseg ment
ci pl
k ins
c ustom
ĠAfr ica
Ġart ist
our se
Ġsc r
Ġg un
Ġto ken
Pro duct
Ġident ified
Ġa id
erv es
ÐĴÑĬÐ½ ÑĪÐ½Ð¸
V D
Ġsol ar
ĠH ence
ĠÑĤÐ¾ Ð¹
Ġres et
D ist
Ġd ia
æľī äºº
Ġfig ures
Ġimag ine
ix en
Ġnove mbre
å¦ ĩ
ET TER
y cl
Ð¹ ÑģÐºÐ¸
Ġapproxim ately
Ġc ars
èĪ ŀ
åĿ ı
Ġcre ar
Ġco ast
ĠM ex
è® ¯
Ġst ead
Ġed ges
iven ess
åº ĵ
ke ys
L ocal
Ġgu ests
ĠC LASS
m ount
æ² ī
æı ¡
at ial
D em
g ate
è¯ ¢
çĽ¸ ä¿¡
ir med
Ġstand ards
è§ ¦
çļ® èĤ¤
Ġesc ape
m ond
ĠBl ue
èģĶ ç½ĳ
Ġsurpr ise
W ill
Ġdevelop ing
Ġsign ed
èĳ Ĺ
qu er
t mp
leg al
æĪĲ äºĨ
Ġintrodu ce
Ch ange
Ġ$ {
w ing
u j
Ġvert ical
sh ift
Ġext ent
ĠFlor ida
ic ons
Ġauthor ity
r ant
çº ¯
çº ¸
Ġt one
ĠD en
ent er
\ ,\
Ġj av
Ġg ather
Ġkind s
Î ±
Con nection
c ada
ĠV ict
Ġt on
åĪ º
æ¹ ¿
Ðº Ð¸ÑĤÐµ
Ġevent ually
L S
Ġgu y
Ġdivers es
ert s
P el
IT Y
Ġd ins
Ġmet ric
Ġem p
B efore
ä¸¥ éĩį
ĠL os
M C
FA ULT
Ġcl ust
Ġv ote
ĠA mb
T ag
åĲ ī
Ð· Ð´Ð°
est ion
Ġte a
Ġac ab
åİ ļ
ĠĠĠĠĠĠĠĠĠĠĠĠĠĠĠĠ ĠĠĠĠĠĠĠĠ
Ġrep ly
Â ®
ad v
Ġconcern ed
ĠL ady
Ġc ra
Par ameter
Ġhe av
ĠSc ott
ĠS O
æİ Į
ĠÑģÑĬ ÑīÐ¾
Ġinte ger
ic he
aut o
æļ ´
æľī åħ³
ÑģÐµ Ð»Ðµ
åĲİ çļĦ
av ant
Ġsub sequ
æŃ£ åľ¨
ç® ±
W ork
Ġfact s
Ġstrong ly
im p
ang ular
Ġd ent
OR M
Ġstud ied
ĠJ ud
éĩĮ çļĦ
Inter face
Ġsupport s
Ġlog ic
Ġrepl aced
Ġopt imal
th an
Ð² Ð½Ð°
te ct
ent a
æ£Ģ æŁ¥
ĠM en
Ġsu it
åİ ħ
: (
Ġp hen
Ġdraw ing
- $
ç¾İ åħĥ
`` `
ĠS ar
Ġagre ed
ä¸ĵ å®¶
å»º çŃĳ
åģ ı
Ġbig gest
IM E
Ġsu gar
Î ¿
Ġt ut
be en
è° ĵ
Ġst ores
åĳĬ è¯ī
Ġcult ural
ve ctor
Ġposs ibility
Ġbuy ing
Ġcre ation
ç§ Ł
Ġstruct ures
Ġarg s
Ġresta urant
Ġhe aring
Ġb are
Ġ$\ {
ag ost
ĠSte p
s ite
am d
Ġo s
Ġdist ributed
Ġu int
ĠH REF
bl ue
Ġpro c
Ġinst it
() :
æİ ª
Ġimpro ved
Ð¸ Ð¼
T ree
os is
Ġbr ings
res a
Ð± Ñĥ
Ġs y
e cho
Ġab andon
Ð¼Ðµ Ð¹
Ġeconom y
Ġc ities
Ġaut hentic
ĠL ETTER
Ġre tain
ĠY ear
re q
Ġst orm
ÑĥÑĢ Ð³
Ġocc urs
bo ol
ERR OR
ess ions
eff ect
ĠPr im
bre r
ĠT R
Ġco verage
åıª èĥ½
ĠTh ursday
Ġenjoy ed
est a
ĠO p
Ġk ne
Ġassist ance
ĠCl ick
Ġs izes
ĠS ud
Ġcharg ed
est at
O ther
æĶ¶ åħ¥
éģ Ĺ
Ġdynam ic
æĥ ¯
Ġhard ly
Ġwhe never
ĠT uesday
Ġtra ined
const ruct
Ġdesp ite
Ġtip us
anes e
Ġsatisf ied
âĤ ¬
Ġp ra
Ġlim its
Ġexp ansion
Ġgu erra
Ġre form
Ġex it
Ġv ast
æľĢ é«ĺ
c ular
yn om
ç³» åĪĹ
ab ril
çĶµ è¯Ŀ
Ġw aves
H i
Ġnorm ally
â ĸ
Ġf ederal
Ġcont ained
Ġl ies
ĠHT ML
å¤ļ çļĦ
Ġph ilos
Mod ule
ç½ĳ åıĭ
Ġfl ash
Ġa cknow
ä¸ª æľĪ
ym met
O ption
H ttp
Ġpl ate
èĪ Ĵ
Ġreason able
ĠB E
ac s
Ġcapt ure
f ica
ÑĨÐ¸ Ð°Ð»
Ġd ip
Ent ry
b es
ar se
Ġprincip le
U sing
ä¼ĺ åĬ¿
ä¿Ŀ éĻ©
ĠÐ» Ðµ
Ġsil ver
ĠMore over
è®¾ å¤ĩ
" ?
ĠAd v
ul o
ob l
t iques
Ġser ial
ĠÐł Ñĥ
Ġtell ing
æİ¥ åıĹ
ĠAt l
Ġspeak er
ĠM ult
D ocument
æķ´ ä¸ª
}} }
V ol
il ly
æŃ£ å¸¸
ĠS and
ç ¦ģ
CO DE
ç ŀ
az ine
Ġdis appe
ĠH ard
c ould
ĠÐ¿Ð¾ Ð»Ñĥ
G S
Ġmount ain
ĠB ob
ri or
ĠÑģ Ð¿Ð¾
ĠÐ ®
ä¸Ģå®ļ è¦ģ
å± ı
T ypes
åıĤ ä¸İ
åı¯ æĺ¯
Ġde ix
G ood
Ð» ÐºÐ¾
Ġjul iol
Ġev ident
ress ion
ĠCent re
å®ŀ æĸ½
OM E
ĠSh ow
Ġclass ic
amp ions
ĠP oint
Ġ{ }
Ġrepresent ed
R ed
Ġindic ates
b ot
st op
p ay
Ġhead er
Ġappro aches
Cont ainer
Ġcompet ition
Ġcontin ues
w orth
ĠM ur
ĠCong ress
Ġpro peres
Ġdet ection
åĮ» çĸĹ
ç¿ »
ĠÐµ Ð´Ð¸Ð½
Ġdesign s
Ġcre am
aw s
R ange
he m
Ġrelig ious
el a
F C
w orld
Ġbreak fast
Ġstand s
H is
Ġlo an
æľīéĻĲ åħ¬åı¸
Ġoccur red
pass word
æĶ¹ åıĺ
ĠUS A
åħ³ éĶ®
ç§ ģ
G REE
S m
N one
equ al
D ATE
t ocol
Ñĩ Ð½Ð°
J son
Ð¾Ð³ÑĢÐ° ÑĦÐ¸Ñı
Ġtr igger
Ste p
æĥ ł
ä¸ĭ çļĦ
æ³ķ å¾ĭ
éļ Ĳ
Ġconf erence
li k
Ġgr id
B r
re ncy
Ġsome where
å¥³ äºº
ĠAmaz on
Ġcho ices
Ġll eng
Ġsn ap
ag ram
Ġcaus a
Ġsh ock
Ġra re
ç¼ ĵ
aut h
Ġob serve
éĺ µ
ĠY et
çļĦ æĥħåĨµ
Ġwe alth
èģĶ ç³»
ĠDirect or
M ark
åĬ¨ åĬĽ
ÑĩÐ° Ð²Ð°
ĠP ub
Ġim per
Ġdec isions
Ñĥ ÑĤ
Ġc ere
Ġdoll ars
return s
Ðµ Ð»Ð¸
Ġestim ated
Ġbe ach
ĠTw itter
ĠC PU
Ġj ournal
Ġre vol
ĠE vent
åºĶ çĶ¨
am ps
og gle
Ġte ach
ĠÑĦ Ð¸
è°ĥ æķ´
p ub
st ore
Ð¿ ÑĬÐ»
ĠL im
éĴ ¢
ĠUn ion
ĠW al
sem ble
Ġs ab
est amp
M ult
Ġyes terday
ĠC irc
L ong
Ġv on
Ġt ou
PO ST
åľ Ĩ
Ġpur s
çļĦ éĹ®é¢ĺ
text rm
Ġ ::
Ġdru g
ask et
call ed
éĵ ¾
æĪĳ åĽ½
çĶµ å½±
class es
sc reen
Ġsk ill
istr ict
ble m
Ġoffic er
b led
Ġbel ief
Ġcap able
S l
ib les
Ġm m
be red
ool s
Ġpost erior
P e
Ġat mosp
Ġpol ar
ep ing
Ġl inux
Ġgreat ly
Ġs port
Ġexper ts
éŁ ©
Ġosc ill
Ġbel ie
å¹ ķ
ĠGu erra
under line
éĶ ħ
Ġmen ys
åħ± åĲĮ
Ġe ating
çĮ ®
am ber
Ġper qu
n ombre
Ġhol iday
Ġsign s
ç¬ ¦
igh ter
ĠW HERE
æĮ ĳ
Ġfund s
Ġt rem
ç»ĵ åĲĪ
ĠVir gin
ĠÐ½Ð° Ð´
ell ar
Ġpos itions
ä»¥ æĿ¥
ound ed
el i
B E
trans form
g reat
ĠS D
Off set
ost a
æĹł è®º
Config uration
GREE K
}} ,
Ġb in
ĠG ar
Ġacon segu
H O
ĠT ake
Ġpe ak
Ġinstr ument
Ġprep are
ĠD ig
èĢĮ æĺ¯
id en
man n
t or
Ġper met
ĠWed nesday
t ons
press ed
ie ce
w a
ent h
æİ Ī
Ġe igen
Ġtr ick
Ġwor st
Q ue
V ID
ĠDem ocr
Ġj u
ĠSM ALL
Ġprov ider
is ely
ĠÑĢÐ° Ð±Ð¾
ĠP age
Ġcont ribution
Ġth orough
å¿ ĺ
() ->
Ġn ine
F ut
o z
ä¼ Ļ
pro to
Ġnecess arily
to ol
V a
Ġdisc ount
Ġoffic ers
ĠP erson
Ġd ialog
py thon
ĠCan ad
rom ise
Ġprofession als
M ed
AC E
Ð± ÐµÑĢ
M ake
n one
am l
Ġw est
aquest a
ĠMan ager
æĸ¹ åĲĳ
r w
ĠCom mit
ĠL ast
æ± ĩ
G ET
ĠGerm any
Ġrem ind
Ġorgan izations
æ¶Īè´¹ èĢħ
at iva
Ġtr ace
Ġfour th
omet ric
ĠF ire
ĠÐ½Ñı ÐºÐ¾
ic ian
ä¹ ĺ
Ðº ÑĢÐ°
Ġjun y
erm an
ĠSer ies
Ġcom plic
ĠCont rol
ĠEduc ation
Ġlay out
å°¤ åħ¶
Ġo t
Ġtr ou
ĠHist ory
æĶ¹ éĿ©
æĹ Ĺ
ĠCap tain
is er
% %
å± ĭ
Ġgr ass
Ġre b
arch ive
ĠF ull
çĥ §
ĠSe cond
st iques
Ġdo ors
æ» ĳ
éĻ Ĩ
Ñĥ Ð½
èĥ ĥ
ĠD uring
Ġcomm unities
ĠÐ¡ Ð°
j pg
Ġs oci
rim oni
s end
Ġbl ank
Ġpl ays
Ġret ail
are st
an ish
S w
er red
éº »
en es
Ġpartic les
ok ing
M ENT
hel p
\ '
on der
ĠÐĶ Ð¸
ge u
å¹¸ ç¦ı
ĠF ind
L P
St at
éĿ¢ å¯¹
å®¶ éķ¿
Ġshop ping
Ġfe brer
ant ly
ĠÐ¼ Ð½Ð¾Ð³Ð¾
ĠT our
H ave
are r
Pro ject
Ġdifficult y
=" -
Ġmatch ing
Ġcr is
ident ial
Ġtest ed
met res
ition ally
Ġcl othes
subset eq
ĠSoft ware
ç¾¤ ä¼Ĺ
w all
Ġexec ution
text tt
act iv
Ġsh arp
Ent ity
Ġmeasure ments
ĠD B
art ifact
h ard
cl oud
Ġre put
ĠÐ² ÐµÐº
Ġcalcul ate
å¯ »
Ġenh ance
co in
ä¿Ŀ éļľ
èī² çļĦ
Ġfl ight
è± ª
Ġconven ient
Ġchem ical
t ask
are t
Ġg ap
S u
ĠW all
Ġgu est
éĢ Ķ
a way
Ġc m
Ġ ig
Ġh all
Ġ ^
CH APTER
de g
Âł km
et o
ĠĠĠĠĠĠĠĠĠĠĠĠĠĠĠĠĠĠĠĠĠĠĠĠĠĠĠĠĠĠĠĠ ĠĠĠĠĠĠĠ
Ġclos ely
I llustr
() {
Ġt rib
Ġlight s
Bu ild
U ID
Ġutil itz
riv ial
å· Ŀ
est ed
Ġdis abled
Ġinter val
M orts
Ñģ ÐµÐ½
Ġsust ain
C ore
é©¾ é©¶
ĠÐŁ Ðµ
ä¸į çŁ¥éģĵ
ct r
Ġbel ieved
se arc
err ing
Ġre ward
Ġmil k
Ġexplan ation
Ġdriv en
c ript
Ġmain tenance
ok ed
set tings
S ign
Ġw arning
Ġ _{
AP I
mult i
Ġke eps
å¯ Ĵ
ĠH or
Ð²Ð¾ ÑĢ
Ġaccom mod
i em
å°ı ç¼ĸ
Ð² Ð½Ð¾
ĠS ign
Ġe ase
F L
d m
Ġgr ant
ar l
mod ules
Ġgr at
Ġmass ive
================ ================
< \
ĠM S
ĠReturn s
Ġs orry
empres es
Ġh orses
ĠInst all
Ġmod ified
ĠHam ilton
p atch
Ġfocus ed
unt ing
Ġsign als
j oin
Ð² Ð½Ð¸
åıĬ æĹ¶
Ñģ Ð¸Ñı
Ð· Ð¸Ñı
M any
Ðł Ð¾
Ġbro ke
éĿ¢ çļĦ
Ġinv ent
ĠS che
ĠB on
-------------------------------- --------------------------------
n eg
ĠD ie
Ġdepart ment
ĠJ SON
ill ing
Ġdog s
e very
ĠP S
Ġ( _
Ġdeterm in
è® ¨
Ġt engo
Ġinterest s
Ġs ail
æ³ ¡
s os
Ġarchitect ure
Ðµ Ð¼
h om
ÑĩÐ¸ Ð½Ð°
ut a
Ġreal ize
åħ· ä½ĵ
Ġmin imal
ĠG i
ink ing
Ġindust rial
Ġvalu able
ĠH i
æ· ·
å»º ç«ĭ
mod els
H ost
Ġcont ents
W ho
å¼ Ł
ĠÐ³ ÑĢÑĥ
ä¼ļ è®®
Ġres id
ĉ for
Ġbut ter
Ġneighbor hood
Ġconstraint s
å®Ŀ å®Ŀ
çĶŁ çļĦ
Ġsuggest s
æ´ ĭ
t oken
rodu ction
æ· ¡
Ġr ig
pl ugin
; "
ĠA ccess
ex port
Ġdis pl
Ġev il
ĠF amily
G O
P N
ac on
ĠCorpor ation
F ont
Ġ Ñ
Ġpob le
Ð ¥
Ġassum ed
ib ilities
? '
æ³ķ éĻ¢
Ġh ook
ç»ı éªĮ
ist an
Ð½ ÑģÐºÐ¸
on el
) |
He ight
ç§ ĺ
ĠS aint
ĠM ethod
æ´ ģ
ver b
Ġra w
ĠCom mission
Ġexec ute
au x
d ocs
Ġcon vent
Ġnatur ally
Ġimprove ment
éĺ¶ æ®µ
éķ ľ
D P
Ġd ades
ell es
Ġrec ipe
tot al
ĠMart in
Ġdi et
or al
Ð»Ð¸ ÑĤÐ¸
we et
ag u
foot note
è¿ĩç¨ĭ ä¸Ń
ĠD at
}^{ -
ud i
B R
Ġal bum
uc ion
Ð³ Ð¸Ñı
Ġta ught
æĿ¥ èĩª
Ġcomm itted
} "
ens ed
ĠE arth
Ġsong s
å¥¹ çļĦ
C ap
Ġfem ale
ĠWh ich
Ñħ Ð¸
M ost
èĥ ¡
Ġshe et
qu et
Ġdim ensions
å¦Ĥ ä»Ĭ
Ġrec over
ĠTe am
T A
Ġhe aven
Ġh ung
Ġinst ances
Ġl icense
åĬł å¼º
Ġg ro
æī ©
Ġar rest
ĠCh icago
Ġwhe el
pl an
ĠF ield
ä¸° å¯Į
Ð²Ðµ ÑĤÐµ
The ta
Ġple ased
Ġ' /
Ġfac ilities
ploy ment
ĉ },
On ly
ent ity
ĠÐ¿ÑĢÐ¾ Ð¸Ð·
Ġread ers
ĠAn other
èĤ Į
id get
ĠC reat
Dev ice
åĪĨ åĪ«
Ġman ifest
Ġsim ulation
ĠSec ret
ĉĉĉĉ ĉĉĉ
åŃ ķ
Ġrefer red
Ap plication
åĬ ±
is a
Ġstat ist
ick ed
or ro
Ġmeasure ment
l g
Ġcomp ute
em per
Ġel l
Ġact s
igu a
Ġh tml
éĽ ħ
Ġb g
Ġax is
Ġeffect ively
Ġde bt
Pos ition
Ġvol unte
ĠC at
ĠN ov
è® ¢
é¦ĸ åħĪ
P RE
Ġclos er
ĠSE LECT
Ġext end
c opy
Ġl it
æİ¨ è¿Ľ
åŃ Ļ
Ġde pos
ang o
Ġthe orem
Th us
line width
Ġhas h
set minus
cl ip
ĠIn it
Ġrelationship s
Ġfe els
æķħ äºĭ
é¾ Ħ
Ġcu ando
ĠG R
Set tings
f old
Ġpolic ies
Ġx ml
M enu
Ġregist ered
æī ¶
Ġb old
Ġband a
ER S
T ra
ĠP ay
Ġgrow n
Ġcrow d
åı¦ å¤ĸ
æĩ Ĥ
Ġdel ivered
G IS
Ġt rop
Ġp oc
æķ ¢
T im
ĠF und
Ġm ole
Ġinter f
N um
align ed
A Y
angu ages
Ġacc eler
Ġpat terns
Ġclean ing
ok es
Ġconcern s
ast s
ĠF it
å¼ ĥ
ĠD ist
Ð»Ð¾ Ð¶Ðµ
Head er
res ol
ĠDevelop ment
g age
Ġstrateg ies
Ġ: )
A nt
Ġab und
b its
Ġi P
ir al
æĿ ¯
sh all
Ġn omen
Util s
ĠT ABLE
Ġalg uns
Ser ial
ag ain
Ġt error
Ġrad ius
å°± åı¯ä»¥
å¾Īå¤ļ äºº
orith ms
B N
Ð»Ð° ÑĤÐ°
C ustom
Ġpre ced
Ġple asant
Ġload ed
L o
é½ Ĳ
Ġveh icles
ost on
ĠF red
t ar
{ $
çĶµ è§Ĩ
p u
wid get
Ġdanger ous
Ġaspect s
Ġest ava
Ġent ries
Ġre boot
æľ «
ĠJ ournal
åģļ å¥½
Ġpartic le
çĮ ª
Ġgr ace
Ġfil ename
n ome
ä½į ç½®
Ġwire less
Ġdec ay
Ġassum ption
H as
Ġclass ical
ush ing
P H
Ġest o
O UT
m al
N OT
Ã ī
Ġsp ending
ish ment
ĠAc adem
P M
Ar t
æķĻ å¸Ī
Ġteac hers
Em pty
cl ock
ad min
the less
Ġch annels
åĲĮ æł·
ro ke
çĶ³ è¯·
am os
Ġre nder
Ġben ch
Ð´ Ð½Ð¸
ĠÐ¸Ð· Ð¿Ð¾Ð»
Un it
Ġvisit ors
def inition
Call back
Ġw arn
Ġsh r
i ate
rit ing
ul er
Ġstru ck
Ġbl ind
Ġim ped
è½¦ è¾Ĩ
styles heet
è¯ ļ
ĠMed ia
Ġrend a
Ġresol ve
ug ment
åĲİ æĿ¥
ĠÐ¼ Ð°Ð¹
a ver
Ġ\ ;
de lete
Ġap ro
com es
åĢ į
lo op
St ore
ire ction
ĠC op
ÑģÑĤÐ¾ ÑĢÐ¸Ñı
æ¯ «
Ġrest ore
sh ort
Ġprop ag
Ġarr ang
in ternal
rop y
Ġaw esome
Ġs ending
ere nc
æĮ Ĥ
Ġcare ful
Ġjud g
IC E
Ġquant ity
Ġch ip
Ġredu ction
Ġpract ices
éĤ£ ä¸ª
ĠN umber
P ref
ĠÐł Ð¾
ĠC amb
ĠB ern
IN S
ĉ Ġ
Ġper mission
Ġlist s
ĠPr ice
Ġbring ing
Ġup load
o est
ĠS af
Ġpoint ed
Ġwonder ing
W S
ific ar
ple ments
Ġinj ury
A v
Ġgood s
Ġbig ger
l ie
ĠInst ead
Ð» Ð½Ð°
èħ ¿
Ġmod es
Ġhead s
Ġcompre hens
" ))
Illustr ation
c ases
Ġtechn ique
æ± ¤
Ġdest ination
Ð± ÑĥÑĢÐ³
ĠL INE
> .
f ire
Ġf o
ĠM as
Ġj son
ĠN ext
æĥ³ è¦ģ
åĭ ĩ
Ġestab l
åİĭ åĬĽ
å¤ļ å°ĳ
Ġag ents
v ironment
J ohn
Ġbr ill
Ġp airs
ÑīÐ° ÑĤÐ°
il st
Ġun defined
P ORT
list a
Ġmat ches
e en
Ġdynam ics
ĠQue en
Ġover ride
res ource
oph y
z ero
Ġsub set
ag ers
Ġappreci ate
Ġthe ore
\ $
Ġ$ |
ÑĢÐ¸ Ð¾
Ġrece iving
p id
Ġcas a
ĠRoy al
k et
ĉ /**
Ġsitu at
Ġf raction
m ag
Ġsubst ant
ĠX X
ock er
Ġver tex
ins ert
çİ° ä»£
Ġsurpr ised
st able
Ref erence
um ps
Ġpow ers
Ġach ieved
Ġhapp ening
web kit
Ġcharg es
Ġej emplo
ĠP RO
f ocus
Ġgener ic
lo v
sk i
ĠL ine
æķ´ ä½ĵ
åĶ Ĳ
Ġphen omen
è¿ ª
ç»ĵ æŀĦ
at rix
M ac
l ers
ç¨³ å®ļ
Ġl ips
Ġsens or
Ġjust ice
he mat
Ġs ed
ip p
i h
Ġg auge
Ġcr im
æĸĩ ç«ł
ĠPro cess
Ġcandid ate
A mer
ĠC ab
l an
Ġgr ans
Ġpol ynom
Â ²
Ġsearch ing
ĠV en
cont roller
Ġn arr
ÑĨÐ¸ Ð¾Ð½Ð°
Ġth reshold
çĸ¾ çĹħ
S um
Ġdon a
Ġmach ines
ur i
ber ry
Ġr is
Ġrecogn ized
Ġconstant ly
boot strap
Ġsur g
") );
Ġ urb
Ġsil ence
Ġlink ed
Ġd ance
ĠC ath
Ġarrib ar
F inally
Ġv ul
ch arge
Ġs elling
åĩı å°ĳ
. *
çļĦ é«ĺ
Ñģ Ð»Ð°
éķ¿ æľŁ
per i
Ġs ys
Ġwhere as
ĠTh ose
æľĢ å¤§
C le
Ġme al
é ŀ
å®£ ä¼ł
ĠG all
el le
ĠRe port
point s
Ġpart ial
Ġn oun
Ġprofess or
Ġh ang
æĪĲ ç»©
col l
ĠÐĿ Ð¸
Ġdocument ation
Ġus ar
éĺ ħ
Ġsup erv
E C
g ent
st ica
ĠVal ue
are a
Ġcrit ic
Ġ} )
Ġas ide
ĠM ir
çĶŁ æĢģ
ĠÐ¾Ð± ÑīÐ¸
äºĴ èģĶç½ĳ
ere r
N T
Ġbeg ins
urop a
ĠDes pr
Ġform ation
ĠCom put
cal e
ĠC ore
Se ction
Ġp p
artifact Id
arc a
Ġpl astic
ĠSec urity
Ġre searc
v in
` ,
Ġst rip
Ġcast ell
ĠS y
Ġco ach
ĠSup port
Com ple
Ġscen ario
b order
äºİ æĺ¯
Ġres idents
Ġf ool
it an
Ġk id
="../../../../ ../
äºĭ æĥħ
Acc ording
ok er
d ated
.. ."
T wo
ä» ª
il ib
ult ure
åĿ Ģ
çĽ Ł
g it
ĠF OR
h ash
_{ (
w est
with out
Ġgr am
ner gy
çļĦ å¿ĥ
< <
è§Ħ æ¨¡
Ġjud ge
ĠF estival
ÑĤÐµ ÑĢ
éģ į
Ġc ot
us her
Ġord inary
Ġman ually
ĠF inally
d x
form ance
ron ic
ocol ate
ĠDev ice
Ġcateg ories
èĢĥ èĻĳ
äºĭ ä¸ļ
Ġatt ributes
ÑģÑĤÐ° Ð²
ĠG ame
ĠMuse um
Ġlik ed
Q U
Ø §
ert y
ĠV AL
Ġinst ruction
Ġh ay
ĠC ur
ĠJ un
E sp
se q
ÑĢÐ° Ð´Ð¸
ut en
Ġup grad
hor a
ĠE ll
éĩı çļĦ
ĠE r
æł¸ å¿ĥ
ĠT re
Ġri u
Ġad min
Ġreli able
Ġ[ '
ograph ic
F igure
im ately
ĠÑĥ Ñģ
Ġinter rupt
å¿ Ļ
Ġfun c
Ġexperiment al
R R
M ain
Ġst uck
Ġbound ed
Ġfoot ball
Ġsatisf y
Ġc osa
ĠĠĠĠĠĠĠĠĠĠĠĠĠĠĠĠ ĠĠĠĠĠĠĠĠĠĠĠĠĠ
æī§ è¡Į
è¶ ĭ
ĠAr ts
Ġf ra
ĠM ot
* {
ĠÑĦ Ð¸Ð»
æī ¬
Ġ" \
E rr
ĠSc ot
Ġpar se
å® Ĺ
ĠW i
Ġdisplay ed
ĠB ud
å¼ķ èµ·
ĠB ase
co hol
Ð´Ð° ÑĤÐ°
ĠSp anish
st al
c b
æħ §
D eb
cur s
Ġm ask
ĠÐŀ ÑĤ
éļ Ķ
L oc
Ġ* )
ä¼ °
Ġpriv ile
Le ft
ĠD ownload
Ġconsider ation
com ponent
Å ¯
å° ¿
F oot
sub figure
Ġprot ocol
Ġsac r
Ġme at
re place
ĠÐ¡ ÑĬ
d em
Ġm and
ä¸Ģä¸ª äºº
Ġcompat ible
_ +
ys ical
Ð½Ð¾ÑģÑĤ ÑĤÐ°
åħ¨ éĥ¨
N on
ÑĦ Ð¾ÑĢ
th read
Ġmain ly
ĠB efore
d agger
ä¹ł æĥ¯
Ġemploy ed
Ġcl ause
Ġg re
ĠMay be
Ġany way
Ġso le
ual ity
ĠP ac
ç¼ ©
æīĵ éĢł
qu itect
Ġexc iting
æĽ´ æĺ¯
Ġrespons ibility
ĠSpec ial
be ing
Ġ ðŁ
Ġmechan ism
Ġv ib
ON E
ĠComm unity
g reen
Ġa plic
éĥ½ ä¸į
Ð¼ÐµÑĢÐ¸ ÐºÐ°Ð½
Ġsecond ary
Ġdis h
E CT
ag en
U D
Ġsw im
Ð½Ð¸Ñı ÑĤÐ°
end a
Ġha ver
( *
ut ch
Ġapproxim ation
Ġa st
åıĸ å¾Ĺ
Ġsen ior
Ġconfig ur
Ġo h
ĠM ath
ä¿Ŀ è¯ģ
par ameter
çĶµ åŃĲ
ĠCommit tee
ac count
ÑĤÐ¸ ÑĤÐµ
Ġpick ed
æĳ ©
ac ci
Ġh urt
ĠPh ot
Ġimmedi ate
èĮĥ åĽ´
çĭ Ĺ
Ġapply ing
ĠÐ¸ Ð¼Ðµ
ĠAl g
s it
R C
Ġpers pective
Ġapparent ly
Ġbuild ings
æ± ł
Ġb tn
l ate
ĠP DF
ri um
el ing
ms g
Ġcitiz ens
ĠV ersion
æ¶Ī æģ¯
dis c
æĪĲ æľ¬
^{ -\
f amily
Ġd rew
Ġfunction al
O U
æ± ¡
Sh ow
Ġguarant ee
Ġrequest s
ĠTr ump
Ġp sych
el ly
HT ML
èĦ ı
Or der
Ġ( $\
æľī äºĨ
Ġh ide
fo o
æĤ ī
Ġrelig ion
Ġplan et
Ġcommon ly
ri u
Pro perties
group Id
er ning
Ġsent ences
ĠO K
opl us
ĠZ e
gl obal
Ġconstru cci
Ġe ast
Ġcomp r
sec ut
ç¼ ĺ
ĠA ix
éĢĤ åĲĪ
Ġparticip ants
Ġby te
Ġal ert
Ġext reme
ĠN acional
èµ ¶
k now
ro g
Ġfeel ings
Ġch at
Ġte eth
çĶ· äºº
Ġt ub
è´Ń ä¹°
Ġtem p
ÑĤ Ð½Ð¸
Ġf aces
Ġp up
Ġ" $
Ġw rap
Ġin fr
ĠF re
av el
w ait
ĠH aw
Ġmor al
Ġp ag
æ½ ®
æĻ® éĢļ
d ia
Ġfant astic
Ġdecl ared
Ġpl ugin
Ġsee king
ip ping
ct x
Ġdis able
ĠW ay
d k
Ġmark ets
z ed
Ġc ro
åĲ ´
ang ers
è¡Į åĬ¨
Ġm use
Ġprincip als
Ġtrans formation
ust ed
he rent
Ġse ctions
lim its
Ġcollect ed
é£Ł çī©
cre en
ĠÐ±ÑĬÐ»Ð³Ð°ÑĢ ÑģÐºÐ¸
' ],
ruct ure
ĠL in
Ġv o
er als
ĠÐ¢ Ðµ
l arge
Ġde ck
ĠR ome
att ice
Ñģ Ñı
result s
Ġscient ific
u ir
ĠHe ad
æ¥ ļ
child ren
et ic
net work
Ġpres ents
Ġsym pt
æĢĿ æĥ³
ä»¥ ä¸ĭ
inte rest
\ }
ĠÑģ Ð»Ñĥ
è§Ĩ é¢ĳ
}} _{
Ġdon ar
S ession
Ġequ ally
ĠX V
ĠÑģÐµ Ð»Ð¾
Ġed ition
ing ers
Ġz ona
e ach
om ent
ĠW ITH
Ġhundred s
W indows
og a
åĬł åħ¥
val u
Ġmoment um
éľ ĩ
id i
Ġsitu ations
Inst all
çª Ĺ
ĠWhe ther
in ity
ynt ax
Ġinsp ired
ĠR od
ÑĤ ÑĬ
atter ing
re nder
H ash
eng er
ĠN ever
Ġno ble
Ġcas ino
Ġpro test
Ġcapac itor
Ġf ib
ĠÐľ Ðµ
Ġc ov
æĽ¾ ç»ı
çļĦ æĸ°
ific i
gr at
av ed
å° Ĭ
ç«ŀ äºī
to String
Ġt abla
ĠVal ley
Ġco inc
E v
u v
b us
ack et
arr ant
Ġme re
é¼ ĵ
y an
Ġcl imate
ĠMin ister
pro file
ĠSoc orro
Par ams
èĤ¯ å®ļ
ig an
ĠL ive
Ġne ces
Ġm ale
åģ ¿
Ġo l
Ġp it
æķĻ åŃ¦
hand le
Ġwebs ites
ĠÐ³ Ð»Ð°
åº Ħ
Ġ ),
ir s
Ġevalu ation
ici ents
Ġreal ized
id enc
ĠLINE AR
Ġt iny
Ġob res
a o
N G
ĠFrancis co
ĠG B
èµ µ
ĠÑģÑĤÐ° Ð²Ð°
Ġfac ility
æľ Ĺ
Ġdis appoint
ĠF ather
Ġmod ules
rc it
Ġhum ans
auss ian
Ġd re
Ġcomp ens
Ñĩ ÐºÐ¸
t ion
to ols
Se cond
Ġun ion
o is
p ur
ĠÐ¿ ÑĬÑĤ
Ġobserv ation
es ter
Ġserv ing
Ġm unt
Ð³Ð° Ð½Ð¸
Ġcreat es
t i
erv ation
p oca
dis abled
åĶ ±
S k
Ġeng aged
Ex pression
K ind
H S
ĠJe an
Ġintegr al
D IR
Ġ$ [
Ġwin ning
Ġconsider able
z ing
Ġb os
t ip
Ġbu ck
P ress
Ġart ists
print ln
h over
e lect
re a
åĤ ¨
Ġz one
ä¸į éĶĻ
ne cess
ĠL ee
Ġcou pling
ĠD isc
æ¼ «
Ġse ed
Ð¹ ÐºÐ¸
Ġf uel
ĠJap an
b ug
äº ¡
åĲĮ åŃ¦
Ġ Äį
Ġr ising
± ä¹Ĳ
ter a
Ġsup plies
Ġcal m
Ġre produ
ĠT imes
Ġcon scious
S i
Ġcour ses
åĮº åŁŁ
ĉ /*
ĠUn it
? :
ĠT own
Ġd ining
Ġut ter
or ne
Ġpay ing
Ġj ump
Ġinput s
Ġag ency
Ġseg le
åħĪ çĶŁ
he art
in v
Ġl oud
T itle
Ġyour s
ord ers
Ġl unch
èģĮ ä¸ļ
ag ment
ĠS on
ĠW estern
ish op
Ġlist ening
ç¨ĭ åº¦
Ġimplement ed
ste in
ä¸Ń å¤®
_ *
å° ¾
. ;
=" /
ic ular
Ġprefer red
anc er
Ġbehav iour
ä¸Ĭ å¸Ĥ
è¿Ļ æ¬¡
Ġt an
Ġqu eries
sp ring
åĬ³ åĬ¨
ap plication
Ġsymmet ry
ĠÐ¿ Ð°ÑĢ
ĠÐ¾ ÐºÐ¾Ð»Ð¾
Ġingred ients
up on
Ã Ģ
Ġfund amental
Ġarch ivo
Ġf ails
ĠR un
Ġav ail
Ġinc ident
Ġre ject
Ġd ens
çĻ Į
Ġafter wards
Ġco vers
Ġprin ciples
Ġh ate
Ġcon clusion
at i
æĬ ±
ĠPrem i
Ġcorrespond s
åĶ ¯
Ġpar ams
Ġm oon
Ġten en
Ġcol le
åŃ¦ éĻ¢
Do es
å¹ ¼
m ia
ĠB it
ĠE p
Ġbird s
Ġrecord ed
ĠBe ach
Ġb odies
pan el
ĠJose ph
f all
Col lection
Ġt ast
ĠD O
z o
gy pt
D ownload
Ð´ ÑĬÐ»
ĠR os
ĠÐĲ Ð½
Ġcon ve
ce ive
Ġestim ates
ĠF ood
ĠAr c
Ġmin i
Ġass igned
F R
è¡ ¡
çĲĨ è§£
ĠL ink
ĠSh ould
A h
), \
B i
é» ĺ
ĠĠĠĠĠĠĠĠĠĠĠĠĠĠĠĠ ĠĠĠĠĠĠĠĠĠĠĠĠ
F E
ĠH im
ex ist
Ġprogram a
æĸ¹ æ¡Ī
Ġmax im
des ktop
F ound
å· §
ĠL ittle
her it
j i
ism o
Ġwat ched
æ¡ £
Ġ\ (
Ġstat ements
Ġsuggest ions
rou s
ĠW omen
or ney
æŃ£ å¼ı
l abor
Ġse le
mys ql
Ð± ÑĢÐ°
ject ive
Ġem ission
' \
ĠC ond
Ġadd s
enc ing
import ant
Ġv ot
qu is
ĠÐ¡ Ð¸
Ġc ual
è· ³
og rap
com ment
èĦ Ĥ
Ġ| \
Ġleaders hip
Ġc inc
t ake
Ġt ears
Act ivity
çļĦ æĹ¶éĹ´
Im pl
Ġshould n
å© Ĩ
Ex ec
ĠRes ult
Oper ation
Ġver ify
Ġs ync
Ġp ill
Ġcar acter
Ġex emple
Ġ outer
Ġleg s
Ñĥ Ð²Ð°
ĠTechn ology
Ġext ensive
Ð¶ ÐµÐ½
ĠD id
Ġpath s
Ġinter act
ĠD istrict
æĪ ª
Ġmiss ed
ĠÐ²Ð¾Ð¹ Ð½Ð°
ĠC la
Ð¹ Ð½
FI LE
Ġfin est
ĠLib rary
Ġsus pect
Ġ$ $
Ġdetect ed
v als
ĠÐ¡Ð¾ ÑĦÐ¸Ñı
ĠÐ¼Ð¾ Ð¶Ðµ
ĠM arc
Ġter rible
çĽ® çļĦ
anc he
f lu
Arg ument
åĽ¢ éĺŁ
Ġconsequ ence
Ð² ÑĢÐ¾
Ġmost ra
ĠÐ¡ Ð»ÐµÐ´
arch ar
ra ined
Ġn iv
ĠÑĥ Ð½Ð¸
ĠE U
Ġorig inally
) "
D ialog
ĠP ot
ĠIm age
Ġrepe at
Ġbas ically
Int eger
ĠGe org
Ġtrans ist
% .
Ġgraph ics
æģ ©
g res
æĬ ¢
Ġob ra
ĠAnt on
Ð° Ð»Ð¸
Ġrapid ly
Ġab stract
å¯¹ æĸ¹
ĠD om
ĠÂ ¿
ow ed
ĠS em
form s
=" "
As ync
at hered
æİ¨ åĬ¨
li ament
å² Ĺ
ĠEx ception
Ġarbit rary
Ð¿Ð¸ Ñģ
le ments
v ideo
Ġno va
ĠL ocal
Ġbre ast
ut ter
Ġbed room
Ð± Ð¾ÑĢ
mp ics
b ury
åķĨ ä¸ļ
Ġh ill
Ve geu
Ġw et
Al though
F ind
Ġcr ime
Ġnumer ical
ĠP ython
ĠR ight
ref ox
Ġdirect ed
br ace
D el
A ng
ĠM B
Ġobject ive
Ġdire ctions
IV E
å®ĥ çļĦ
er ry
ag r
Ġmol ts
rib ed
Ġent ity
Ġcin ema
Ġaddress es
Ġto d
Ġrem em
Ġstat istics
pro v
Ġdescrib es
Ġd ict
}{ ~
ĠAb out
ĠJ ord
u its
ĠJohn son
Ġbre aking
ier o
ars er
ĠC OM
ĠN ord
lem anya
ĠLe ague
ĠRuss ian
ĠOr gan
ä¼ĺ ç§Ģ
æľĢ è¿ĳ
Ġintegr ated
ĠB O
Ð¼Ð¸ Ð½Ð°
Ġalg orithms
ĠF lo
ĠÐ¼ Ð°ÑĢ
ĠÐĺ Ð·
Ġout door
u ction
Ġcor rupt
inter face
ĠGl obal
d ict
åĢ¼ å¾Ĺ
Ġadministr ation
ä»ĸä»¬ çļĦ
Ġsatisf ies
und ial
S U
ç½ ļ
P P
Ġcol on
ym pt
èĤ Ŀ
Ġelectron ic
ÑĨÐ¸ Ð¾Ð½
~ }{~
åĪ¶ éĢł
çĦ¶ èĢĮ
ĠIt alian
p icture
ĠAg ain
Ġqu ote
Ġpurch ased
ĠM arg
aci ous
åĬĽ éĩı
w edge
Ġtrad ing
on ical
ä¹¦ è®°
ĠN Y
åį« çĶŁ
åĽ¾ çīĩ
ĠI re
ĠF ou
ĠM ajor
D id
field s
Ġbr anc
Ġpres c
Ġdel icious
Ġsuff er
ort ed
b ad
Ġch ose
Ġfund ing
è ª
Ð»Ð¾ Ð²
s ince
Ġin equ
Ġcur ious
ty pes
Read er
Ġcaus ing
Ġadv oc
gr id
Ġsub mit
ÑĦ Ðµ
ch ain
Ġsh oes
çĤ Ĵ
Ġcoordin ates
ĠL ead
as er
ĠC opy
ä¿ĥ è¿Ľ
Ġhistor ical
Al t
rip ci
ĠF ar
ĠĠĠĠĠĠĠĠĠĠĠĠĠĠĠĠ ĠĠĠĠĠĠĠĠĠĠ
E ven
ĠL ie
è£ ģ
æ³ °
L ike
COL OR
Ġunivers al
Ġrob ust
Ġcut ting
ul f
lo om
Ġpass age
Ġcap tain
å¹´ æĿ¥
åĬŀ æ³ķ
Sche ma
æĪĲ éķ¿
h s
! )
ĠM O
Ġsil ent
ig s
Ġsens itive
ÅĻ ÃŃ
big g
= #
frame work
ĠB ad
ĠT oday
ĠJo e
d river
Ġperman ent
est y
Ġas c
Ġin valid
V M
ac her
åĪ ¸
Ġinfin ite
Ġrequest ed
çļĦäºĭ æĥħ
Ġrepl acement
Ġcandid ates
Ġdef ect
ĠB oston
ĠMy SQL
ç¯ ĩ
ĠSe lect
w he
il ation
çĶ ľ
ĠS at
ĠÐĶ Ð¾
æĦı è¯Ĩ
ĠHot el
éĿ¢ ç§¯
å·¥ ä¸ļ
Ġal leg
ç¤¾ åĮº
Par ameters
Ġdest ac
ĠJ ocs
Ġconc erning
ĠI ll
çĦ ¦
åĪ ·
Ġunivers ity
Ġsp atial
åī Ĥ
Ġfut bol
ĠUp date
Ġatt ach
Ġmod ify
æĶ¯ ä»ĺ
P an
ä¼ Ł
D L
ĠI C
è° ·
b orn
Ġmod er
Ġcont ributions
Ġid i
ual ment
Ġbg color
Ġstre ets
Ġa th
Ġmist ake
Ġconduct ed
Ġfr ances
em ed
Ġth rown
Ġfl u
Ġd ump
Ð²ÑĬÑĢ ÑĪ
h ar
Ġinc hes
Ġempres a
Ġattack s
ç¡® å®ļ
Ġprec ise
Ġmor ir
æģ ĭ
n n
oll ary
PE CT
Hand le
Ġsign ature
Ġag es
Ġsim ulations
plug ins
el ve
ĠÐ´Ðµ Ð¹
c am
æ»¡ è¶³
l ar
ĠS n
medi ate
ĠSt ore
Ġest ar
Ġch apter
Ġinform ed
ĠS P
Ġrel ief
çĽ Ĳ
á ĥ
' _
Ġa ra
pl us
ann a
ĠMed ic
Ġann ounce
Ġal ter
ĠS earch
å¥³ æĢ§
Ġenvironment al
Ġcont rolled
Ġdeb ug
Ġspec ify
Ġfe es
ost er
Ġaw ait
Ġsem i
Ġveg ada
æĹ ¦
ĠI O
cl am
Ð¾ ÑĤ
ov ing
ĠN av
d ouble
u ous
ack ing
Ġent hus
ä¸» ä¹ī
åħħ åĪĨ
Ġwh is
Ġsurround ing
D M
Ġre new
Ġk iss
Ġpull ed
Ġmount ed
Ġal ive
ab eth
red it
el come
roll ing
ĠV ill
èħ ¾
CH AR
Ġcom un
ol i
Ġliqu id
é«ĺ çļĦ
ig ate
In s
P arent
look ing
Ã ¢
Ġun us
Ġship ping
dom ain
Ġob t
ĠH y
ä¼ļ æľī
Ġincor rect
. :
l ittle
Ġfight ing
åŁº éĩĳ
_{ {\
let on
ĠO k
ĠYou ng
f ix
Ġlist a
Ġre verse
low er
d ig
Ġi OS
ĠL i
ĠAss ert
ä½ĵ ç³»
itz a
èĤ ł
Ġiss ued
Ġcho osing
p kg
dis k
Ġs aving
pl ot
Ġ riv
br id
tr l
b ecause
Ġv it
Ġso il
ast ructure
Ġsc reens
å¾Ģ å¾Ģ
ov es
Ġde com
Ġdef e
å¥ ĭ
l ad
ane ous
Ġadult s
Ġg az
Ġbur st
è¯´ æĺİ
ĠÑĨ ÐµÐ½
Ġgentle man
è¯ģ æĺİ
iz on
åĪ¶ åº¦
Ð¼ ÑĬ
ĠÐ± ÑĬ
Ġan gl
ĠSpr ing
Post ed
Ġstrong er
ĠInd ex
ĠÐĽ Ð¸
Ġrecogn ize
ĠÐļ Ð¸
Ð»Ð¸ ÑīÐµ
æĢ» æĺ¯
ĠC art
Ġcontrol s
Ġch art
Ġ ÑĤÐ¸
ç¥ ĸ
ĠÐľ Ð¾
ric te
åĪĽ ä¸ļ
ul ating
itud es
éĻį ä½İ
Ġabs ence
Ġh int
reg ular
Ð £
ĠC ross
ial ize
Ġw ww
Ġele ction
Ġtalk ed
Ġinvol ve
Ġc ul
Î ¹
Ġang les
Ġmass es
ĠÂ »
D ir
w l
Ġfind s
CRE ATE
rem ark
ĠG ra
}} (\
æ¹ ¾
Ġim pl
ĠE nc
Ð´Ðµ ÑĤÐ¾
Ġm ob
g re
b ec
åĩł ä¸ª
Ġinter actions
Ex p
Ġsubject s
ig ible
Ġvis ited
ĠC R
######## ########
M iss
ĠPer haps
V ari
æĬ ½
St ack
ob r
éģ¿ åħį
Ġt ired
ĠAut hor
n ed
ain ing
ç»ĵ æĿŁ
é£Ł åĵģ
ĠL atin
ĠH uman
æĪĺ çķ¥
Ġv ig
p aper
Ð³Ð° ÑĤ
Ġmov es
="../../../../ ../../
as a
S M
å½ »
j query
ĠJ ones
Dis play
Ġin act
ĠF air
ax is
Ġsh adow
Ġgr ade
ç»ı åİĨ
äº¤ æµģ
um my
Ġconeg ut
Ġdiv ided
Ġw ise
å¤§ å¤ļ
Ġencour age
equ als
Ġref ers
mon th
Ġessential ly
ĠH on
ĠÑĢÐ°Ð· Ð»Ð¸
ĠSt at
æ£ ®
ĠCon nect
D i
Ġd raft
ä¸Ģ åĪĩ
ĠPr ince
f ather
Ġper m
Ġsupport ing
Ġgo ogle
Rec ord
Ġsp oken
: /
Ġdef end
ĠÐ¿ÑĢÐµ Ð´Ð¸
è§Ħ åĪĴ
Ġcons umer
man ager
éĴĪ å¯¹
F lo
ĠIt aly
åĩ ¡
j or
Ðµ Ð½Ð¸
ÑģÑĤÐ¾ Ñı
ĠÐ¾Ð± Ð»Ð°ÑģÑĤ
å¿« éĢŁ
Ġcorre lation
èĩª åĬ¨
èĪ ¹
Ġs ake
Ġap pend
Ġadopt ed
as m
Ġsold iers
Ġconstruct ed
osp it
Ġsup ort
Ġt ensor
¹ ģ
ug hed
Ġo c
com put
## #
éŁ³ ä¹Ĳ
Ġcomm ission
D om
åĨľ æĿĳ
if er
Ġobvious ly
åĩ ī
d ates
Ġtr ig
E Y
} %
Ġevery where
f n
Ġsp an
EX T
a wn
ĠAmer icans
ĠAquest a
^ -
çļĦ åľ°æĸ¹
Ġacadem ic
Ġsome how
? )
Ġe con
Ġtherm al
om atic
Ġatmosp here
Ġsex ual
pro b
IN D
ow nt
-- >
Ġcomple ment
Result s
Ġprof it
æ¬ ²
Ġfall ing
äºĨ ä¸Ģä¸ª
x ford
Ġinst ruct
Ġle ct
ÑĤ ÑĢÐ¸
enn y
Ġnames pace
t oggle
Ġest an
Ġf inger
Ġref erences
èĭ± éĽĦ
Ġd ates
Ġfore ver
Ġdom estic
pl ier
Ġbath room
ĠF A
Ðµ Ð¼Ð°
Ġa de
T L
å¿ Ĩ
iv ament
Ġc odes
=" _
ĠÐ¾ ÑģÑĤÐ°
Def inition
Ġpued e
ĉ @
ĠPart y
èµ ŀ
Ġcarry ing
Ġnew ly
ç Ĵ
Ġregular ly
Ġconf irmed
` .
Ġreve aled
m ove
Ġb is
åĦ¿ åŃĲ
I con
æ¯ķ ä¸ļ
Ġstrugg le
Ġj ur
c ategory
ĠÐĳ Ð°
Ġto ler
Ġsum mary
Ġmy sql
ĠL E
ĠÑģÐµ Ð¼ÐµÐ¹
i ams
Ġse arc
Ġcheck ing
d one
Ġall oc
Ñı ÑĤÐ°
Ï Ħ
r rec
Ġcorpor ate
Ġnew sp
Ġpresent ation
Ġfol ks
ĠInd ust
Ġst ir
Ġwid ely
ĠB G
m argin
Ġintegr ation
es ides
ĠÑģ ÑĢÐµÐ´
äºº çĶŁ
Ġres on
Ġl ying
s ic
ä¸į å¥½
Ġspect ral
Ġvert ices
at ers
Ġpub lish
Ġappro ved
pt on
ĠAfr ican
Ġread s
bl og
Ġde als
H er
ynam ic
Ġcomplic ated
Hel per
ear ing
Ġassum ing
on er
Ġocc as
ador a
éĩĮ éĿ¢
Ġdepend ent
Ġper missions
Ġben e
ĠI de
å½ĵ åľ°
Ġre ar
s da
ĠW in
Ġinequ ality
Ġlad ies
Ġoptim ization
Ġsl ot
ÑĢÐ° Ðº
Ġtop ics
RE S
æł¹ æľ¬
Ġgalax ies
Ġlo ves
r ices
Ġcomput ed
umn es
E sc
Ġd uration
ä¼ Ĭ
ĠÑ Ŀ
al so
Ġprint ed
s en
Ġact ing
ĠPro position
Ġsim ult
) {\
Ġuns igned
Ġa ugment
op ed
ĠH om
ĠO ption
. ).
ĠC L
ĠB oot
Ġsw it
å¦ ¹
Ġprom ote
p ite
r aries
ĠS us
Ab out
Ġal arm
Ġperform ing
æ² Ł
Ġst ability
ĠG reek
å¡ Ķ
=" @
ä»» åĬ¡
Ġj ew
Ð²Ð¾ Ð´
æĦı ä¹ī
Ġp ocket
ç ¹ģ
Ġco al
ĠN on
åĪ ĳ
text sc
ĠL y
ĠFit xa
Ġtreball ar
D oc
De cl
æĮĩ å¯¼
ĠJO IN
æļ Ĺ
Ġofficial s
æĬ¥ åĳĬ
ĠW H
ÑĤÐ° ÑĤÐ°
åıĳ åĬ¨
or ous
Ġc ord
åĳĺ å·¥
ĠJ eff
ay lor
Ġvisit ing
Ġresol ved
Ġunder lying
st o
Ġi i
Ġown ed
è¯ º
è´ ¦
ĠS av
ä¸Ģ å¹´
am ely
rad ius
æ¯ı ä¸ª
ĠB at
æİª æĸ½
åĩł ä¹İ
Ġb anks
u y
ĠÐĿ Ð¾
Ġn urs
ĠC urrent
og ene
ain e
Ġser vers
ĠOr ig
æľĢ å¥½
S Y
ĠJap anese
Ġse vere
y ard
Ġconnect ing
by te
Ġaccess ible
s ave
ĠR AM
Ġn i
Ġdef ense
ond a
ic io
Ġb le
Ġlow est
L Y
ä¹Ł åı¯ä»¥
Ġn ic
g eneral
Ð¶ ÐºÐ¸
ĠS H
a ul
ĠS ometimes
Ġd ol
Ġl li
connect ed
AR D
Ġus b
Ġyield s
è®¤ è¯Ĩ
æĺİ ç¡®
ĠP ere
å¢ Ļ
ick et
Ġcost at
Ġpare lles
Ġapplic able
ĠÐºÑĢÐ° Ð¹
ĠR og
omorph ism
St orage
æĪĲ ç«ĭ
Ġt ough
ac les
Cl oud
ĠE ND
åľ £
Con nect
å¾® ä¿¡
B ecause
Ġco oper
Ġp ant
s ay
u cl
ĠÐ² ÑĬÑĢ
ĠÑĤ ÑĢÐ¸
Ġevalu ate
as se
èĢ Ĳ
è´ ¸
clos ed
Ġsh ares
ĠInd eed
Ġtra il
ĠÐ¸Ð¼ Ð¿Ðµ
Ġplant a
è®¡ ç®Ĺ
et ies
" '
Net work
p resent
! '
æµ ĵ
Ġp ounds
Ġcur ves
Ġindic ated
T V
ĠCom mand
Ð¿ÑĢÐ° Ð²
F ree
de velop
h al
Ð·Ð¸ ÑĢÐ°
Ġlabel s
mer o
ult y
å¼Ģ æĶ¾
F alse
c ert
å½¢ å¼ı
èĤ º
ĠÐĶ Ð¶
] ]
èĥ İ
ÑĩÐ° ÑģÑĤÐ¸
ĠS C
Ġar ts
am il
ĠÑģÑĬ Ð·Ð´Ð°
Ġp atch
HE CK
pro tect
ĠP A
Ġl anguages
ÑĥÑĤ Ð±Ð¾
for all
Ġdifferent ial
Lay er
åĲ Ľ
bul let
ä¸ĭ éĻį
Ġac id
ĠVirgin ia
Ġdef ens
èĴ Ļ
Ġexc it
éĹ Ń
lect ual
Ġwe aring
Ġs yn
b d
Ġfact ory
ĠÑħ Ð¾
çİ© å®¶
ĠÐĿ Ðµ
G reat
åĪĨ äº«
äºº æīį
Ġclass ification
Ġgu id
on ia
t ri
Ġtrans lation
Ġprior ity
H ol
Ġbul k
Ġcomprehens ive
çĵ ľ
UN T
Î ½
Ġseg ona
b n
Ġrequire ment
Ġbes ide
èĲ¥ åħ»
Ð³Ð° ÑĤÐ¾
cm d
ĠTh rough
sub subsection
å®ŀ åĬĽ
ĠE gypt
get Element
ĠIn n
it ivity
Ñĥ ÑĢÐ°
Ġpr ide
ĠUn a
Ġsol es
Ġconvert ir
èģĶ åĲĪ
Ġspirit ual
éĩįè¦ģ çļĦ
Ġth irty
çĩ ĥ
i endo
ĠB ul
æ´ ¥
ent e
è¾ ħ
èĦ ī
Ġprec isely
Ġpriv acy
ä¸Ģ å¤©
plic ity
st ra
ch ant
ential s
F ull
ĠÐ´ÑĢÑĥ Ð³Ð¸
ĠJ os
Ġoper ate
ĠRuss ia
åĩ Ń
ier arch
p ot
ul ator
Ġmag ic
Ġcomplex ity
Ġb rit
G eneral
Ġlos ing
Ġc ow
å¿ĥ çļĦ
Ġremov ing
èµĦ äº§
Ġengine ering
Ġemerg ency
ç» ª
ĠL ow
Ġm ile
æķ ı
Ġg est
ĠT ele
s at
Ġcar bon
Ġbound s
ĠT urn
Ðº Ð²Ð°
Ġtrans mission
ä¹ ³
åĳ Ī
Ġsub s
Ġsufficient ly
x it
Ġch ap
æ¢ ħ
åĪ Ģ
ess ages
Ġm ock
Ġdis cipl
Ġsure ly
Ġident ical
åĽł ç´ł
Ġdist ributions
æĺ¯ä¸Ģ ç§į
éĢŁ åº¦
Ġt ap
og en
æł· çļĦ
Ġinvest igation
Ġlaun ched
col on
\! \!
ĠR ose
H igh
Ġvict ory
ap os
. ),
Ġ{ };
ro d
è¿ ħ
n umer
Ġcharacter istics
v s
ÐºÐµ Ð´Ð¾
Fe ature
B as
the se
åį³ ä½¿
Ġign ore
ĠB ible
æĶ¿ æ²»
P tr
Ġr ating
æ½ ľ
Ð´ ÑĢÐ¸
Ġdeal ing
ch ing
ĠH ope
èħ °
Ġre venue
Ġp ump
Ġs essions
N C
èį Ĳ
ĠL td
ĠAl t
pe red
ÑĤÐ° Ð½
éĺ »
Ġantic ip
> ();
Ġcalcul ation
( :
Ġyoung er
ĠE sc
Ġpark ing
ĠV irtual
' }
con nection
Ġut ility
ÑĤÐ¾ ÑĢÐ¸
ĠIN TO
èİ «
ĠÐ¶Ð¸ Ð²Ð¾
ä¸į ç®¡
ĠÐł Ðµ
ann y
LO G
ĠB ell
Ġex claimed
ob ra
i pt
ĠÐ´ ÑĬ
èµ ¢
_{ -
Ġswitch ing
clus ions
onym ous
h u
b ash
D I
, $
ĠÐ¿Ð¾ Ð»Ð¸ÑĤÐ¸
ĠS ource
Ġv ice
Ġla ughed
d ays
çĳ ŀ
P al
Ġhapp iness
ĠÐ¢ Ð°
ro gen
ĠMark et
Ġnucle ar
form ed
B ody
ä¸ ¹
Ġmar ks
Ġopt ical
Ñ ĭ
F ROM
éª Ĺ
Ġcon version
æĬ µ
ĠP HP
iz abeth
è¯ ¸
ion e
Ġemploy ee
Ġp ulse
Ð´Ð¾ Ð±
ri ure
Ġhe ll
Ġun to
new command
ĠWe ek
Dat abase
Ġ ÑĢÐ¸
hip s
ater n
Ġc el
D raw
Ġtick ets
ĠSt ill
Or ig
Ch rist
de ven
V ector
åıĳ æĮ¥
if iers
Ġseg on
ed ly
Ġsuff ering
ph ant
Ġam er
ct ic
ĠN ight
Ġy ards
Ġ rib
Ġ> >
Ġfac ing
or able
åĦ¿ ç«¥
Ġd ot
Ġsympt oms
Ġk ick
Ar gs
Ġsol ved
Ġoption al
ĠA h
Ġop ens
r ick
p adding
xi ety
è¿ĺ è¦ģ
ĠB and
Ġdiv ision
Ġp ins
ment e
ä¿ Ĺ
KE Y
Ġreturn ing
Ġprob able
Ġf its
Ġar rive
Ġact or
Ġ$ ('
æ® ĭ
Ġscal ar
Ñĩ Ð¸ÑĤÐµÐ»
ĠF el
item s
Ġex ha
p ci
Ġth ro
ĠR en
ĠÐ ¯
ĠB lu
ä¸» é¢ĺ
sup er
Ġan terior
Ġche ese
P obl
çĽ¸ å¯¹
Ð²ÐµÑĢ ÑģÐ¸ÑĤÐµ
Ġany more
ĠA LL
Ġc ub
Ġcharacter istic
Ġ} \
v irtual
Ġcatal og
ä¸Ģ ä½į
er k
ord inary
arg o
èħ ¹
Ġs ought
ĠS ab
ĠAcc ount
Ġcount y
Ġspeak ers
ç¬¦ åĲĪ
åıĺ å¾Ĺ
Ġsh ower
Ġcre w
Ġc ake
èĨ ľ
T emplate
Ġw allet
ĠÐ½Ð° ÑĩÐ°
ak a
Ġap plies
Ġe ager
ĠAngel es
æĳ Ĩ
ĠAd ministr
Ġim pression
I ter
æī «
Ġde but
Ġappreci ated
ĠÐºÑĬ Ð´ÐµÑĤÐ¾
çģ ¾
Ġcont ribute
Ġbene ath
Val ues
Ġconflic t
ult ural
' ];
Ġtro ops
W idget
T otal
Ġche cks
Ġf ur
Ġre bre
æľĢ å¤§çļĦ
çī¹ èī²
Ġtechn ologies
ĠB a
ch or
Ġun iverse
Ġintrodu ction
Act ive
b ow
, .
Ġcon clude
ĠCont act
Ġindu ced
Ġin line
in ction
Ðĳ Ð¸
Ġp ir
Ġneg ot
' ))
Ġge ometry
Ġprogram ming
åħ¬ å®ī
åºĶ å½ĵ
Ġappe al
çı ł
T ab
Ġcoeff icients
Ġad mit
Ġp ale
Ġtro b
çİ° è±¡
ĠMed ical
ain ts
ĠOb ama
Ġperson a
Ġde leg
on ce
if old
Ġviv int
Ġcru cial
æ¯ķ ç«Ł
åį ·
ĠC i
ĠAr ab
) ?
) }(
åĨį æ¬¡
iff erent
Ġdes ert
id or
________ ________
èĲ½ å®ŀ
Ġprov en
Ġd uplic
Ġm apping
) ^{\
f ly
Ġproced ures
Dele te
Ġmov ies
å°± èĥ½
S ION
Ġap pl
S R
ĠCom ple
å¦Ĥæŀľ ä½ł
ĉ case
ĠC up
éĹ ²
Ġtorn ar
Ġbox es
ĠR ay
åħ¬ éĩĮ
less ly
Ġgr ay
ro se
I LL
arg ument
ĠM ic
og y
U ST
iz z
itz at
Ġf ond
Ð»Ñı Ð²Ð°
ri ent
ul iar
ÑĨÐ° ÑĤÐ°
Ġrot ation
Ġcap abilities
Ġserious ly
å¿ĥ çĲĨ
all oc
åŃĲ çļĦ
ĠF i
è´ Ŀ
ĠDan iel
ĠA D
ĠÐĵ Ðµ
æľī çĿĢ
æĢ ª
Ġform ul
çĽ¸ å½ĵ
ne re
Ġhand ling
ĠÐ·Ð° Ð¿Ð°
ch anged
Ġrestaur ants
Ġpl anned
de cl
is dom
m other
m ust
l ot
cont inu
foot er
åĪĽ éĢł
åĺ ī
Ġ+ \
æŃ¤ å¤ĸ
Ġdriv es
R et
Ġviol ence
ĠM id
Ġshould er
Ġint ention
S pe
Ġcook ing
P ATH
end or
Ġb ias
Ð¾ Ð²Ðµ
Ġst yles
un ct
Ð´Ðµ Ð½Ð°
s ort
ĠK EY
ul ing
è¿ ¹
æĪ ´
flo or
E q
ĠW alk
ĠCons ider
Foot note
ĠV M
èĻ İ
D isc
d id
éĥ½ åľ¨
ĠJ on
Ġtempor ary
m aterial
= >
od ge
Ġse es
Ġpert urb
ä¾Ŀ çĦ¶
Ġc er
ä¸Ĭ äºĨ
ere st
éģĵ è·¯
èģ Ĭ
Ð½Ðµ Ð½Ð¸Ðµ
Ġn od
Ġkn ock
èµ ı
Ġalt re
Ġmateix a
Ġpros pect
å¿« ä¹Ĳ
Ġf ot
n el
Pol icy
Ġrepresent ing
Ġchalleng ing
ĠGu ide
ĠP ed
ĠFurther more
}^ *
fol io
Ġus uario
Ġcalcul ations
iz able
Ġst im
I ES
H ome
Ġelectr ical
ĠC ook
Ġt ong
let ter
) ).
Con f
ĠL TS
um a
ag ues
ĠV ideo
f act
as tern
Ġt um
éģĩ åĪ°
ĠÐĽ Ñĥ
ĠB ow
èĩª èº«
Ġcas o
Ġhop es
J ECT
Ġden otes
Ġorgan ized
D uring
ĠSp irit
çļĦ åıĳå±ķ
ĠI l
Ġpart it
æĬĢ èĥ½
çĪ± æĥħ
W he
u en
a ug
ig e
Ġload ing
Ġstr ings
åı ¬
åŁ¹ åħ»
æĥ³ åĪ°
Ġperson ally
uc ks
iss ions
ĠM ah
Ð´Ð¸ ÑĤÐµ
ä¾ µ
æĻ ĵ
å§ ĵ
ĠIre land
ob serv
m c
aj ax
ed ing
ĠM achine
u um
y y
ĠDef ault
Ġp our
çĥ ¦
é¡ ¿
ir l
as hes
Ġdepend ence
Ġinvol ves
Go ogle
R est
ong o
ir ms
æī £
ä¸įåĲĮ çļĦ
ane ously
Ð¼Ðµ ÑĢ
Ġtot es
è· µ
Ġm s
èģ ĺ
Ġcou nc
Ġpain ting
aj e
Ġch icken
Ġob ten
åıĮ æĸ¹
Ġsh ore
Ġres c
Ġj um
éģ Ń
Ġv ital
ol id
å®ī æİĴ
æ¹ĸ åįĹ
ate ful
Ġco at
Ġmill ions
Ġleg isl
": "
Ġsm oke
æĸ° éĹ»
ĠB ox
P ub
AR N
r ical
os ity
ĠW as
ĠF ederal
Ġadvent ure
è¿ Ķ
Ġg ained
D els
åİ» å¹´
ip her
Ð´Ð° Ð²Ð°
Ġexpress ions
Ġun expected
Ġloc ally
enc ia
æıĲ åĩº
æ³ ½
è¿Ĳ èĲ¥
Ġcover ing
è¾ Ľ
ip age
Ġd read
çľĭ çľĭ
Ġnear by
ç£ ¨
ä¸» ä»»
The refore
Ġheart s
æķ ¬
) ),
Deb ug
Ġmount ains
ĠB all
Ġe ars
Ġlog ical
ĠHar ry
å® ĭ
ĠÐºÐ° ÐºÑĤÐ¾
In valid
k w
ĠÑģ Ð¾
al ous
ĠR a
con tr
__ (
Ġafford able
èĳ £
to o
æı ´
Ġsp ons
Ġg rey
Ð² ÑĢÐµ
up le
th ree
i ro
in ar
Ġw arrant
D own
Ġt iene
sa id
e a
Ġbott le
æģ Ĳ
it ative
Ġang ular
Ġcere mon
Ġm erg
çŃī çŃī
Ġconfigure d
Ġphot ograph
h l
Ġtemper atures
Fut bol
}$ -
ĠS ize
åįĩ çº§
Ġgold en
b an
Ġcont rad
comple te
Ġcorre l
N ULL
Ġf est
B B
J SON
è ¹
ĠÐ½ Ð¸
Ġgr ab
Ġbirth day
ÑģÑĤÐ° Ð½
Ġent ering
n ics
ĠIn vest
Ġfl our
Nav Bar
R oot
t ik
Ġpotential ly
en able
Ġfound ation
Ġle af
ç¡® å®ŀ
æĺ ł
Ġprov iders
Ġcab in
En abled
ĠF a
Ġarriv al
ĠM P
& #
Ġmajor ia
Ġaconsegu ir
qu ia
Ġsh out
èĲ ¨
é² ģ
Ġcrim inal
Ġwat ers
Ġbrill iant
æĿ¥ äºĨ
in at
Ġcon eix
ĠAs ia
m n
p are
ä»¥ åīį
ä¿ Ħ
ä¼ ¦
èµ ļ
ä¸» åĬ¨
Ġtrans actions
Ġcap s
g ame
qu ar
Ġwor ship
Ġhop ing
Ġremark able
Ġhous ing
ĠOr der
Ġregard less
Ġf ru
En ter
N R
Ġpred iction
Ġs el
od b
iss ue
Dem ografia
Ġemploy ment
Ð¸ÑĤÐµ ÑĢÐ°ÑĤ
Ġex posed
ĠK itt
ĠB ed
Ġres erved
Ġas sembly
Ġb asket
od a
F iles
Ġprec ision
æ® Ĭ
æĸĩ æĺİ
Ġap artment
Ġvari ation
ĠT an
Ġex ped
$ $\
x ious
ĠÑĥ ÑĩÐ°ÑģÑĤ
ÑĮ Ð¾ÑĢ
ĠK ore
æĬ¥ éģĵ
æŁ Ķ
Ġadvert ising
Ġag greg
åĲ¸ å¼ķ
Ġb ars
ik ip
% )
Ġtra ject
Ġc rown
Ġle ather
Ġneigh b
Ġbe am
Ġdec ades
Ġf ancy
Ġneut ral
Ġass ets
) _{
getElement ById
Ġgen u
Ġexecut ed
ĠW ould
B us
Ġgu itar
Ġ+ +
c ost
ĠMex ico
ĠA ward
Ġeduc ational
Ġal cohol
å¯ ¸
Ġre action
M T
ĠC ivil
Ġserv es
B I
S ing
Ġtal ent
ict ed
cond ition
P rim
d ers
ĠM u
{ $\
ĠÐº Ð¸
depend ency
per p
ä»İ èĢĮ
å¡ ŀ
ĠF alse
Ġcon crete
Sup port
Ġst y
ç» ķ
ĠÑģ Ð¼
ĠÐľ Ð°ÑĢ
åģļ åĪ°
äº¿ äº¿
Ġreg ional
Ġwh ilst
ÑĢÐ° Ð»
ç¾ Ĭ
Ġfun ny
min ipage
aut iful
Ġexpert ise
Ġmin ister
Ġdis p
çī© è´¨
ĠPl us
ific ial
ar ound
Ġdepart ament
Ġcomb at
Ð²Ðµ ÑģÑĤ
Ġpass ar
çĪ ·
ĠKe ep
ĠAcadem y
Ġconsum ers
Ġap i
Ġc oc
Ġtrack s
Ġhon our
Ġb undle
Ġl attice
Ġinstit utions
Ġsl ave
èı Į
Ġjav ax
âĨ Ĵ
Ġdelet ed
ĉ private
prim ary
Ġpo inter
ĠJ a
pm atrix
Ġs ke
ĠÐĴ Ð°
av our
ä¸į è¶³
èĤ¡ ç¥¨
select ed
f our
Ġd ial
cp p
ĠD ou
ä»¥ ä¸º
M eta
pos ing
Ġuncertain ty
ä¸į äºĨ
t odo
Ġth inks
Ġa y
Ġmult ip
j u
ĉ// /
p red
ĠR est
Ġper d
èĥ½ æºĲ
ĠT ri
ĠCarol ina
è¶ĭ åĬ¿
Ġpro hib
Ġegg s
unicip is
Ġd il
h idden
Ġconf ident
Ġp se
arc ely
Ġade qu
ne x
Ġf ingers
Ġbes ides
M D
ĠÐ² ÐºÐ»Ñİ
Ġcor n
Ġwrit ers
BU G
Ġs s
ĠE conom
Ġdecre ase
çĶ ĺ
W riter
ĠD VD
çı į
Ġatt ended
Ġcr ack
un ta
Ġrad i
Ġcompet itive
s ime
Ġquad r
Futbol istes
anc el
MA X
æİ¨ èįĲ
ic l
Ġin ici
Ġcl ip
Ġsepar ated
åŃ Ķ
Ġc ir
Ġoutput s
g i
Ġposs ession
Ġgr anted
ĠÐ¤ ÑĢÐ°Ð½
åĮ» çĶŁ
æ¨ ª
Ġaddress ed
Ġmagn itude
Ġret ire
Ġaccom pan
Ġper mit
Ġfrag ment
Ġv eter
Ġqu art
Ġmant en
Ġ? >
count ry
ĠP ut
Ġlik es
Ð´Ð¾ Ð²Ðµ
æī¾ åĪ°
am i
Ġprim ers
åĮĸ çļĦ
Ġcur sor
Ġaquest s
not es
ĠÐ² ÑģÐ¸
r in
Ġche st
J ob
ĠSp ain
äº« åıĹ
\ _
Ġcan cel
èĢ Ĺ
sime q
f c
bet ween
Ġfall en
ĠEx per
pec ially
æľ ±
Ġmi xture
Ġb ind
ĠA ction
T erm
ä¹Ł å°±æĺ¯
Ġfunction ality
ikip edia
åĬł ä¸Ĭ
ir y
ĠProfess or
ad i
æĶ¾ åľ¨
Ġfavour ite
ĠDig ital
ĠF riend
ĠTh ree
Ġf asc
åĽ° éļ¾
Ġmitj an
Ġtrans parent
a C
Ġterritor i
Ġwrit es
Ġlight ing
Ġm ic
B L
ĠC ould
ro ph
t emp
ab ling
S end
ut ure
å¾ Ĳ
it led
Ð²Ñı Ð²Ð°
IT E
éĽĨ ä¸Ń
Ġjudg ment
Id ent
å§Ķ åĳĺ
Ġmedic ine
Ġtr im
æĻ ¨
Ġcommit tee
Ġp ipe
ĠH as
Â Ń
Ġtempor ada
ä¼¤ å®³
ĠÐ²Ð¾ ÐµÐ½
Ġfe at
æ² ¿
ut f
ĠM iddle
äºĭ å®ŀ
ĠB ol
å°± åľ¨
ed itor
ÑĤ ÑĢÐµ
Ġb unch
Ġcan vi
ruct ura
Ġdes de
äº ¦
Ġsurg ery
Ġll avors
,\ ,
æ¢ ģ
Ġsatisf action
âĦ ¢
Ġmir ror
ĠE nergy
U ES
Ġch ocolate
æ°¸ è¿ľ
çĸ ¼
Ġenem ies
æģ ¢
ĠK now
m il
ir able
Ġb ike
ad ament
ĠPr int
l ab
Ġneg lect
Ġconsum ption
æĽ ¿
FF FF
åŃ©åŃĲ çļĦ
è°ĥ æŁ¥
Ġcompos ition
Ġla ke
Ġpercent age
èĥ ŀ
Ġt un
Pack age
ä» ĵ
acion es
Ġreput ation
ÑĬÐ»Ð³Ð°ÑĢ ÑģÐºÐ¸
Ġreg istration
ĠÐł Ð°
Ġdepend encies
ÑģÑĤÐµ Ð½
uck y
ath an
Ġdepend ency
ĠK n
J an
bs ite
é«ĺ éĢŁ
Ġg rep
Ġag reg
sche ma
Ġtro bar
ic er
Ġ" <
Ġsett led
Ex ample
anc a
ĠS ta
Ġconf used
Ġrecogn ition
C ond
Ġex clusive
Ġro d
Ġpol l
t k
re ll
æĺ¯ åĽłä¸º
A SE
éĢ Ĵ
ap ing
Ð¿ ÑĤÐµ
Ġgener ator
Ġprodu ces
çº ¹
?? ??
ĠIr ish
Ġappoint ment
Ã £
ĠÐ¿ Ñĥ
v y
m ind
Ġn ue
b est
down load
Ġmonth ly
UT F
Ġguany ar
Ġ ÑĩÐ¸
=" ">
ĠHol y
å¥³ åĦ¿
row se
T ake
Ï ģ
Ġtick et
Ġsh ips
Ġsk ip
Ġend e
ur ar
++ ;
a igua
çĤ ¼
um ing
â Ī
at ar
m aking
Ġsuper f
ĠU P
Ġpro xy
ĉ '
Ð± ÑĢÐ¾
u ate
add r
- +
ĠA z
ĠC ert
ge x
ĠH ig
Ġclin ical
Ġrec urs
Ġprote in
Ġg olf
çĬ¯ ç½ª
Ġcour age
ç¯ ®
å°± è¦ģ
D T
Ġdem ocr
. -
ĠM ike
æĦŁ æĥħ
Ġcoordin ate
èĩª çĶ±
att ribute
Ġw al
å®ĥ ä»¬
ĠÑģ ÑĤÐ¾
l as
il itat
ĠÐ ĸ
Ġlarg ely
Ġdes k
ĠConf erence
çĶ¨ äºİ
$ ).
equ ip
b old
è ļ
éŀ ĭ
ÑĬ Ð¼
ĠTh ough
Ġexplicit ly
Ġconj unt
Ġbr ands
od i
Ġa ux
Ġsa uce
b ell
èĢĥ è¯ķ
ĠÐ¾ÑĢ Ð³Ð°Ð½Ð¸
Ġi p
Ġreg ime
åį³ åı¯
Ġcrit eria
h ire
Ġex tr
l anguage
åĬĽ çļĦ
Ġcris is
bs erv
Ġincred ible
æĲŃ éħį
ĠÑĦ Ð°
Ġacc ord
ĠD ar
ur d
æīĢ è°ĵ
Ġn erv
Ġche er
ĠP O
Ġfif ty
Ġautom atic
idel ines
çĽ¸ æ¯Ķ
z one
Ġe fect
è´¹ çĶ¨
Ġland scape
sh ape
Ġhol es
Ġregard ed
ĠP y
Ġmanufact uring
Ð²Ð¸ Ð½
Met adata
ĠPl ace
Ġcomput ation
ĠE mp
ient o
ud es
Ġstud io
ec a
Ġpre gn
åı¦ ä¸Ģ
she ll
ex ports
Ġveg ades
Par am
t p
ĠF our
Ġtr uck
Ġprem ium
ed a
Ġfl uid
Ġdownload ed
T ool
Ġm ood
X ml
T ube
åľ° åĿĢ
ÑĨ Ð¾
Ġlong itud
tr ack
Ġtherap y
p in
ÐĴ Ð¸
Ġinv ariant
Ġh am
Ġach ie
Ġintellig ence
æĹ¶ æľŁ
Ġsp ir
ch arg
acion als
ex pl
å Ĺ
Ġnot ion
å¹¶ æ²¡æľī
ä¸ī ä¸ª
ä» Ļ
æĻº æħ§
Ð» ÑĬ
log in
ĠCh o
em es
Ġentr ance
å®¶ çļĦ
Ġim ply
æķ Į
Ġenc oding
Ġsum mar
) ^{-
ĠC y
Ġp ep
ĠÐ° Ð»
h our
åŁ¹ è®Ń
ĠCon fig
re rs
orge ous
Ġsus pend
s al
Ġin ch
Ġcon form
Ġinform aci
ĠC ru
Ġsw ap
Î µ
) _
X T
ĠV all
is o
ĠL A
Ġop posed
Ġt erc
us ername
Ġth rew
exec ute
é£İ æł¼
TE ST
up er
çªģ çĦ¶
Ġun f
Ð²Ðµ Ð¶Ð´Ð°
)) )
ĠRo om
I LE
æĦı è§ģ
Ġburn ing
Ġsurpr ising
Ġ" "
Ġsuff ered
Ġb ands
éĥ ĳ
tic le
Ġstri ke
ĠK ar
h alf
Us ers
Ġfac ilit
äºº ä½ĵ
Ġtem ple
pon ential
f d
Class es
Ġpol y
åģ ¶
res pond
æ¯į äº²
ig r
Ð»Ð° Ð½Ð´
A pi
}} ^
Ġn it
ĠÐ¾ÑĤ Ð½Ð¾
Ġre pository
IG HT
play er
Ġinst itution
Ġinvol ving
è·Ŀ ç¦»
is or
By tes
ä½į äºİ
Ġv oc
em an
Ġmon ument
Ġexpect ations
V ar
å¿ į
R ect
ĠWill iams
ĠS her
Ġest oy
Ġh ip
ĠPe ak
Ġhyp othes
ĠEX PECT
æľº åħ³
Ġassess ment
ĠCh ief
å°± åĥı
Ġincl ou
Ġtransl ate
ĠC ase
pro perties
Ġign or
Ġfl ags
ĠCh rome
ĠCh ris
Ġdet all
è¿ŀ ç»Ń
Ġs ql
: --
ĠÑĤÐ¾ Ð·Ð¸
Ġsome body
Ġpro jection
Ġb atch
Ġdru gs
Ġcl ase
è· ¨
Ġmanufacture r
ĠÐ³ÑĢÑĥ Ð¿Ð°
ä¹Ł è®¸
ress ed
A CT
!! !!
l ater
Ġdi am
ctr ine
Ġreport ing
Ġto ta
Ġpart itions
M R
ĠI R
ĠAustral ian
Ġsymmet ric
)\ \
Ġve ure
Ġattempt s
Ġmeet ings
ÐĹ Ð°
rec ord
S ave
Ġn acional
et ary
ĠR h
Ġste am
Ġfall s
G C
ĠÃ Ģ
çķ ħ
Ġt ack
ag g
éĶ ĭ
U buntu
in ue
ĠCol umb
ĠH aving
ĠChild ren
un idenc
æļ Ĥ
dep th
æ³ ī
ind ic
Ġsp ark
x r
- (
ĠC orn
P AR
Ġdis covery
Ġcompos ed
mer ce
Ð°Ð½ Ð´
çļĦ éĩįè¦ģ
ĠĠĠĠĠĠĠĠĠĠĠĠĠĠĠĠĠĠĠĠĠĠĠĠĠĠĠĠĠĠĠĠ ĠĠĠĠĠĠĠĠĠĠĠ
ĠAl f
Lib rary
åĬŀ åħ¬
Ġn g
Ġl ord
Ġann oy
Ġcop ies
ĠM ol
ĠDu ke
ĠCom mon
G od
u z
åı¯ä»¥ è¯´
Ġepis ode
w er
æŃ¤ æ¬¡
Ġover w
ĠAut o
ĠÐ¼ Ð°Ð»
Ġve ctors
å¾ Ħ
Ġhas n
ÑĤÐ¸ Ð½
Ġ' '
ad el
Ġevery body
Ġref used
æĴ ĳ
Ġinst al
Ġs eny
Ġdeep ly
åĨľ ä¸ļ
Ġll am
ĠA ff
ch annel
ĠM C
ĠB or
Ġre ly
im it
Ġtw elve
P erm
ÑħÐ¾ Ð´
Ġbon us
P lay
drop down
Ġmo ist
Ġlo ose
åİ» äºĨ
Ġ$ _
Ġcra zy
è ¦
ĠInd ians
us al
ĠF un
ĠWith out
ĠR ub
P ER
Ġsc ores
B D
ĠAnd rew
é¼ »
Ġo cean
( @
è¡Į æĶ¿
reg ion
Ġdist ricte
Ġh ub
éĻ ª
S ymbol
ç´ «
åĨħ çļĦ
Ġprodu cing
Ġt ender
ig ration
d c
Ġmonitor ing
è¾ ĳ
Ad apter
ig ue
ĠÐµ Ð·Ð¸
; ->
æ¡ ĥ
Ġamount s
or ious
itz ada
Ġg ifts
çļĦ å¥½
Ġinfr astructure
N ET
INS ERT
th ought
ĠBG COLOR
U nder
Ġvers i
nd ia
ĠN atural
A ug
çĮ «
reg ister
us b
Ġro yal
ĠV ery
Ed itor
ÑĬÑĢ ÑĤ
Ġpray er
ist ant
necess ary
Ñģ Ð¿Ð¾
z es
Ġacknow led
ĠR O
m ass
pe ople
ĠSe a
ost ic
æī İ
ĠA li
Ġp y
Ġgrad ient
Ġdemonstr ate
ub ble
ĠÐ·Ð°Ð¿Ð¾ ÑĩÐ²Ð°
æĲ ŀ
Ġfr ustr
m or
åľ° äº§
ĠÐĲ Ð»
ĠÐ· Ð½Ð°
he t
Ġsup plied
Ġinv ited
æģ¢ å¤į
ĠCanad ian
æľī çĤ¹
Ġp iano
l is
å¹² éĥ¨
bo olean
ins on
Ġen ables
ĠP ers
ion at
s omething
æĸ¹ ä¾¿
Acc ount
ab ases
qu ality
Ġa le
ac ent
éħį ç½®
z ip
Ġexecut ive
ç»Ī äºİ
ĠÐ´ ÑĬÐ»
op ic
includ ing
ĠT ot
è§Ĥ çĤ¹
èµĽ åŃ£
F ET
head ers
Ob j
Ġorgan ic
è¿Ļ æ¬¾
Ġr ug
ĠF er
rib uci
Ġacqu aint
Ġpued es
ĠEx ecut
ĠSh ort
uns igned
Ġsubsequ ent
Ġqu ot
ä¹ĭ å¤ĸ
Ġforgot ten
Al umnes
im ation
lim it
Ġhouse hold
åľŁ åľ°
æ·± åħ¥
m ight
Ġw ake
ĠC ome
Cont act
e ctions
Ġp itch
Ġtheore tical
Ġp ens
Ġcon vey
b ird
O ct
Ġcoun sel
Ġan xiety
Ġdro ps
Ġexpos ure
Ġp ic
Wh ich
ĠJer sey
Ġprov es
Ġs oc
ĠPr in
ft en
Ġa ver
Ġa er
} )$.
) }{\
åľ ³
åıĳåĬ¨ æľº
Ġsp ite
P arser
Ġse ctors
Ðµ ÑĤ
Ġhav ien
Ð¿ÑĤÐµ Ð¼Ð²ÑĢÐ¸
ä¸ ģ
fr ica
æ¬¢ è¿İ
Ġt el
ĠÐ½Ð° Ð³ÑĢÐ°
æĻļ ä¸Ĭ
Ġampl itude
ĠL ab
åĪ¶ ä½ľ
ex cept
Ġhand ler
ĠD ub
Ġparticip ate
Ġm arg
id al
ĠN orm
By te
Ġprom ised
B it
Ġre in
ĠH P
ĠCol l
vert ed
ĠÑĦ Ð¾ÑĢ
t an
ĠSh op
ĠD ick
ĠW orks
Ġappoint ed
ĠN othing
Ġdi ode
ĠÐº Ñĥ
ÑĢÐ¾ Ð²
Ġdon de
çģ Ń
ik es
åķĨ åĵģ
æ·± åľ³
im o
Ġflow er
Ġpan els
ĠMon te
ry ing
ä½ĵ èĤ²
Ġst ellar
ĠC ro
Ġalg unes
vious ly
Ġend ing
Ġto morrow
Ġguid ance
Ġsched uled
Ġcomb ine
Ġmat rices
å°¤åħ¶ æĺ¯
èĪ į
Ġcommit ment
H ab
AD D
ĠiP ad
Ġpropos al
Ġph p
Ġpow der
Ġattract ive
Ġrestrict ed
ĠPro te
Ġgr ub
ĠR oma
ĠD un
Ġremov al
Ġtr as
å¨ ±ä¹Ĳ
m ill
ĠJack son
Ġemot ional
ac ial
Ġurb an
if ice
Ġz ones
Ġinsp iration
Ġredu cing
Ġclos ing
æĭ ¼
ĠÑģ Ð¿Ðµ
ĠP ref
Ġg athered
âĢ ĭ
r ons
ĠN a
çŃ ¹
S ER
circ le
ĠSt an
Ġn amely
Ġsl ip
ĠPort ug
Ġcompan ion
com fort
Ġcy cl
im m
and ra
.~ (\
s ed
Person es
ĠC S
ĠD ictionary
Ġflex ible
ĠJ uan
ĠW atch
ĠD urant
lik ely
M edia
Ġh un
Ġmor ph
çªģ çł´
Ġtip o
f ive
èĤ ¾
ĠB oy
k t
ilib rium
ĠÐ¢Ð¾ Ð¹
g ot
Ñı ÑģÑĤÐ¾
up id
Ġexpl o
Ġab use
æ¡Ī ä»¶
Ġout come
Ġy ard
Ġmur der
Ġopin ions
ex ception
èº« ä»½
Ġpec uliar
^{ +
= /
Ġstead y
Ġinn oc
ed at
Ð¸ Ð½
ĠS outhern
Ġinnov ative
Ġfil ms
ä» ģ
[ $
æĿ¥ æºĲ
book s
Ġsc ales
L ock
F in
tik z
å¨ ĺ
ĠG aussian
Ġshoot ing
Ġw ished
g ic
Ġrep et
ĠL oad
Ġb ol
å¤Ħ äºİ
ĠA qu
lem en
Ġfl uct
ĠÐ²Ð¸ ÑģÐ¾
çĿ Ľ
å¥ Ķ
Ġb ell
Ġsaf ely
Ġport s
ĠÑģÑĢÐµ Ñī
çļĦ ä¸Ģä¸ª
F ORM
ç¥ Ŀ
Ġ$ -
Ġp ink
Ġbe er
Ð»Ðµ Ð½Ð¸Ðµ
art icle
Ð¿Ð¸ ÑģÐ°
Ġden ied
Ġs ink
Ġaff airs
Ġauthor ities
Ġno se
U SE
Ġsc ar
OD O
sh ips
ĠÐŁ ÑĢÐ¸
Ġ ÑĢÑĥ
Ġd avant
Ġh ire
Ġ' <
Ð³ ÐµÐ½
ĠI F
ĠH o
ard ens
ĠÐĻ Ð¾
æ´ ŀ
ĠSm all
ĠStand ard
ev ents
ĠV I
Ġpro pose
Ð¿ ÐµÐ½
æĦŁ åıĹ
æ³ ¥
clos ure
ĠCE O
ĠÐ´ Ð²Ð°
æģ Ĵ
ĠÑĥÐ½Ð¸ Ð²ÐµÑĢÑģÐ¸ÑĤÐµ
ÑĤÐ¸ ÑĢÐ°
ç¡® ä¿Ŀ
å¹¶ ä¸įæĺ¯
Ġliter ally
)$ -
ĠL at
Ġdream s
Ġany body
æ» ´
Ch anged
Ġn ations
Q UE
Ġmind s
Ġ= \
Ġmag net
åĲĪ çĲĨ
an qu
in line
ĠDE FAULT
Ã¼ Ã¨
Ġd ictionary
åĭ ¤
w an
R ule
ĠPol icy
S ch
Ġ um
ĠÐº Ð»Ð°
d am
Ġo d
Ġdevelop ers
æĿ °
åľ¨ ä¸Ģèµ·
Ġlo ving
Ġll an
ĠAp plication
åĴ ¨
Ġsatisf ying
éĢĲ æ¸Ĳ
(" #
Ġprepar ation
S ym
Ġpref ix
C re
Ġconver gence
in ated
Ġestat unidenc
Ġb ab
Ġman ip
æ°ĳ æĹı
éĺħ è¯»
çħ§ çīĩ
èħ Ĳ
å° Ŀ
Ġfood s
b c
Ġcontempor ary
Ġover l
ĠÐ¥ Ð°
ĠEx pl
Ġl amp
Ġinterpret ation
ĠF unction
= $
Ġtax es
Ġro ots
il ty
Ġh ath
ĠÑĢÐ°Ð· Ð¿Ð¾
ans as
ic ip
m any
ĠM icro
æĺ¯ ä¸į
ps on
Ġweight s
Ġalt ra
ĠÑĤÑı Ñħ
a fe
Ġphys ics
Ġle ts
ĠÐ±Ðµ Ð·
èª ī
W A
èĢģ äºº
Ġdispl ays
C ho
Ġtem pt
ĠÐļ Ð¾Ð½
Ġang ry
Ġless ons
Ġst ages
ĠE ss
Ġap ple
Str uct
åĺ ´
Ð»Ðµ Ðº
Ġg ear
F IG
ĠBrit ain
ĠO xford
Ġcond em
Pro p
Ġdec ent
T unes
k ernel
: #
çĪ¶ äº²
P ay
or ient
Ġse vent
ĠÑģÐ²Ðµ ÑĤÐ¾
j ob
è´ ¯
Ġlux ury
Ġweap ons
çİ° å®ŀ
çĭ Ĥ
k l
ty m
con figure
Ġdiss eny
re ason
m ma
ĠCath olic
and y
Ġfl avor
Ð²Ðµ ÑĩÐµ
åħį è´¹
Ġwas h
M unicipis
th ur
ç¦» å¼Ģ
Ġfin als
) },
Ġf lying
æ· »
Ġpropi et
ĠCl oud
è¡Į çļĦ
Ġpos ici
Ð´Ð° ÑĢ
m ir
c over
Ġfor um
Ġbatter ies
Ġconc ert
Ġpe ix
er as
l it
Ġv int
ĠÐ´ ÑĬÑĢÐ¶Ð°
Ġej ecut
ĠÐŁ ÑĬÑĢ
Ġrepresent ative
res p
ar on
ss ia
ic ional
Ġsc roll
è®¾ æĸ½
ĠH ad
èµ Ķ
Ġinit ially
Ġad mitted
Ġfore n
æĺ ¨
ry ption
Ġmil itar
I gn
Ġrout ine
ĠN ature
Ġ Â·
Ġqual ified
Ġt ort
$ ^{-
Ġatt itude
ä¸Ĭ æ¶¨
requ ired
Ġb id
Ġput s
å® ĩ
çħ ®
ĠD rive
Time out
åĴ¨ è¯¢
Ġc ute
ĠW ild
Ġworth y
å±ħ æ°ĳ
Ġpay ments
åĬ ²
ĠT E
Ġpen al
Ġconsequ ences
èµĦ æľ¬
spec ific
ÑĤÐµ Ð»Ð¸
ÑĢÑĬ ÑīÐ°
ĠÑĥ ÑĩÐ¸
Aut hor
æĦ¿ æĦı
Ġpos it
è¯´ çļĦ
Ġimped ance
ur se
Ġbu ilder
Ġrough ly
Ġunus ual
ĠBro ad
çī¹ çĤ¹
Ġpolynom ial
Ġrespect ive
Ġprim arily
eng ers
ĠUn fortunately
Ġins ight
S n
ener gy
Ġen force
Ġequip ped
Ġinvestig ate
st ers
Ġacc um
è®Ń ç»ĥ
çļĦ å·¥ä½ľ
Ġt ags
ä¼ į
Ñģ Ð»Ðµ
ab a
ĠM obile
Ġinv oke
Ġexpl ains
Ġen orm
con scious
m ask
ĠStud io
Ð ©
Ð»Ð° Ð³Ð°
Cl ose
å°± ä¸į
ĠN eed
Ġig ual
Ġbranc hes
ĠÐ¸ Ð³ÑĢÐ°
erv ing
ç»Ŀ å¯¹
Ġact u
if ting
æĹ ģ
ĠÐ½Ð° ÑģÐµÐ»Ðµ
H D
Ġcert ificate
çľŁ å®ŀ
ĠV eg
se en
Ġp ad
ĠÐ¸Ð·Ð¿Ð¾Ð» Ð·Ð²Ð°
Ġcl othing
æĥħ ç»ª
Ġserve i
Ð³Ñĥ ÑģÑĤ
ific is
Pr int
Ġperiod s
c rit
Select or
act ic
ĠL ay
he im
ct l
ä¸º ä¸»
Ġcomplet ion
Ġpolit ics
Ġor th
r andom
Ġun ity
Ġstart up
Ġllib re
at ile
Ġadvant ages
} &
Ġult imately
l isher
äºĭ ä»¶
æīį æĺ¯
le e
Pro gram
S ele
) [
Ġs ynchron
Ð¾ Ð»
ident al
Ġ ÑĢÑĬ
Ġluck y
éĵ º
' (
ĠD am
æĮ ¯
Ġcommunic ate
)\ ,
Ġimpress ive
gn ome
s un
é¦Ļ æ¸¯
ĠÐ³ÑĢÐ° ÑĦ
ĠL ind
Ġmost rar
æķ° åŃĹ
Ġdist ant
m g
Ġres um
Ġsam pling
ä¸Ģ æĹ¦
o or
Ġun itats
Ch annel
Ġb orrow
Ġspect ra
Ðĳ ÑĬÐ»Ð³Ð°ÑĢÑģÐºÐ¸
eli hood
ĠĠĠĠĠĠĠĠĠĠĠĠĠĠĠĠ ĠĠĠĠĠĠĠĠĠĠĠĠĠĠ
f ony
w alk
T ABLE
ĠF inal
ED IT
åĵ ¦
w ind
Ġsche ma
èĢĮ è¨Ģ
us ers
Que ue
èĤ ¿
Ġnav igation
ĠÐļ Ñĥ
ĠV ari
C F
Ġexam ine
åĪ° åºķ
ç§ Ĵ
ĠJ ane
Ġevery day
Ġt x
ĠTr ust
an while
ĠH ost
ç¾İ çļĦ
è¦ Ĩ
Ðł Ð°Ð·
f ail
ä¼¼ ä¹İ
ĠM other
èĥ Ĩ
Ġtrack ing
G IN
ä¸Ń åįİ
èĸ Ħ
ĠÐ¼ ÑıÑģÑĤÐ¾
uss ion
èĥ ¸
Re lease
æĮ º
Ð»Ð¸ Ð½
ĠE N
Ġe c
ĠO pt
Ġde ploy
Ġesc rit
iron ments
å¿ ½
Item s
ĠT al
sp ir
\| _{
éŃ Ķ
ÑĢÐ¾ Ð´
Ġoccup ied
b la
Ġbow l
B est
Ġeng agement
å®¶ éĩĮ
è¿Ľè¡Į äºĨ
Ġad apter
ateg y
p ia
ĠÐ´Ñĥ ÑĪÐ¸
Ġm ath
re port
ĠJose p
T oday
Ġassoci ation
Ġpass es
Ġentertain ment
Ġimpro ving
st ats
æ¦ ľ
orig inal
Ġb ien
c od
Act iv
ĠEl izabeth
Ġcont rary
ĠÐ¾ ÑīÐµ
Ġmaintain ed
Ġf right
Ġ rip
in ch
Ġdes per
ä¹ ı
Ġsp o
æŃ£ ç¡®
pl er
å¡ ĳ
Ġd ign
éĶ ģ
cle an
éĩĩ åıĸ
ĠT aylor
z il
Ġint ensity
æľ¬ èº«
g ina
r ada
du ino
Ġr um
ĠDo ctor
at tered
Ġmy st
ĠÐµ Ð´Ð½Ð°
B M
call back
Ġserv ir
Ġhost ing
Ä ģ
æĤ ²
en um
pre ne
ç½ĳ ç«Ļ
Ġneigh bour
ĠB ru
ĠG iven
omorph ic
P G
Ġf ier
inte gr
Ġaccompl ish
pro position
Ġcons ent
Ġt ank
Ġstudy ing
æĺİ æĺŁ
Ġan ten
ï¿½ ï¿½
Ġappro x
add le
ĠCons ell
Direct ory
Ðº ÑĢÐµ
è¯ ¦
Ġg ay
åħ¬ åħ±
ĠÐĲ ÑĢ
ĠH ospital
ĠS S
Ġgra ve
Ġf estival
Esp anya
ä¸¥ æł¼
I OS
ĠP ath
Ġass et
ĠL ev
M rs
Ġre aching
Ġdesc ript
O F
P UT
Ġd ownt
Cons ider
ÐºÐµÐ´Ð¾ Ð½Ð¸Ñı
ĠEd ward
ĠN ap
depend ent
Ġaccept able
s is
Ġde eper
b g
ri ers
Âł metres
åĨ Ĵ
Ġpobl acions
ard o
Ð¾ Ð»Ð¾
Ġcont est
Ġdi verse
yg on
Ġpert any
Ġtelev isi
éĩį æĸ°
æľĪ ä»½
s ame
çĲĨ è®º
spec ial
æĥ ľ
ĠK en
oc up
ph ones
Ġfound ed
od ot
eng ine
du ctor
ĠEx press
Al g
W M
èĬĤ çĽ®
ĠS SD
Field s
// /
ç¾İ ä¸½
sc roll
Ð² Ñĥ
ĠIS BN
ä¸ĭ éĿ¢
[ (
pend ix
Ġscen es
Ġinf ant
ĠD escription
çĶ¨ çļĦ
Ġhe sit
Ġtest im
å¢ŀ å¼º
åĬŀ çĲĨ
Ð¶Ðµ Ð½Ð¸Ðµ
Ġport a
( !
ĠUn i
Ġhard er
æĭ Ł
Ġdestroy ed
Ġpre g
Ġag encies
çĲĥ éĺŁ
Ġelse where
ier re
Ġno body
Ġconf usion
Ġdrink ing
ÑĩÐµ ÑģÐºÐ°
Rem ove
Amer ican
Ġg iant
it age
comp any
ac cept
pe ction
D ay
Ġview ed
Ð¼ Ð¿Ð¸
Ġclust ers
e res
éħĴ åºĹ
clud es
L ear
çĹĩ çĬ¶
âĢĶ âĢĶ
Ġg nome
Det ails
ÐºÑĬ ÑģÐ½Ð¾
ĠO cc
ang el
Ġro les
Ġamong st
Ġform ar
Ġserve is
Ð¼ Ñĥ
any es
Ġvul ner
Ġlog o
Ġp es
è®© æĪĳ
Flo at
F urther
Ġdark ness
Ġcomput ers
éĻ ·
Ð²Ð¾ ÑĤÐ¾
se par
H R
æ³ Ľ
ç½ ²
Ð¼Ðµ ÑĤ
h d
Ġsh ield
Ġmem bre
Ġm uest
ro le
Ġsw ord
Ass ert
P op
Ġdis crete
Ġhe ating
Ġgraph s
ĠA G
c ourse
æį ·
Ġh its
Ġcompl iance
Ġaut or
b urn
Ġalt ogether
v et
o a
v int
M atch
Ġra rely
ĠD own
Ġh ospit
ĠEn vironment
Ġacqu ired
} </
åŃ¦ ä¼ļ
Ġalong side
Ġprof iles
Bo olean
Ġloss es
ĠD ocument
äºº ç±»
Ġrec ording
å®Į åĸĦ
Ġll og
os ed
Ġclass ific
èĤ¡ ä»½
es gl
Ġgl ob
æĸ½ å·¥
The orem
q q
Pan el
c amp
å¯ ¿
ay a
çĽ´ æĴŃ
Ġcr ash
d frac
Ġsc aling
ĠÑģÑĢÐµÑī Ñĥ
çłĶ åıĳ
ĠÑĨ ÑĬÑĢ
Ġf ishing
åİŁ åĪĻ
Ġnot ation
ĠF ac
ir ts
on to
Ġdisc rim
Ġrel at
ÑģÑĤ ÑĬ
Ġris ks
b oth
ĠLe vel
G rid
ver ter
Ġre install
é ī
ex per
Ġearn ed
ado op
Ġwood en
éĢļ çŁ¥
Ġph r
Ġgl ory
ue go
map sto
è ²
p al
çļĦ çĶŁæ´»
IT ION
Ġredu ces
å« Į
w d
Ġcapt ured
è¿½ æ±Ĥ
ĠAs sembly
Ġeng age
Ġm sg
ĠN ode
ÑĨ ÐµÐ½
è®¾ ç½®
Sec urity
Ġag ric
Ar ch
Ġwe ird
ĠT a
Ð´ Ð¶
Ġgl ance
è¾ £
ĠCh ange
ep endent
im pl
Ġinstant ly
ion ed
ĠÑģÐµ Ð¿ÑĤÐµÐ¼Ð²ÑĢÐ¸
Ġh al
Ġcomput ing
å¾Ī éļ¾
ex ists
æ¶ Ĥ
ST ATE
Ġre volution
Ðµ Ð´Ð¸
ÐºÐ° ÑĢ
Ġsub mitted
Ġres ume
Ġfluct u
Ġrece iver
æĹ¥ å¸¸
æĺ¯ ä¸ª
O pt
al and
Ġo x
iz a
Ġt ied
Ġ[ [
Trans action
åı¥ è¯Ŀ
P ublic
Ġenter prise
sw itch
ÐµÐ»Ðµ Ð¶ÐºÐ¸
ĠM i
èº« è¾¹
Ġor n
Ġplatform s
t re
ĠÐ¿Ðµ ÑĢÐ¸Ð¾
éĢ ĥ
ä¸Ģ å®¶
è½¦ çļĦ
çĪ± çļĦ
que ue
Ġmunicip al
ç§» åĬ¨
Ġret orn
Ġresearc hers
sing le
ĠG ames
åĨ Į
å¿ĥ éĩĮ
çŁ ¿
à ¸
Ġ ÑĪ
Ġs ons
Ġsuggest ion
id ays
E Q
éī ´
æīĭ æľ¯
Ġvers us
Ġb rows
Ġcal endar
Ġam d
ä¹Ł æ²¡æľī
Ġthorough ly
Ð¿Ñĥ Ð±Ð»Ð¸
Ġf itting
ĠT ask
Ġlock ed
ad as
ÑĤÐ¾ ÑĢÐ¸Ñı
ĠK ent
Ġfort une
Ġbroad cast
Ġw isdom
Ġas ympt
d ark
Ġp ushed
O wn
uc ed
Ġque ue
ol o
åľ¨ è¿Ļ
load er
éº ¦
w art
ass es
Ð²ÑĬÑĢÑĪ Ð²Ð°
åĪ© çĽĬ
Ġbelong s
Ï ĥ
}} ^{
Ð¼Ð¸ Ð½Ð¸
ĠN ob
U C
æ¬ £
ĠFr ont
wr itten
A F
sn ap
$ ;
ou bt
Ġprodu cci
G en
M sg
-- +
ĠAd am
Ġfr ames
Ġprocess or
è´· æ¬¾
ess a
Ġlo ans
Ġdent ro
ĠS ET
å¤ º
VER SION
ĠT en
ĠOh io
Ġe q
çĵ ¶
Ġp uzz
Ð±ÐµÑĢ Ð³
Ġdatas ets
path y
Ġclaim ed
ol is
con g
av ailable
Ġwant ing
not ations
B el
Âł aC
Ġdo zen
clip se
id ir
èĭ± åĽ½
Ġestim ation
v c
W rap
Ġless on
c il
ĠP os
Ġfrequ ent
é¢ Ĺ
å® ¾
Ġ&= &
ÑģÑĤ Ð²Ð¸
LE S
æĹ¶ çļĦ
Ġh anging
Ġch ances
Ġrel acion
Ġdut ies
th ose
Ġtransist or
èĭ Ĺ
S al
å·¥ èµĦ
) --
Ġet apa
ç¨ĭ åºı
Ġl ens
ing ut
ous es
ch ief
Ġhor izontal
Ġex clus
D est
m us
æľī ä¸Ģä¸ª
Ġm aj
i ences
ĠÐŁ ÑĢÐ¾
. __
Int roduction
ĠC ost
Ġsh ame
Desc riptor
Ġas h
Tr ack
Ġor ange
ç²ī ä¸Ŀ
Ġbut tons
ly ph
ĠArm y
sim ple
ĠSeg ons
Ġc ock
Ġte en
Ġlaw yer
let es
ĠE tym
on na
part y
æĬķ åħ¥
b il
ä¸ĭ åįĪ
** *
Ġtelev ision
n im
ÑĩÐµ Ð½Ð¸Ðµ
Ġstrict ly
Ġun lock
Ġcont ro
Ġremem bered
å°ı åŃ¦
Ġmat hemat
Ġmechan ical
ĠIntern acional
Ġm are
Ġcharg ing
A pr
å¾ ª
Ġroad s
R ad
Ġfil ters
SI ZE
æľº åĪ¶
Ġd ub
ir k
lo ve
èĢ Ģ
ĠE L
Ġresult ado
Ġconvent ional
ff f
ot on
ĠF C
Ġt ar
ĠSim ple
Ġlist ing
å¤§ éĩı
æĦ Ī
åĵģ è´¨
Ext ension
æĺ¯ ä¸įæĺ¯
Ġoverw hel
æ ©
å§ ľ
ÑģÑĤ ÑĢÐ°Ð½
ĠL as
Ġcom pt
æħ¢ æħ¢
n is
Ġcamp us
les h
et he
Ġcult iv
ĠG er
Ġupgrad ed
ĠSc ript
Ġrent al
ifest yle
A uth
par ison
ip er
ĠCol lection
ill er
ĠBro ok
Ġsc arcely
èı ²
Ġag r
ul us
Ġexp enses
æĹ¶ å°ļ
Re port
Ġtrou bles
y ers
Ġinvest ors
ĠC ub
r ub
Ġ ion
Ġreg ulations
Ġre const
æ¸ħ æ¥ļ
èľ ľ
g ra
ĠBlu etooth
\ {\
ĠSystem s
Ġgalax y
ST AT
ĠSet tings
Ġ[ ];
In v
Ġll uit
ç½ĳ ä¸Ĭ
get s
al og
Ġdire cci
Ġpr inter
ä¹ Į
od d
åıĳå±ķ çļĦ
Ġup coming
Ġro cks
Ġwin ner
èĥ ¶
è®° å½ķ
Ġselect ing
Ġr ural
st ud
Ġdeb ate
op es
Ġwood s
Ġpar agraph
å¹³ åĿĩ
char acter
è§ Ī
cd n
ĠS ky
Ġgr ateful
ĠÑĤÐ° ÐºÐ°
ĠAre a
åº Ł
col a
Ġon going
Ġr am
Ġtong ue
s ym
rypt ed
çĭ¬ ç«ĭ
fe ature
Ġmin ing
Ġbo ots
CE SS
Ġcloud s
Ġpaint ed
æĽ´å¤ļ çļĦ
Ð½Ðµ Ñģ
Ġ ).
Ġpress ed
bur gh
æ §
Ġcr ist
Ġfrequ encies
V ideo
ĠC in
ado res
ĠF ont
hold ers
ĠEd ition
æĶ¹ åĸĦ
çľĭ çĿĢ
èµĦ æĸĻ
=" ${
ĠU nc
åĪ© æ¶¦
ent re
ĠHel p
Ġgall ery
; <
Ġrespons es
äºĭ æķħ
Ġb omb
Ġgrad ually
ĠÑĤ ÑĥÑĢ
Ġpil ot
~ $\
To String
Com ment
aw a
ĠF all
Ġcirc ular
Ðµ Ð½Ð°
æī¿ æĭħ
Ġmix ing
ĠYou Tube
Ð³ Ð»Ð°
Ġs is
ĠPro perty
Sh ould
éĩį å¤§
Ġpredict ed
çĽĳ ç®¡
riv ing
Ġrad iation
g ica
é© ±
m oment
Ġim plements
Ðĳ ÐµÐ»ÐµÐ¶ÐºÐ¸
Ñī ÐµÑĢ
E P
ĠL le
ç©º æ°Ķ
ĠWil son
per or
Ġdiam ond
bo y
Ġenc ounter
ever al
u ing
as ures
St op
Ġill ness
ĠPhil ip
ĠS ep
è¾ Ī
çľ ł
ĠV in
app ly
m A
ĠAnton io
ĠÐ²Ð¸ Ð´
m os
ĠD im
him self
Ġor den
Ġi Tunes
åĲĮ æ¯Ķ
Ġwor n
c ref
â ĳ
Ġm arch
ĠF oot
ÐºÑĤÐ¾ Ð¼Ð²ÑĢÐ¸
Ġrel aci
V ery
ix el
Ð¾ Ð½Ð¸
çĲĨ å¿µ
Ġt ang
ç»Ł ä¸Ģ
Ġinstr uments
uest a
B oth
çĽ Ī
ĠÐ¿ÑĢÐ¾ Ð´ÑĬÐ»
reg a
ogene ous
å®ŀ è·µ
T F
Ġvess el
Ġfet ch
æĪĸ è®¸
æĦŁ åĪ°
f ixed
op her
Ġt erra
è®© ä½ł
Ġr ated
Ġmembers hip
Ġv ain
Ġm ismo
å¹¿ åĳĬ
Ġbreak s
Ð²Ñı ÑĤ
ĠO t
Ġniv ell
pe at
èĭ ¹
ÐºÑĤÐ¾ ÑĢ
Ġfill ing
Ġin icial
Ġcom and
Ġquant ities
åĵ Ń
Ġheav ily
Ġclick ing
Ġnight s
è¿ħ éĢŁ
Ð¡ Ðµ
Ġassert Equals
P res
Ġobst ant
ĠA sh
Ġres erv
t iny
ĠS I
Ġplace holder
Ġp ace
æ° §
Ġfuncion a
çľ¼ çĿĽ
Ġdescrib ing
Ġan ar
Ġdefin itions
t ail
æĢ§ èĥ½
Ġmem ories
con sole
at iu
Ġre un
Ġb oss
m iques
Ġstatist ical
ĠHamilton ian
ĠBl ock
Ġre act
Ġper mitted
Ġleg end
å° ĸ
Ġed iting
N ER
Ab stract
Ġp uls
ol ver
Ð¼Ð° ÑĤÐ¸
aci as
par ameters
ÑĤ ÑĢÑĥ
æķ° éĩı
p rom
arr is
Ġd rain
æ¼ Ĥ
Ġ-- -
Ġk it
Ġsurround ed
å¤§ éĥ¨åĪĨ
å® ¿
è ķ
è§Ĥ ä¼Ĺ
ĠC ou
ÑĤÐ¾ Ðº
åĿ ¦
Ġcal ib
Ġcounc il
ĠH ay
ĠSen ate
ĠSur vey
Ġstop s
Ġconcept s
ĠB log
Ġtempor al
ĠD or
Ġas p
å¹´ é¾Ħ
Ġover come
Ġcommunic ations
an th
åĲį çļĦ
ĠÐĶ Ðµ
Ġe urope
ĠReg ne
h ide
Ġw ishes
èĩª æĪĳ
[ :
ĠMod ern
Ġus ername
] }
ĠB ath
Ġsing ing
æ¾ ³
ĠPac ific
rep resent
æµ ®
Ġg orgeous
ĠN ick
Ġvary ing
V I
Ġconf ess
ĠS ite
ter min
ĠF O
Ġne arest
ac o
Ġg uns
Ġgrav ity
Ġr outer
ĠT her
J oin
å¾Ī å¥½
H C
Ġcop per
Ġcr usher
ç¼ ´
Ġcry pt
ap y
Ð½Ñĥ Ð°ÑĢÐ¸
m uch
ĠD I
Ġcross ed
Ġaware ness
init ial
Ġrel ay
w ich
Ï Ĥ
ĠT X
Ġr iding
sc ience
Ġmag azine
b is
Ġsymbol s
Ġconvert ed
Ġte ch
ÑģÑĤÐ¾ ÑĢÐ¸
x s
Ġmem bres
r ab
Mem ory
B en
r iction
Ġjo ining
Ġtarget s
Ġconstruct or
åħħ æ»¡
he ld
AN G
Ġsc rew
Ġmy ster
ire less
ĠT y
SE E
çī¹ æ®Ĭ
ÑĤÐµ ÑĢÐ¸
Ġl in
Ġimprove ments
Ġref lection
Ġbeg un
Ġph arm
em at
Ġvari ations
Ġmet adata
Ġsup plement
n ies
Ġs ocket
ä¼ ¸
Ġtext ure
Ġc um
B ER
ĠT err
we ak
èĭ¹ æŀľ
pl atform
ĠSte ve
ĠPh ys
h bar
g b
Ġbe aring
ĠG N
g al
ic ity
Ġweap on
C ome
ĠÐ¡ ÑĤÐ°
M ember
==== ==
Ġle ague
ĠM essage
Ġs or
ĠMc C
rie ve
ç¢ İ
gr ub
Ġsh ops
Ġj et
Ġoff ices
èº« ä¸Ĭ
Ġbo ards
ĠX ML
Ġavail ability
Ġarr anged
ä¸į åĨį
M ock
ot he
å¾Ī å¤§
) +\
åĩ ¯
Ġfeature d
çĤ ¸
Ġmod al
Ġanim ation
ĠEd itor
Ġse ats
Ġlleng ua
Ġpued o
print f
Ġdesign er
ĠC lient
Ġ[ "
Ġg aire
par a
Ġet ern
è¿Ĳ è¡Į
Ġanomen at
ĠÐ¸Ð· Ð´Ð°
Ġproport ion
ous in
æĲ ľ
æĿ ľ
Ġprogram me
Ġlog s
Ġworld wide
ĠÐľÐ° ÐºÐµÐ´Ð¾Ð½Ð¸Ñı
Ġaccompan ied
Ġm eta
ĠF ox
å§ Ĩ
US ER
Ġes deven
F ailed
Ġvac ation
çļĦ ãĢĬ
ĠÑģÐ¸ Ð½
çļĦ æĸ¹å¼ı
ĠG reg
ams ung
Ġprop ri
Ġpers u
RE AD
ĠC ant
Pro v
Ġke en
ĠMount ain
ĠO ly
æ¯Ķ ä¾ĭ
Ġsucceed ed
æīĵ å¼Ģ
ult ura
Ġem otion
Ð» Ð½Ð°ÑĤÐ°
å¦ Ļ
ĠF L
p iece
å²ģ çļĦ
Ġan xious
Ġl leg
Ġdi pl
Ġvict im
æ¯ı æ¬¡
W R
Ġappro val
ul um
ç§ ¦
Ð´ ÑĬÑĢÐ¶Ð°
ĠD og
Ġh ills
Ġc ref
ra it
Ġman aging
ab et
åº¦ çļĦ
ãĢ Į
p ow
Ġf ate
Ġt rivial
r f
Ġv est
Ġexcit ement
Ġqu otes
ĠM undial
Ġf aint
G raph
Ġfor ty
AS H
or se
Ġdemand s
Ġgener ating
ĠA f
e h
å½¢ è±¡
ÑģÐºÐ¸Ñı ÑĤ
ĠH um
Ġmov iment
ĠP rom
ĠÑı Ð½ÑĥÐ°ÑĢÐ¸
as et
r ating
as ma
è£ ¤
ç¬¬ åĽĽ
Ġtrend s
ach us
ip h
ino is
Ġdef ines
l ament
Ġfin ance
Ġb inding
y o
Ġbr on
ĠÐ¾ Ñģ
SS ION
Ġoccasion ally
Ġstraight forward
G iven
Test s
Ġdiscuss ions
Ġas ks
Ð¿ÑĢÐ¸ Ð»
| _{
nd re
ĠU I
="../../ ../
åŁº åľ°
Ġ{ {
Aut o
th ink
Ð½Ðµ ÑĢ
ĠC SS
m ad
ĠR ol
OR Y
Ġsc attering
çĶµ åĬ¨
ext ra
å£ ®
ĠM att
è¯Ń è¨Ģ
ign ment
ç»Ĩ èĥŀ
å¹¿ å·ŀ
âķĲâķĲ âķĲâķĲ
P ool
col n
Ġdress ed
Ġt ien
Load er
ĠCh air
}{ |
s ync
Ġtal ks
Ġult imate
ill o
Ġg reet
PI O
Ġs oph
Ð´ Ð¸Ñı
ĠÐ¾ ÐºÑĤÐ¾Ð¼Ð²ÑĢÐ¸
Ġsur ve
Ġtou ched
: }
iment al
å¿ħ è¦ģ
Ñħ Ñĥ
å² ¸
æĿ¥ åĪ°
ĠM ov
qu ant
Ġsav ings
p ic
Ġphilos ophy
æĦı æĢĿ
ul i
ĠG ro
ĠÐ±ÑĬ Ð´Ðµ
Ġprint ing
ĠO P
Ġref erring
ĠF ord
å¾Ī æľī
Ñī Ð¸ÑĤÐµ
") ]
Ġ" ,
ĠS A
ĠPart it
ĠG il
éļ Ĩ
å¸¦ çĿĢ
éĥ½ è¦ģ
Ġtrad ition
V C
Ġsort s
çī¹åĪ« æĺ¯
in cre
åĢ ¾
åįģ å¹´
ĠT enn
en o
S ep
ĠÐ¿ ÑĢ
Ġmanufacture rs
ĠR oss
Ġassum ptions
å±ķ ç¤º
Ġcont ribut
Ġstret ch
ĠSecret ary
åħ¬ å¼Ģ
Ġdesc end
ÐĲ Ð©
Ġlas er
ĠS ports
ãĢ į
c ross
Ġinnov ation
éĥ½ èĥ½
èĲ¥ éĶĢ
Ġex ponential
Ġext ensions
ĠScot land
è§Ħ èĮĥ
Ġd w
: =
Ñģ Ð½Ð°
åĬ¨ ä½ľ
ÐºÐ¾ Ð»Ð°
Ġele m
Ġcol ours
åħ ¼
ĠÑģ ÑĤÐµ
Ġprec ious
Ġdro ve
Ġve z
Ġpublic ation
æ´ Ľ
m ock
Ġpres erve
em ic
éħį åĲĪ
Ġlimit ations
ĠCount ry
Ġt urb
ĠSt one
'] )
ount ered
v d
ĠÐĵ Ð¾
ĠW rite
Ġmet rics
Tr ace
Ġnomen at
ä¸į çĶ¨
ug ar
Ġvac uum
omet er
Ġs ig
Ġweek ly
l ace
IP T
Ġes per
ĠÐĳ Ð¸
} )$,
ĠG T
Ġconve x
Ġout standing
ĠF ern
Ð¼ÐµÑĢÐ¸ÐºÐ°Ð½ ÑģÐºÐ¸
ourn ament
æĺ¯ ä»Ģä¹Ī
ĠCont ent
amp ion
Ġass ured
ĠB an
fil ename
å· ¡
åķ ¦
ĠEsp anya
ä¹Ł è¦ģ
ĠCo ast
ĠCirc uit
è Ŀ
ĠL ew
Ġsepar ation
Ġbit ter
Ġdi ver
Ġcont en
ĠÐŁ Ð¸
sk y
æľī æīĢ
ing ton
AM P
Ġcut s
diff erent
åı¯èĥ½ ä¼ļ
os itory
sub ject
æ®µ æĹ¶éĹ´
est re
M icrosoft
ĠJac ob
est iu
Ġsm iled
ĠÐºÐ¾ Ð³Ð°ÑĤÐ¾
Ġcru el
ist ered
re lease
ç»ĵ å©ļ
LO CK
çĶŁ çī©
Ġval ley
æĺ Į
int on
è®¤ çľŁ
Ġle an
en abled
an is
ĠBook s
lo od
J ava
Ġenv ironments
Fl ags
dat abase
Ġelect ro
Ġvolt ant
p icker
è¿ ģ
ĠG arden
éĹ ¹
S cope
ĠÑĦ ÑĥÑĤÐ±Ð¾
eix en
ag ent
Ġr ice
Ġad vers
own er
ĠK at
Ġshould ers
com b
dp kg
A quest
Ġj untament
H ello
w ifi
ĠM it
Ġdiff er
Ġv archar
Ġbeh alf
sh adow
çĪ¸ çĪ¸
Ġcollabor ation
Ġdifficult ies
Ġre vers
Ġeleg ant
Ġlif etime
} }$.
B P
è¿ĳ æĹ¥
Ġt ie
Ðµ Ð´Ð½Ð¾
l ined
Ġsleep ing
è¿ «
Ġsh ots
ĠM all
å°ı çļĦ
ĠIs lam
c as
æ¤ Ĵ
om es
Ġsch olar
Ġwa ited
) -\
ĠSt ock
C ur
åĽŀ å®¶
Ġst upid
è¯¾ ç¨ĭ
Ð»Ðµ ÐºÑģ
ĠMac Book
b rowser
éĢł åŀĭ
res pect
Ġfit ness
ĠN orthern
ç»ı çĲĨ
Ġh id
f illed
or f
Ġm ud
Ġne ural
lic a
ĠD ark
serv ices
åįı è®®
Ġpix els
ĠGu ard
res et
ĠÐ½ÑıÐºÐ¾ Ð»ÐºÐ¾
cc cc
ET H
j oint
Ġren ov
Ġel abor
Ġthe ories
ine craft
Ġd ash
ĠÑİ Ð»Ð¸
ĠGr ant
Ġret ir
in ate
K S
ock ets
ĠSil ver
friend ly
ä»¤ äºº
Ġl ip
fl ags
Ġsynt ax
ĠS ym
Ðº Ð¸Ñı
in ating
Ġl umin
ĠÐºÑĢÐ° Ñı
x es
Ġreve al
oc he
Ġ" -
Ġconst ants
Ã Ĺ
Ġstay ed
è¡£ æľį
i able
b p
ĠÐ°Ð² Ð³ÑĥÑģÑĤ
ä¸ĸ çºª
it is
Ġp ul
ĠOr acle
ĠÑħ Ð¸
Ġqu iero
Ġsubstant ial
riev ed
æĮĩ åĩº
è´ ¡
Ġso vint
Ġb reat
Ġaw k
ĠIn put
is lation
ĠP as
ĠPro du
ist ence
f re
} }$,
Ġhol y
ymmet ric
Ġtod os
å¿ §
amp ed
Ġp aste
s pect
Ġrecommend ations
own ed
ĠCamb ridge
Ġb ags
Ġexp ense
Ġextra ordinary
s ent
$ ~
Ġo ven
ard ed
ru g
D ouble
èĦ ¾
fe cha
" `
ĠP ract
V A
ĠCh ampions
Ġobten ir
Ġrepresent ations
Stat ement
ĠI mm
[ -
Ġgar age
Ġb att
u ent
ĠReg ister
ä¸į çŁ¥
è¿ĺ èĥ½
ĠÐ²ÑģÐ¸ ÑĩÐºÐ¸
çĲĥ åĳĺ
Ġb acter
Ġd ying
all es
g overn
ĠD er
ic ht
ĠJ r
ex pect
ĠÐ¼Ñĥ Ð·Ð¸
m ide
æıĲ åīį
è¿Ŀ æ³ķ
ge red
se a
Pl an
Ġa in
ĠL oc
aus es
Ġdev oted
ĠRes ource
å° º
ĠPol ice
åħ¬ åĽŃ
Ġaff ili
Su ccess
Ġcot ton
ĠÑĥÐ½Ð¸Ð²ÐµÑĢÑģÐ¸ÑĤÐµ ÑĤ
r ank
åī ©
ĠJ ob
çģ °
Ġser ia
is y
å£ ģ
Ġbed s
Ġf itted
pl iers
Ġconst itu
Ġconsult a
ĠK im
åĿ Ľ
Ġconven ience
æĺİ çĻ½
Ġlib raries
ĠRem ove
ĠV AR
Ġatt orney
j ango
incip al
ĠC os
ĉ int
ore n
el d
ĠF arm
lim ited
D ER
Ġprot agon
Ġto do
Ġtransport ation
ÐłÐ¾ Ð´ÐµÐ½Ð¸
k h
ask a
Ġpost er
ĠRad io
ĠÐ¼Ð°ÑĢ ÑĤ
Sim ple
Ġexpand ed
Ġent itled
ge on
Ġfe cha
se x
Ġdec ade
ell i
Ġa ston
Gl obal
Ġb ay
> \
ivers ity
Ġsol ving
cons ider
Ġst ake
é»Ħ éĩĳ
n at
ĠMich igan
èį ¡
Ñģ Ð½Ð¸
ag ra
Ġign ored
äº ı
ast ed
Ġele ccions
Ġair port
Ġcod igo
å¿Ĺ æĦ¿
pro ve
wrap per
ÐºÐ¾ Ð½
proto buf
Ġfeat uring
Ġprepar ing
Ġcl oth
Ġ ub
aps ed
Ðº ÑĢÑĬ
E lements
aud io
Ġb ull
ĠG ab
åĩº çīĪ
Ġb one
ordin ate
ç§° ä¸º
Ġt ent
ĠÐļ Ð°ÑĢ
åħ¬ å¸ĥ
Ġ$ |\
å¤§å¤ļ æķ°
Ġlo yal
Ġ[ \
p n
ÑĢÐ¸ ÑģÑĤÐ¾
Ġ Ø
Ġflow s
æĬķèµĦ èĢħ
iv idual
ĠÐ¡ ÐĲÐ©
Ġob l
æĭ ľ
Ġtras ll
å¦ Ĩ
ĠPC B
Ġme als
ä» ¿
mo z
Ġsystem d
æľĢ å¥½çļĦ
ä¸Ģ æĿ¡
l arg
Ġgu ilty
ç¢ °
her ited
é¢Ħ è®¡
Ġcoeff icient
type of
ĠÑİ Ð½Ð¸
Ġpix el
Ġinter vals
ä¾Ľ åºĶ
çº ł
f on
åĲ ¨
ĠComm unic
con n
Pass word
N ever
å¤© æ°Ķ
Ġext ens
ĠF err
ap ar
ak i
å¹¿ å¤§
ii i
Ġd ense
Ġsp ots
F P
Ġfil ed
éĶĢ éĩı
ĠC rist
Ġit al
ĠÑĥ Ð¿ÑĢÐ°Ð²
ĠIS O
ell ite
Ġconst itution
è§Ĥ å¯Ł
ĠEnt re
. <
S un
S pace
éĺ² æİ§
ĠRequ est
Ġfac ulty
sem bl
ç»Ħ æĪĲ
Ġguarant eed
display style
comp at
Ġpredict ions
Ġaff ection
Ġhistor ic
Ġanaly ze
ä»į çĦ¶
t l
Ġsw ing
Ġnecess ity
Reg ister
ĠL abor
Ġra ising
ĠLear ning
ĠP ur
åħ¬åı¸ çļĦ
Ġf aced
ĠP L
Ġha z
Ðµ Ð¼Ð²ÑĢÐ¸
Ġst rain
F eb
ĠS ave
Ġsimult aneously
Ġc her
Ġenjoy ing
Ġaquest es
Ġlet ting
Ġ ],
Ġn vidia
æĮĩ æķ°
ĠVAL UES
ĠÐ½Ð° Ð¼Ð¸ÑĢÐ°
M OD
ĠAr g
ĠK h
ĠB esides
s il
Ġin duct
DE X
j ack
ier ra
Ġcab inet
å¤© çļĦ
åĨħ éĥ¨
åĲ¯ åĬ¨
Ġexpl os
ĠÐ° ÐºÑĤ
O k
ĠV ic
Ġcontinu ing
ç© ´
und o
ĠI E
ÐºÐ¾ Ð½Ð¾
T w
Ġtri um
åıį åºĶ
Ex ternal
å¹¼ åĦ¿
Ġ Ã²
Ġcry stal
ĠÐ´ÑĬ ÑīÐµÑĢ
Ġpar am
ĠÐ¾ ÑģÑĤÑĢÐ¾
Ġflo ating
SS ERT
ĠÐĶ Ð°
Ġlog ging
Ġw estern
/ (
Ġking dom
protect ed
om y
f ish
Ġdevelop er
ĠF ab
Ġmove ments
å® ħ
ä¸¤ äºº
Ġor bit
Ġmus cle
Ġcook ies
è§£ éĩĬ
Ġ" _
Ġassign ment
Ġcelebr ate
Ġse eds
t z
ĠN C
Ġres ort
å°± ä¸ļ
Ġt ense
Ġdemonstr ated
Ġhealth care
Ð¼ Ð¸ÑĤÐµ
ual s
åŀ ĥ
æ³ ª
æ± ģ
part s
ty ped
ä¹ĭéĹ´ çļĦ
ĠW ind
ĠKing dom
éĩį è§Ĩ
Ġs atur
Ġmar ry
Ġint ense
Read ing
Ð½Ð¸ ÐºÐ°
å§ »
IN FO
ĉ .
åľ ¾
f g
ĠÐĵ ÐµÑĢ
ĠDat abase
ĠÐ½Ð° Ñĥ
Ġex terior
X ML
Ġsh ade
ĠLe on
Ġinstance of
Ġread ily
Ġqu asi
g ia
åŀĥ åľ¾
ĠF eder
ĠÐ° Ð¿ÑĢÐ¸Ð»
Ġun like
Ġint ens
ĠM OS
Ġval ores
Ġstri king
è¡¨ è¾¾
Ġo vers
pro gress
Ġlist ener
çľĭ æĿ¥
vari ant
Ġequ ality
ĠD ouble
Ġattempt ed
ful ness
Ġref ere
T T
åĬ¨ çī©
Ġbelie ves
ĠÐ½Ð°ÑĩÐ° Ð»Ð¾ÑĤÐ¾
è¿ĺ åľ¨
Ð´ Ð¾Ð½
ys et
ĠÐĲ Ð²
Ġcar rer
m k
ĠM aj
Ð²Ð¸Ñı ÑĤ
s ymbol
ĠM D
Pat tern
ra q
Ġsim plicity
Ġar ise
ov en
è· ĥ
Ð´Ðµ Ð»
Ġfew er
ĠEngine ering
æĭ Ĵ
Ġdist urb
Ġab road
Ġb ash
over ty
d ialog
Ġcirc uits
ĠP ow
Ġdiss ip
Ap ple
ĠB us
$ ),
ator i
Ġpri est
Ġf ired
Ð §
ĉ else
Ġw ires
Ġre vel
Ġquiet ly
ĠC C
Ġv ista
Ġhad n
Ġg host
//////////////// ////////////////
ĠÐ¾Ð±ÑīÐ¸ Ð½Ð°
c hers
å®ŀ åľ¨
ut at
Ġas ync
Ġun es
y cle
éĿĴ å¹´
Ġ{ $
ä» Ķ
é© »
block List
ĠM E
h ang
set up
å¢ ¨
L em
æĻ¯ åĮº
ĠJew ish
Ġw and
ĠM ess
Ġm ild
çļĦ ä¸į
Ġmet all
Ġpartners hip
ç¬¬ä¸Ģ æ¬¡
Ġcar rera
er ver
Ġarrang ement
ore r
C r
ĠTra ining
n ie
Ð´Ð° ÑĤ
ÑģÑĤ ÑĢÐ¸
ĠSpace watch
pre v
ard on
h adoop
ard ing
èĩ³ å°ĳ
Ġs outhern
Ġsepar ately
T ry
ĠÐ¤ Ð¸
Ġtri ple
Ġpack et
() ).
ÑĬ Ð·
Ġre ck
Ġal go
Ġfore cast
Ġact ives
par agraph
Ġground s
c u
est ab
Ġart ificial
æı ı
P or
ĠÐ¾ÑĤ ÐºÑĢÐ¸
ĠHT TP
Ġload s
Ġcom unic
Ġh ack
ĠT ax
Pro xy
config uration
è§Ĵ åº¦
Ġbrother s
ut y
Ġst unning
Ġsur faces
g roups
Ġfor b
éĢ Ĩ
å¤ļ äºĨ
S ervices
é¢ľ èī²
St and
Ġn orthern
Trans form
Ġsp are
Ġgradu ate
U ND
| }
æľĢ ä½³
Ġ ----
H A
åİŁ æĿ¥
Seg ons
Ġdesenvolup ament
sc ription
--- +
ç¨ į
è² Į
Ġf art
ĠBro ther
è½¯ ä»¶
il us
ag le
Ġinf erior
ĠFor ce
in os
Ġfif th
ol y
Ġembed ded
) )$
Ð»Ð° Ð½
ĠCont roller
Ġpow ered
h appy
Ġcou pled
ĠAN Y
Ġfind ings
Ð¿ÑĢÐµ Ð´Ðµ
çĻ» è®°
Ġenc ountered
ĠÐ½Ð¾ ÐµÐ¼Ð²ÑĢÐ¸
AA AA
m outh
ÐºÐµ Ð¼Ð²ÑĢÐ¸
å®ŀ éªĮ
Ġg rec
è®° å¾Ĺ
bu ilt
æŀ ª
æĭ Ĩ
< !
ĠÐ¿Ð¸ ÑģÐ°
Ġc md
æİĮ æı¡
âĶĢâĶĢ âĶĢâĶĢ
Ġot ro
Ġbra ve
Ġc ig
et ts
ç± į
op ing
æµ Ļ
ĠBuild ing
Ġst ones
aut om
è¿ĺ ä¼ļ
Ġmol tes
Ġleg it
_ (
å¤ļ å¹´
fl at
hand ler
ure r
æ¯ı å¹´
an notation
Ð´ ÑĬÑĤ
hentic ation
_ -
Ġj Query
ĠAdd ress
ĠL iter
Ġpost ing
Ð²Ð¾ Ð»Ñİ
ar o
ĠL anguage
ĠI ran
l ive
id x
æİ¨ åĩº
å°½ ç®¡
big l
ä¼Ļ ä¼´
m ers
Ġop position
Ġparticip ar
S ync
if le
an other
In ternal
Ġhot els
) }}
the me
ĠAnd erson
æĽ´ å¥½
am az
Ġsh ook
Ġvalid ation
ç½Ĺ æĸ¯
ÑĢÐ° Ð±Ð¾
Ġtrans mit
ĠÐ± ÑĢÐ¾
Ġr ust
Ġf ake
ĠD one
Ġvend or
ro v
met re
Ġhab its
l p
ell ers
spe ed
Ġf os
ar ry
ĠCopy right
quest ion
Ġfont s
as il
AT ED
ä¸Ń åĮ»
Ġscen arios
ĠH E
Ġisol ated
es ian
ĠP ak
ist ing
Ġdel iber
ĠL iving
Ð²Ð° ÑĢ
Ġhead ers
Ġpoet ry
Ð³Ð° ÑĤÐ°
Ġr ational
Ġinj uries
Ġgu idelines
Ġrend ered
Ġj oc
Ġh unt
Ġcan vas
st ill
çº¿ ä¸Ĭ
Ġfore ach
m ate
åĩº æĿ¥çļĦ
ro b
éª ĳ
ĠDiv ision
ĉ m
Ġaccompl ished
Ġdis ag
Ġmaintain ing
d al
ĠStep hen
Ġ iv
}( {\
Ġp s
pl ane
è¾ ī
Ġd ashed
æ£Ģ æµĭ
L ove
ç« ¹
big r
k u
ĠÑģÐµ Ð»Ð¾ÑĤÐ¾
yl van
re u
Ġacqu ire
Ġat tr
ile y
æ Ĩ
Ġj ack
ĠCh annel
Ġspir its
Ġdo ctors
mar ks
æ¸ ł
Ġesc riure
ĠHol ly
ĠB aix
S ql
Ġb ent
Ġmil it
an omen
ĠAm ong
ĠÐ¿ Ð»Ð¾
Ġcar pet
iam ond
Ġrepl acing
Ġdat abases
Ġstay ing
Ġpoint ing
ĠÑĢÐµ ÐºÐ°
iss a
ĠÐ³Ð¾ Ð»Ñı
sequ ently
Ġz ip
Ġrecip es
RO UP
Ġgenu ine
æ¡ Į
ĠAn th
Ġl s
ie re
Ġped ra
Ð½Ð° Ð»
w ed
Ġclub s
ĠBe ing
Ġre vis
Ġincreasing ly
Ev ents
h um
ä¸Ģå®ļ çļĦ
Ġsh apes
oc ar
Gener ic
Ġ~ /.
Ġocup ats
éļ¾ ä»¥
* )
end ers
ÑĪ ÐµÐ½
Ġcorre ction
æĸ ĳ
Ġbaix a
s uff
ĠÐ´Ðµ ÐºÐµÐ¼Ð²ÑĢÐ¸
Ġintel lectual
St ud
ĠS ound
å®ī è£ħ
Ġem bar
Ġconsist ing
åĪº æ¿Ģ
Ġc ed
ÐĳÐ¸ Ð¾Ð³ÑĢÐ°ÑĦÐ¸Ñı
Ġg ently
Ġg ates
åĩł å¹´
Att ributes
de ep
Ġin verse
ke ep
è¢ ĭ
Ġsold ier
pe g
Ġsequ ences
att ed
Ġt ube
j an
Ġprov ision
Ġevalu ated
set s
ä¹Ł å°±
alg orithm
ĠS ales
æĸ ¤
pref ix
Ġflo od
ĠT ree
ur ches
Ġsc rap
Ġsitu ada
Ġst ain
ĠInt eg
err ors
es h
Ġcom er
Ġque en
Ġposs ibilities
æľŁ å¾ħ
lim ents
co q
ĠB urn
F ail
Ġout comes
Ġres idential
ik a
Ġindic ating
Ð½Ð° Ð»Ð¸
Re al
èĤ ©
Ġdis miss
Ġdiv or
ens is
å¹³ æĹ¶
Ġelectric ity
contain s
åĪ¤ æĸŃ
Pl ugin
la unch
ĠÑģÐ¸ ÑģÑĤÐµ
Ġl ifestyle
us i
Ġqu it
erc a
Ġch amber
pro gram
Ġres idence
Log ger
Ġse cre
n or
æĢģ åº¦
V ENT
Des pr
Ġ% }
ĠÐĽ Ð¾
Ġt ries
st orage
iss ues
æľ¬ æ¬¡
Ġsem pre
Ġstop ping
æ¸¸ å®¢
L INE
Ġre cept
å¼º çļĦ
Ġstr anger
g z
åĿ ¡
pro fit
ion ic
Ġw ore
ĠP i
b ros
}$ )
Ġkill ing
åįı ä¼ļ
Ġg ender
S uch
Ġgr ups
Ġpl ural
Ġobj eto
s ample
ĠÐ¿Ð»Ð° Ð½Ð¸
Ġ ul
Ġdifferent ly
Ġel der
æıĲ éĨĴ
W ait
achus etts
ill es
f x
ĠP resent
Ġbl anc
æīĢæľī çļĦ
Ġdoll ar
ĠG ree
comm it
Ġdr ama
Ñĩ Ð¾
Ġunder t
Ġespecial ment
amb ling
æĹ¥ åŃĲ
ĠÑĢÐ° Ð¹
s pl
ĠExecut ive
ex ternal
Bl ack
Ġs la
ĠP ri
ĠSt ory
ĠS W
Ġvis its
Ġxml ns
ä¸ĭ åİ»
Ġserv ant
Ġbl ame
åĲ Ĳ
Ġprom ot
Ġf iber
Ð· Ð¾Ð½
Ġprocess ed
ä¸ĭ äºĨ
Ġsubst ance
ĠZe aland
ÑĤÐ° Ð»Ð¸
sc ar
ĠEx ample
Ġtrust ed
Ġrep art
è° ĭ
Com mon
Ð´Ðµ ÑĢ
Ġorder ing
ä¸ŃåĽ½ çļĦ
ĠColor ado
åĨł åĨĽ
O B
è½ ¨
me an
Hel p
ĠÑĤ ÑĬÑĢ
ĠSim on
æĻ ¶
Ġcorres pon
ĠJust ice
æ¢ °
av id
ĠAdv anced
ord re
é¸ Ł
ut able
ĠÐĵÐµ Ð¾ÑĢ
th row
Ġpart ly
fol low
ç»ı åħ¸
æĶ¾ å¼ĥ
Select ed
L ab
Ġhabitat ge
ĠAdd itionally
åī ĳ
Ġcas ual
)) );
h on
ĠAp ache
Mult i
æĿ Ĩ
Ġf al
ter y
å¥¹ ä»¬
Ð»Ðµ ÑĤ
Ġcad ena
Ġpress ing
æĭ ĵ
n othing
Ġqued ar
Ġenerg ies
ÑĢÑĬ ÑĨ
Ġpri ze
ed u
aus ed
is cal
å½ĵ åīį
åĵª äºĽ
Ġan ger
ĠT ol
æĢĿ èĢĥ
in ery
ĠDis ney
per iod
og ram
Ġden omin
è¿Ļ ä½į
S ur
f ar
Ke ys
Ġed ats
Im port
å¿ ł
Ġsc ored
requ ency
C ategory
Ġs q
Ġden oted
æ± Ĺ
Ġimag ination
ĠR A
Ġg ym
Ġass ass
Ġestab liments
Ġsele ccion
ĠTh ink
Ġestud is
Ġcount s
Ġstrateg ic
ĠB ab
w ave
æĭ Ķ
ĠÐµ Ð´Ð½Ð¾
Ġconst it
å° ĺ
j et
ĠM ail
ĠTra vel
C LA
ĠG PU
æĮ ¡
æŃ» äº¡
Ġencour aged
T IME
~ ,
ad ows
Ġs sh
is p
Ġdi ameter
åģ ·
e j
Ġsp ell
Ġcomp ass
Ġlib erty
Ġag gress
ĠÐº ÑĢÑĬ
Ġtime out
Init ial
r ass
çĽĳ çĿ£
Ġpep per
ĠMuse u
Ġbr ush
é¡ µ
ĠÐ´ÑĬÑīÐµÑĢ Ñı
ĠS om
Ġg it
Ġcreat ure
Ġc ogn
our t
Ġnewsp aper
Ġ ];
ĠHe art
in ced
Ġcopy right
Ġconeg uda
il o
Ġdiv ide
alse vol
sub mit
Ġp ole
ĠD R
pack ages
ĠA ud
Ðµ ÑĢÐ°
Ġexpect ation
la h
In tern
Ġvis itor
ound ing
ĠCh ap
Ġtit les
èİ ±
R untime
ÑģÑĤ ÑĬÑĢ
ĠÐº ÑĥÐ»
Ġscr atch
ĠÐ¿Ð¾ Ð»
Ġful fill
C ould
local host
ĠP rivate
åıĺ æĪĲ
Ġg el
Ġrec ol
A udio
Ġc obert
Ġd are
æĪ¿ åŃĲ
gener ated
ĠÐ¾Ð± Ð¸
ĠSm art
åģļ æ³ķ
Ġder ive
Ġwith draw
ĠÐ´ Ð²Ðµ
AN CE
p any
id ity
å¥³ åŃ©
w oman
æ» ĭ
Ġceremon y
ĠP ast
Ġfill a
ç»¿ èī²
æī °
æĽ ¼
éĻĦ è¿ĳ
ly n
ass ets
ĠP la
Ð²Ðµ Ð´Ðµ
ac co
yd ney
Eng lish
å®¶ äºº
C am
å¸ ħ
Ġar row
n m
Ġ urg
Ġintern acional
çİ°åľ¨ çļĦ
Ġdistingu ished
"> &
åŀĭ çļĦ
S yntax
Ġst ats
ĠDe ath
Ġr anges
æĦı åĳ³
Ġc yl
ĠB ang
Ñĥ Ð´Ð¾
st airs
Ġ{ '
he ll
Ġg ene
g iving
Ġexam ination
ur able
ĠFi refox
W ould
Ġes e
ĠA udio
åĨľ æ°ĳ
Ġdistingu ish
åįĬ å¹´
uc ions
conom ia
ministr aci
at en
æĶ¯ æĴĳ
Ġqu alsevol
ir i
br idge
Ġvol unt
Pro file
Ä ±
Ġstrugg ling
é ¬
ä½ĵ çİ°
ĠInt eger
det ails
ĠCh apter
Ġdi u
ĠBu y
ĠÐ¿Ð¾ ÑģÐ»ÐµÐ´
ig ues
çļĦ åİŁåĽł
, ...
ar ation
Ġun likely
F un
ĠS ong
Ġ. /
å¹³ æĸ¹
id os
at z
Ġinact ives
w iki
Ġf ed
ĠFore st
Ġb ast
OW N
Ġearn est
Ġnerv ous
ĠR on
Ġcle ver
al ways
Ġpack ed
ĠY e
ort ion
ĠSum mer
å£° éŁ³
ÑĦÐ¸ ÑĨÐ¸Ð°Ð»
ĠStud ies
Ġscript s
Ġroll ing
Ġoblig ed
Ġdecl are
Ġintegr ity
iz za
éķ¿ çļĦ
å·¥ åħ·
Ġsal v
Ġa ims
ile t
æİ¥ è§¦
ĠR ow
åľ¨ äºİ
ev in
åĸ ·
Ð¿ ÐµÑĢ
Ðĺ ÑģÑĤÐ¾ÑĢÐ¸Ñı
Ġviol ent
ne ed
å©ļ å§»
ĠSt atus
Ġmeas uring
() ));
Ġequ ilibrium
åħ´ è¶£
Ġincre ment
Ġleg islation
ed uc
ĠS quare
ve e
è®© æĪĳä»¬
or igen
ib u
RE D
ĠSw ed
æĸĩ ä»¶
æĬ¥ åĲį
Ġtim ing
assert Equal
Ġphr ases
Ġent ropy
æĹ º
å¥½ äºĨ
ĠS el
ÑīÐµ ÑģÑĤ
ho ok
J S
t body
Ġdiv ine
å¸Ĥ æ°ĳ
Ġdis hes
s ens
Ġneighb ors
av i
com ponents
Ð´ Ð¶Ð¸
å¤§ ä¼Ĺ
Ġb ones
D uration
å¯¹ è±¡
Ġch airs
Ġgot ten
Ġident ification
ĠBr idge
am ic
stand ard
un y
less sim
Ġwere n
å®ļ çļĦ
ä¸Ĭ éĿ¢
Ġ Å
Ġa lem
Ġhost s
ĠPro p
Ġdatas heet
Ġdomin ant
he nd
ar ance
ID E
éĥ Ń
check box
nd ef
res pons
Ġanc est
Ġperson ality
ĠÐĽ Ð°
å¼º è°ĥ
ĠBer lin
Ġphot ograp
Ġf ug
s ure
IN SEE
ĠO s
Ġman agers
D iv
ik ing
è´Łè´£ äºº
Ġdam aged
ther net
Ð½Ð¸ ÑĨÐ°
Bi ografia
by tes
ĠRe act
G ER
iz ers
è¿ĩ çļĦ
Ġsw ift
ĠConst ant
ĠI M
ĠE lement
èĪ °
Ġhypothes is
ĠHe aven
Ġvari ant
e in
at on
Ġpur su
èĢħ çļĦ
Ġpublic ar
ĠC u
ĠT ab
ĠIn f
h ou
Ġhor izon
Ġcert ified
åĬł å¿«
éĢļ å¸¸
Ġsh irt
ÑĤÐ° ÑĢ
ĠG UI
met ic
Ġam id
å¹¿ ä¸ľ
Ðº ÑģÐ¸
å°± æľī
Ġst om
Ġresist ors
ĠT er
Ġob ey
Ġme ets
lem n
Ġm art
åįİ ä¸º
Ġswim ming
up load
r ition
Ġvo ices
f ics
Ġarg ue
Ðµ ÑĢÐ¾
Ġwork er
ivers ary
ĠU lt
Ġmyst ery
å±± ä¸ľ
æ¼Ķ åĳĺ
Ġf lesh
hor izontal
re ts
ĠĠĠĠĠĠĠĠĠĠĠĠĠĠĠĠĠĠĠĠĠĠĠĠĠĠĠĠĠĠĠĠ Ġ
ç© ·
è½» æĿ¾
orig in
ĠTerm inal
ĠO il
è¯Ħ ä»·
ä¸¾ åĬŀ
Ġtransform er
å§ĭ ç»Ī
ĠG a
Ġd ont
Ġdiagram a
Ġindiv id
Ġrec uper
çļĦ åĲĮæĹ¶
Ġpod r
Ġcontact s
it err
$ :
ab ove
æĦŁ æŁĵ
osp el
om er
clud ing
pro ps
w ick
Ġcur v
Ġconcent ration
ç² Ĺ
Ġrid ic
ck er
çķ ª
ĠÑģÐµ Ð²ÐµÑĢ
y ect
ĠSh are
Ġhop ed
Sc roll
æĵ ¦
å¡ «
Ġch ips
ĠAn na
Ġcar rier
ĠPl ant
w ild
L at
C ard
ĠAp pendix
Ġn ost
Ġlift ed
å°Ĩ ä¼ļ
tr ace
è£ Ĥ
Ġbur den
M ill
æ¦Ĥ å¿µ
Ġrandom ly
ĠÐ² ÑģÐµ
Ġdel icate
åĭ Ĵ
Ġcross ing
and id
Ġok ay
H aving
tr igger
çĤ¹ åĩ»
æĪĲ çĨŁ
åŃ ¤
ĠEvery thing
Ġdise ases
ph ia
Ġens ures
Ġtow er
éĶĻ è¯¯
Ġt ile
Ġchild hood
äºº å£«
Ġcre u
æĪ¿ å±ĭ
Ġi o
s chool
Ġun e
ĠBr ad
Ġad jective
t c
ĠGeorg ia
Ġsu ite
æľº åĻ¨
Ġem ails
Ġexception al
semb led
Ġbo ats
Ġpet it
anc ell
bre w
Ġmight y
Ġacqu is
ĠÑģÐµÐ¼ÐµÐ¹ ÑģÑĤÐ²Ð¾
ĠP or
Ġsens ors
ĠLond res
ĠLem mon
ĠH al
view s
Ð¿ Ð°Ð½
Ġnot ification
Ġreg ards
æįŁ å¤±
ĠT otal
äºĮ åįģ
ĠAlex ander
key word
nt il
Ġsac red
åħĪ è¿Ľ
ä¼ ¯
le cci
æĪĳ æĥ³
ĠLin coln
bo ost
Ġnew er
Ġs ne
Ġto oth
equ ence
ser ies
Ġt ale
Ġsoon er
çĵ ¦
Ð¸ÑĤÐµ Ð»Ð¸
Ġsh orter
éĺ³ åħī
Ġtut orial
ph y
Ġattempt ing
ĠFil m
Ġconfigur ations
å¤ļ ä¸ª
Ġcomp aring
Ġreg ret
ĠN AS
Ð¼ Ð¾ÑĢ
çľĭ èµ·æĿ¥
Ġconver ter
Ġport al
ĠDav is
ĠE ric
Ġprem i
ug gest
Ġaccording ly
ÑĤÑĥ ÑĢÐ°
sv g
ĠOther wise
ur ia
Ġexhib it
å¥ ı
li est
Ġenv iar
Ġr ic
ĠD M
å®ĺ æĸ¹
re ement
èĻ «
N ombre
ĠN AME
ĠS ov
æı Ĵ
Ġchar m
æ²Ł éĢļ
ĠInst agram
Ġl on
i ated
åĩ Ŀ
AL SE
Ġpur ple
Ġh ierarch
åħ· å¤ĩ
çĽ ¾
ĉ _
Ġtext o
Ġimag en
ĠPack age
e u
ĠM ade
åĩº åİ»
Å į
Ġdepos it
ĠMark eting
b age
Ġcool ing
Ġentre prene
Ġgrav it
Ġemphas is
Ġre q
Ġfle et
p ages
Ġst roke
æľŁ çļĦ
Ġtravel ing
ĠFin ancial
Ġdis cret
M aster
Ġvac c
Ġinv ari
Ġtract a
Ġhe aling
ĠÑĢÐ°Ð· Ð²Ð¸
Ġdim ensional
çī ¢
ĠI L
Â ½
Ġadj acent
åĲį åŃĹ
Ġgrow s
Ġf atal
ĠÐ½Ð° ÑĨÐ¸Ð¾Ð½Ð°
æŃ£ æĺ¯
èµ ĸ
ç»Ł è®¡
z i
ĠDis play
Ġpen et
Ġt ons
æĤ Ł
Ġsche mes
ĠH ug
ical s
Ġworks hop
on ed
æĭħ å¿ĥ
Ġgener ous
Ġp df
Ġin ev
ç»Ļ äºĪ
Ġal ike
Ġport folio
d ic
Ġelect ed
Ġcon cluded
}{ (
script style
æķĪ çİĩ
Ġincred ibly
ĠE ffect
lib rary
$ };
Ġmunicip is
Ï Ģ
Ġch a
xx xx
Ġf t
ĠÑĤÐµ Ñħ
Ġgraph ic
, ,
cl ine
Ġret ired
æĮĳ æĪĺ
å± ¥
ĠO FF
M er
Ġcar p
ĠD NS
Ġpart ially
ors hip
Ġph ases
pro xy
é¢Ħ éĺ²
Ġnom bros
Ġsens itivity
å¹ »
ĠÐķ Ð²ÑĢÐ¾
Ġrel ating
L IC
çļĦ ä¸ľè¥¿
w riter
æĢĿ ç»´
ĠG ive
do es
Ġcur tain
Ġroll ed
ON G
ĉ} );
R oute
Ġc d
Ġun cle
Ġre ception
ĠR ights
Ġbound aries
Ġcent ers
Ġinter mediate
th r
ĠH ong
Ġvir us
ÐµÐ² ÑĢÑĥ
P rem
æľ¬ äºº
Ġqual ities
ç² ®
Ġproject e
ÑĤÐ¸ Ð²
ĠH ash
-> _
ac ht
ä¸Ĭ åįĩ
Ġanal ys
qu al
Ñī Ð¸Ñı
Ġphys ically
Mat rix
Ġpass ive
Ġl y
G EN
Ġb ills
M IN
B re
Ġno v
ĠPar liament
èħ º
åįĥ ä¸ĩ
ĠÐ¿Ð¾Ð»Ñĥ ÑĩÐ°Ð²Ð°
Ġob sc
support ed
Ġes cal
ĠD esc
Pro of
è¿ĺ åı¯ä»¥
é¥® é£Ł
Ġfold ers
l on
å§ ¿
ĠÐº ÑĢÐ¸
ĠBra zil
Ġweak ness
Ġcompens ation
ĠÐ¸Ð· Ð¿ÑĬÐ»
æ°ĳ èŃ¦
ov o
Î »
è¡ °
ad u
d in
Ġlist ened
Ġp is
Ġhand led
irc raft
ut t
ĠM ust
Ġt ens
Ġrestrict ions
avel ength
por ter
Ġhead ing
p ull
ĠH ou
æĲ º
ĠÐº Ð½Ð¸
ĠMem ory
an ia
\ )
; /
Ð»Ñı ÑĤ
els on
Ġhy brid
Ġtrans f
Ġimport ants
æĴ ŀ
\ }$.
f lex
Ġdist inction
Ġbur ied
ä¾Ŀ æ³ķ
ic ana
Ġloc als
Ġpro por
Ġst ations
ul pt
F inal
we ek
æĳ ¸
æĺ¾ å¾Ĺ
ĠQu an
ĠM ember
adel phia
ac r
Ġblock ed
ĠD est
Ġw re
Ġspl end
Ġa str
sh ared
Ġfinal ment
ect ed
è¿Ļ å°±æĺ¯
= .
ÐµÐ²ÑĢÑĥ Ð°ÑĢÐ¸
M ad
ĠA venue
ä¹ĭ ä¸Ń
èĸ ª
åĩ Į
Ġbe gg
è¿ Ł
i ations
ĠM ort
adv ant
ï¼ Į
Ġcur rency
Ġmer ge
h yd
st eps
çĶŁ ç´ł
R T
Y Y
Ass oci
met adata
Ġconstru ir
Ġvent ure
orn s
/ "
est ions
b ian
Ġ' ,
Ġaffect s
çĺ ¦
å¾Ī å¿«
Ġse am
ĠDes ktop
ĠY OU
Ġsm ell
å¤ļ æ¬¡
Ġf irms
æľī ä»Ģä¹Ī
Ġinj ured
{ "
Ġdecom position
O UR
ĠUn ity
Ġel igible
Ġf n
å¸Ĥåľº çļĦ
Ġ ÑīÐµ
Ġkn ife
ĉ (
Th rough
ĠT ODO
ur bed
Ġso b
Ġemot ions
ĠAn alysis
Ġmort gage
æ· ĺ
Sum mary
Ġl ang
Ġr ings
ĠSt op
Ġro de
æĻ Ĵ
Ġoccas ions
Ġman ifold
Ġk il
ĠIN T
h box
ĠÐ³ÑĢÐ° Ð´Ð°
B Y
Ġcatal ans
åľ° ä½į
aj a
er land
pro c
Ġju ice
Ġland s
éĹ ª
ĠM aterial
Ġw ifi
æ¤į çī©
Ġman us
Ġw ounded
int el
I AL
ĠB uff
fe ction
un ique
å¤į æĿĤ
Ġmole cular
æĿ Ń
ax y
hes is
Ġh unting
éĤ ®
ä¸Ģ åĲį
Ġinter active
o vers
cre ated
Ġam p
Ġfre ely
ing ham
ĠDet ails
Ġampl ifier
n iques
E uropa
W I
ä½¿ å¾Ĺ
Ġseu a
éļı åĲİ
Ġ( [
Ġsl ide
Ġindic ator
Ġph ones
Ġle mma
Ġ{ "
æľī å¾Īå¤ļ
Ag ent
Ġl ing
ĠPh oto
ho le
s quare
Ð¸ÑĤÐµÑĢÐ°ÑĤ ÑĥÑĢÐ°
Ġsustain able
å® ı
éĤ Ģ
ĠI ss
Ġshort ly
Ġr us
Ġfriend ship
Ġprint f
n atural
Pobl acions
ĠC reek
Ġclass ificaci
ĠAn ne
ĠPC I
Ġvol umes
è·¯ ä¸Ĭ
ĠS ale
Ġp oker
ur ious
ĠCons ult
re ction
ĠBr and
ĠÐĵ Ð°
Ġbat alla
å½ĵ ä¸Ń
ç² Ĵ
Ġpre st
ĠJ oh
) }_{
Ġpre ndre
ylvan ia
ÑĦ Ð°
mem ory
am pl
ap is
Ġcur ios
Ġphot ography
Ġret reat
$ /
Ġupd ating
po ch
ĠÐ¿Ð¾ Ð²ÐµÑĩÐµ
çĬ¶ åĨµ
ĠS U
Ġadv is
ex c
çĶµ èĦĳ
Ġan chor
éĺŁ ä¼į
èŀį èµĦ
å¾ Ĵ
Ġriv al
ĠC F
åľ¨ è¿Ļä¸ª
åģļ çļĦ
Ġl ately
åľ¨ è¿ĻéĩĮ
Ġdetect or
Ġat ac
res ources
pt ic
Ġbright ness
Ġover view
å¤ļ ç§į
Ġmid st
Ġp c
Ġr ush
ĠH art
Ð· Ð²Ð°ÑĤ
ĠB art
h ind
Ġgen ius
Ġsubsc ription
Ġcon secut
re lation
H OME
ex pr
ass a
s ources
ĠPen ns
sp ot
Ġad s
B et
Ġest ren
Ġre aches
Ġpl acing
Not Null
riz ona
Ġo tra
a id
Ġs orrow
ĠAct ive
Ġce iling
æ¬§ æ´²
}} )
og ue
ĠR ib
ĠIns urance
ĠMill er
Ġextract ed
Ð´ Ð²Ð°
åħ Ħ
ĠÑĦ ÐµÐ²ÑĢÑĥÐ°ÑĢÐ¸
ĠÐł Ð¸
TE XT
ĠDie go
Ġfru its
ap or
; ">
Ġt anc
Ġillustr ated
Ġc rop
ä¸į å¦Ĥ
iter ator
ph an
Ġll at
Ġte atre
Ġderiv ative
çļĦ ä½ľçĶ¨
Ġmin eral
Ġdest ruction
ĠC P
Not es
æİĴ åĲį
ÑģÑĤÑĬ Ð¿
ĠD utch
Eng ine
ĠAr thur
Ġs ang
Ġsubt le
æ° ı
Ġste ep
Ġp ause
Ġloc ate
B ased
Ġind ices
lib s
at el
Ġor b
ĠRem ember
Ġf ought
ĠR F
Ġfaith ful
D im
b matrix
Ġconv inced
n ut
Ġtim er
ĠA le
Ġvari ance
æĶ¶ çĽĬ
iv os
å°ı åĮº
èĪĴ éĢĤ
ĠF ast
ident ifier
ag an
Ġindust ries
ĠO ri
Ġutil ize
Ġn est
Ġy o
ĠD ir
ORD ER
Ġliter ary
è¸ ı
Per haps
ĠP u
Ġcar re
Ġrob ot
Ġrec overed
H ub
; }
Ġa j
ĠStud ents
]. [
ç¢ į
çļĦæĥħåĨµ ä¸ĭ
ie ur
Ġpra ise
ä¸» å¸Ń
Ġreflect ed
Ġbenef icial
Ð¿ ÑĢÑĥ
Ġde man
äººæ°ĳ å¸ģ
ĠN ic
Ġthere by
å¤ĸ è§Ĥ
] $.
Ġprom inent
Ġaff air
Ġfra ud
- )
ers hip
ĠM erc
Ġout line
èĽĭ çĻ½
è´« åĽ°
Ġmist akes
Ġd ret
ĠComput er
AC H
i ota
L D
Ġsmall est
Ð¼Ð° ÑĤ
å¾® åįļ
åį± éĻ©
ä¼ĺ è´¨
~~~~ ~~~~
n il
out ing
åĲĦ åľ°
Ġsem bl
ĠR ic
Ġus ando
Ñĩ Ð½Ð¸ÑĤÐµ
ugh ter
Ġton ight
ĠE astern
Ġapprox imate
re ng
Ġact ors
Ġlaugh ing
å²Ĺ ä½į
) })
Sh ort
loc ks
vol ume
ri en
ĠU E
Ġf isc
Ġcomm ut
b rief
Ġowners hip
åħ¨ æĸ°
çĪ ½
f etch
Ġj s
fl ag
cont act
iss i
Ġrest ored
Ð½Ñı Ð²Ð°
u h
Ġefficient ly
ĠO UT
Ġth umb
C reat
O ld
Ġdirig ida
Ġtreat ments
Ġcan onical
å¤« å¦»
Ġb ases
ĠT reat
Pe ople
it ious
Ġdiv id
t frac
D isk
av all
Ġdis order
éĻĲ åĪ¶
N P
èį ·
ÑģÑĤÐ° Ð²Ñı
ess in
> :
å½ ¼
Ġdiag onal
ç»´ æĬ¤
åıĳ è¡¨
! \
ie v
Est at
M ath
_ ->
empt yset
Ġcy cles
r us
äººæ°ĳ æ³ķéĻ¢
ä¸Ģ ä½ĵ
å¥³ å£«
l oss
A E
et al
ens aje
Ðº Ð»Ð¾
Rel ated
Ġtrasll ad
Ġveget ables
Ġball s
éľ ¸
Ġaw ful
check ed
ĠG ib
Ġsp here
ut her
re pository
get Name
Ġus eless
ĠE RR
Ġresc ue
Ġp ist
ĠC ra
ap ore
Ġt act
Ġg rain
Ġrece ives
w riting
æĭį æĳĦ
æĪ¿ åľ°äº§
Event Listener
Ġsp ray
ĠB IOS
bl ank
O C
Ġun w
Ġw ing
ÑĩÐµ Ð²
Ġw ider
i ot
åħ¬ ä¼Ĺ
Ġpref erence
Ġform ing
ĠArray List
Ġorient ation
web pack
Ð¶Ð° Ð²Ð°
Ġmon op
Ġt unn
æ´ ª
æ±¡ æŁĵ
Ġpro be
Ġarrest ed
f b
ĠD ream
æķĻ æİĪ
Ġpor que
Ġmat ched
Ġconsist ently
D IS
ĠM oh
Ġenthus i
Ġiter ation
ĠD a
Ġj ap
Ġt ear
Ġexhib ition
éĿ¢ ä¸´
åĽŀ åĪ°
çļĦ ç¾İ
ĠM ari
ĠMad ame
èĢģ æĿ¿
ä¼ ı
ĠÐĺ Ð½
Ð»Ð° Ð³Ð¾
äºº åľ¨
å¹² åĩĢ
ĠGold en
Ġsett lement
Ġembed ding
d n
tr im
Ġg aming
usal em
ĠÑģ ÑĤÐ¸
Ġcelebr ated
ĠÑĤÐ° Ð·Ð¸
Ġal ias
ĠG ets
ĠV il
T ip
å¹´ åº¦
åħ¶ å®ĥ
æĬ ĳ
æ° Ľ
è¿Ĳ è¾ĵ
åĲ ¹
ĠP el
riv en
Ġdesign ing
pl oad
pe are
lo pe
Ġform ats
Ġf ert
æŁ ±
ĠÐ¡Ðµ Ð²ÐµÑĢ
ass oci
çº§ åĪ«
fig ures
Ġtown s
Par se
Ġst iff
Ġw ings
Ġtrans c
Ñģ Ñĥ
det ail
Ġt ends
col lection
ol en
M s
}[ \
US B
Are a
U na
å¤ª éĺ³
Ġcos m
ure tat
Ġcir cles
Ġprov isions
ĠÑĢÐ°Ð±Ð¾ ÑĤÐ¸
Ġelimin ate
H ence
Ġre ven
Ġacab ar
Ġincl o
Ġelement o
Ñİ Ð·
èµ° åĬ¿
ob re
con v
Ex ecut
n om
ĠRe lease
Com pat
ro ck
Ġpref erences
Ġlo ops
Ġaccord ance
Ġdeterm ination
ĠB ased
Ġalg un
ph ase
ĠP in
ĠH ub
B T
Ġm d
F act
Ġsche matic
h ill
Ġn ens
Ġ ug
å¸ĥ å±Ģ
é¥ ±
Â ¿
enc il
^* $
ĠLear n
éĥ½ æ²¡æľī
Ġaccess ories
ĠMOS FET
Iter ator
Ġwor ried
col lect
éĥ ģ
Ġexha ust
ä¸Ĭ åįĪ
Ġwr apped
ĠÐ·Ð° ÐµÐ´Ð½Ð¾
Ð»Ð¸ Ð¹
Ġmagn ific
re ls
ex press
ar reg
èµĦ æł¼
Ġsab er
äºº åı£
Ġens uring
H ope
ic it
Ġresult ed
ĠC it
Ġbless ed
Ġcon vention
ĠD ol
Ġpr icing
M apping
g is
al one
P od
å®£ å¸ĥ
More over
er os
}} _{\
ä¹Ł åľ¨
sh ire
åĶ¯ ä¸Ģ
sl ash
Ġdeix ar
ens us
vel ope
cy cle
Ġw ins
Ġpros per
vari able
Ġvess els
Ġcompl iment
åİŁ æĸĩ
script size
Ġinst inct
OR K
Ġapare ix
é«ĺ åº¦
Ð¿ÑĢÐ¾ ÑģÑĤÑĢÐ°
r ays
Ġspeak s
W HERE
Ġloc ks
m ics
ĠSt ation
ĠGall ery
Ġle ak
? >
z ar
RE G
ĠÐ²ÑĬÑĢ ÑħÑĥ
Ġshe ep
ĠP aper
ÐµÑĢ Ð¼Ð°Ð½
ĠÐĽ Ðµ
Ġimpress ed
sh ine
ä¸ĭ è·Į
é© °
æ® ĸ
roll ers
èĩ³ äºİ
Ġenh anced
Ġch ampions
r n
off ice
Ġcap ability
ĠV II
pol icy
Rep ository
at oes
Ġclos est
Ġinvent ory
ĠA DC
Ġne at
t own
pro vider
ĠMass achusetts
Ġover flow
Ġsec ured
Ð± ÑĢÐ¸
çļĦ ä¸»
p te
Ġdir ty
Ġgram mar
t ow
S ol
ĠCast ell
ĠO wn
A rm
ĠMem bers
éĺ² æŃ¢
Ġr g
Ġelectr ons
ĠA k
ä¹Ł èĥ½
un ter
Ġper pet
D ig
am on
ĠSeg ona
Ġs ends
Ġres erve
Ġdemand ed
Ġfe as
A ST
ĠQu ick
,\ \
æŃ¤ æĹ¶
ĠMan uel
çº· çº·
è§Ĵ èī²
] =
Sing le
S ocket
&= &
Ġpo em
ĉ t
) ">
Ġsm iling
ä¿Ħ ç½Ĺæĸ¯
ĠÐ¾ÑģÐ½Ð¾ Ð²Ð°
Ġaltern atives
æĪĲ åĳĺ
Ġb ore
æīĭ æ®µ
Ġrom antic
fin ite
Ġf erm
Ġpe er
az e
Ġtre asure
ĠSar ah
CO MP
Ġenorm ous
ct er
å¯¹ æīĭ
riv acy
c ounter
Ġin ject
be an
Ġdisappe ared
Ġil legal
') );
Ġar med
or ic
Ġsett le
Ġchar set
Ġim plied
W H
Ġsol s
M Hz
Ġhead ed
Ġc arg
Ġhor ror
Ġmer ch
C ast
çĲĨ æĥ³
ail ing
æĢ» ç»ĵ
Ġp ig
led g
Ġcam ps
AV E
Ġtro ben
ut ats
Ġc ic
ĠÑĢÐµ Ð²Ð¾Ð»Ñİ
æĦıåĳ³ çĿĢ
W orld
uck et
Ð¿Ð¾ ÑĢÐµÐ´
ÑĢÐ° Ð½Ðµ
S erv
ĠÐ¸Ð¼Ð° ÑĤ
Ġd ad
Ġobt ener
è´¡ çĮ®
æĳ ĩ
prec ated
log ger
ĠWe bsite
ĠÑħ Ð°
ĠL en
ĠP ok
Ġliter al
Vol ume
d ings
ĠSup pose
d irection
Ġde ber
Fr agment
Ġcap it
ateg ories
ĠPol it
ex e
A li
Child ren
el ves
Ġref resh
E mail
ord on
Ġim plicit
ad ium
Ġal i
Ġpo ison
ç¢ Ĺ
Po inter
å°½ éĩı
typed ef
Ġeng ines
Desc ripci
èŀį åĲĪ
Ġm g
æĹ¶ åĪ»
th rows
sh a
Ġpenal ty
$ _{
ĠS ho
! [
st ock
fun ctions
Ġst raw
Ġg rief
ĠQ uality
coll apse
ĠCl in
w p
Ġdefin ite
æĤ ¬
è¿Ļ ä¸¤
Ġconcent r
Ġterr itory
ĠÑģ Ñĥ
. (
Ġthrow ing
Ġshe d
èĤ¡ ä¸ľ
inn ed
olog ist
å°ĳ å¹´
Ġlab our
ac ular
ĠÐ² ÑĢÑĬ
èĥ ĸ
ĠK enn
%% %%
c atch
ĠFred er
ĠÐºÑĢÐ° Ð»
Ġ\ ]
Ġmitj ana
s r
ĠV iet
Ġrel ate
ĠÑĤ ÑĢÐµ
ĠS ay
Ð³ÑĢÐ° Ð´
Ð¹ ÑĤ
T om
èĩª ä¸»
Ġflex ibility
ĠT ool
ĠMedic ine
ĠD aily
ĠÑģ Ð²ÑĬÑĢ
UP DATE
ĠOut put
I Z
ĠH an
ä¸Ģ åľº
Ð¼ÐµÐ½ ÑĤ
h ref
ĠE uropa
ĠÐł Ð°Ð·
å¾· åĽ½
Ġsim ilarly
Con struct
ou ri
ott age
ar ra
ä½ ©
ĠA ge
Look ing
Ġaward ed
å¸¸ è§ģ
L in
é¬ ¼
Ġch op
ĠK itchen
æ¸© åº¦
T Y
Ġop acity
or ical
ibli ot
tikz picture
Ġgaire b
ueix en
F low
Ġ" '
Ã§ Ã³
ĠE asy
Ġseg ments
Ġgather ing
æĭ ĸ
gu ard
åĮ Ģ
Ġjew el
æĺ¯ æľī
G P
Ġconsist ency
ĠL ion
çī µ
om ed
ĠÐĴ ÐµÐ»Ð¸
Ġactual ment
Ġalg una
Ġanten na
ĠA st
t age
è£ħ å¤ĩ
Ġas leep
Ñĩ Ð½Ð°ÑĤÐ°
Ġstep ped
Ġ\ (\
Ġfisc als
æ¼ ı
Ġshe ets
ĠÑĢÐµ Ð·
çħ ¤
Ġmut ual
åĳ³ éģĵ
Ġdivers ity
ĠCustom er
F ore
ist re
Ġcomput ational
Ġd ull
> =
ĠN eg
Ġt mp
Vari able
rop ic
ĠB arn
ĠE D
èĢĮ åľ¨
all as
Ġretire ment
çļĦ æĦŁè§ī
P ut
atter y
Ġrec ycl
çº µ
ĠÐ» Ð°
ĠD ead
Ð´ ÑĢÐ°
Ġcomb inations
ĠCol onel
P ower
Ġvict ims
Ġd uc
Ġt issue
äºº çī©
ÑģÑĤÐ²Ð¸ Ðµ
Ã į
Res ources
Pro tocol
br and
Ġed ici
Ad min
L inux
Ġfre q
D river
Ġsc ream
ÑĢÐ¸ ÑģÑĤ
form ing
ĠMult i
ar ms
bu ilder
ä¸ Ī
Ġconnect or
p ip
äº ķ
äºº å·¥
Ġdi ab
ï »
ĠO ak
ĠH op
éŁ© åĽ½
ĠÑĢÐµ Ð³Ð¸
ĠAr duino
Ġfirm ware
g row
æ¶ī åıĬ
| }{
æĦŁ è°¢
Ġs lic
çĥ Ĥ
c ant
æĸ¹éĿ¢ çļĦ
Ġpure ly
Ġpick ing
æĤ ¦
Ġprincipal ment
Ġfarm ers
Ġso lemn
ä¼ĺ æĥł
Ñ ĸ
æŃ¦ æ±ī
ä¹Ł å¾Ī
Sup pose
ĠÐ¿ÑĢÐ° Ð²Ð¸
ĠFr ame
ĠP erm
Ð½Ð¸ Ð¼Ð°
Ġpat ri
ĠÐ¿ÑĢÐµ Ð²
ĠA wards
ÐŁ ÑĢÐ¾
th s
Ġnot able
Ġassist ant
Ġb ree
èī¯ å¥½çļĦ
åĩº åı£
Ġsent iment
Ġind irect
è¶³ å¤Ł
Ġhost ed
ĠW at
æ¢ ¯
IM IT
Ġdig it
M AN
Ġis lands
ri vers
ĠAp ply
æ¢¦ æĥ³
u etooth
St ar
det erm
m ates
Ġc ient
ĠPerson al
Ġexpect ing
ä¾ĭ å¦Ĥ
Ġarch ive
Ġass ol
å·¥ä½ľ äººåĳĺ
Ġin herit
}) }
ĠAl ice
Back ground
çĶŁæ´» ä¸Ń
U LE
ĠPop ular
and re
SC R
Ġespany ola
ĠÑĤÐµ Ð·Ð¸
L IN
ä¼ļ ä¸Ĭ
Ġsc ulpt
Ġto ss
un ks
ific ally
] $,
ĠCar l
m ouse
tic ally
ĠÐĳ Ðµ
Ġbrief ly
Ġ< -
she et
riv ed
g ive
ĠÑħ ÑĢÐ°
Ġm os
Ġins pect
è®° å¿Ĩ
EE E
Ġfart her
ĠAl tern
Ġsurv ive
Ġamb ient
br as
ĠO ptions
ĠG arc
ĠM Hz
con duct
ĠAir port
Ġfif teen
Ġin sect
cl uster
iam i
Ġcar ries
Ġel la
}} .
çļĦ éĤ£
CT YPE
on z
Ġp overty
ĠAdministr ation
sc ribe
Ġwal ks
å¼ķ å¯¼
Ġw it
Ġdelight ed
V R
b ie
Ġpurch asing
Ġexam ined
ag netic
Ġbas eline
Ġw ound
Ġst em
Ġkne e
Ġse asons
um ption
ĠAl bert
Ġthread s
Ġcurrent s
su v
assert Equals
çļĦ åīį
Ġf on
éŃ Ĥ
l ag
Ġlike wise
is ons
æĮĩ æłĩ
çĶµ æ±ł
åħ¬ è·¯
ust ral
Ġdist ances
ĠK ong
é¼ĵ åĬ±
Ġv ine
å§Ķåĳĺ ä¼ļ
ĠT ony
}\ ,\
ĠC M
åĩ ¤
Ġr aces
æĶ¾ åħ¥
Ġprincip is
ï» ¿
Ġc ort
Ġchar ity
Ġadv ise
Ġbel t
çİ »
Ġreal istic
m ans
em os
Ġlo ver
Ġnon linear
t ags
Ġrequ iring
UT H
g iven
æĮ ĸ
ĠIll inois
Ġpain ful
å¼ Ħ
Ġespany ol
Ex pr
Ġ' \
Ġchar ming
Ð³ Ð»Ðµ
dist ance
ĠSte el
ext ension
O O
Ġ} }
åł Ĩ
è½ ´
cf g
ç»Ħ åĲĪ
ust a
In f
p air
èī ³
ĠResult s
çĽ¸ åºĶ
Ð¶ Ð½Ð°
ĠĠĠĠĠĠĠĠĠĠĠĠĠĠĠĠĠĠĠĠĠĠĠĠĠĠĠĠĠĠĠĠ ĠĠ
å®ŀéĻħ ä¸Ĭ
Ġhand ed
Ġpunt s
p ies
Ġbal anced
look ed
J o
Ġinter section
Pr ice
ç²¾ å½©
bar a
Ġv oy
Ġband width
Ġsacr ifice
h uman
ĠCop a
è£ Ļ
iss on
vis ible
Ġmes os
he ast
pos ici
ç»Ļ ä½ł
P resent
unt s
Ġwe igh
ed ifici
Ġd ancing
ĠT ro
Ġtyp ename
Ġdr inks
èĴ ¸
Ġvari ed
ĠL LC
æ¸ł éģĵ
Ġto mat
Ġd ental
ĠS ure
up dates
gr ay
l iter
Ġcar riage
J ul
Ġspecial ist
act ivity
Ġgent lemen
çļ Ĩ
Ġappro ached
Ġcour ts
par ser
Ġir rit
us uario
tab s
Ġview ing
VAL UE
ä¸¾ è¡Į
Ġed ited
ĠK ind
Ġwhe els
Ġregul ator
èĳ ±
© Ġ
ä¹¡ æĿĳ
Ġg ig
ĠPr ime
t f
Ġtransfer red
Ġtype of
Ġvirt ue
A K
Ġdom ains
ĠÑĩ ÑĢÐµÐ·
Ġmodel ing
ach ment
Ġremark ed
ĠSal v
." );
Ġsignific ance
Ġab ilities
de cor
Ġreal itzar
Ġestabl ir
DE FAULT
Ġref uge
åģļ äºĨ
multi row
ĠS ydney
ç¥ŀ ç»ı
ĠÐ² Ð°
Ġm ai
ĠRepublic an
Ġne gl
Ġaccom pany
ĠC ass
Th ose
ĠB erg
ia h
Ġbron ze
hist ory
urs or
LA Y
Ġv ic
ĠMic hel
Ġtele phone
ĠB ag
ĠN um
Ġcent uries
pl ain
Ġassoci ate
ĠT emple
Ġsl ots
çļĦ æĸ¹æ³ķ
R end
ĠCh all
Ð± Ð²Ð°
ict ures
ĠH erm
Ġ$(' #
st ates
ĠDe ep
ick ing
Ġserv ants
Ġcompar able
ĠS ER
Ġdepart ure
Ð± ÑĢÐµ
is ure
èĶ ¬
ĠIO Exception
çļĦ å½±åĵį
rad io
Ġexc use
Ġappe aring
Ġjur is
Ġfocus ing
Ġm ans
Ġun fortunately
hav ior
m ont
ĠAr ticle
æİ¨ å¹¿
Ġp ity
ĉ break
ĠLew is
och astic
qu ir
ĠH ttp
ĠÑģÑĬ Ð¿ÑĢÑĥ
ARN ING
Ġdecl ine
fr ag
sc ore
Ġprodu ir
load ing
é¡º åĪ©
ĠÐ¸Ð¼Ðµ ÑĤÐ¾
Ġperform ances
çĹħ æ¯Ĵ
Ġa wards
Ð³ Ðµ
Set ting
ĠD ave
quar ters
L ight
Ġqu oted
ract ed
Whe ther
umer able
Const raint
time out
Ġtrem end
ä¼ł æĴŃ
æĽ ¹
Ġemploy er
ĠD river
ast y
çľŁ æĺ¯
Ġproport ional
Ġleg acy
Ġarrang ements
Ġref res
Ġcolle agues
ex it
Ġsh ar
Date Time
Ġfollow ers
g rav
Ġkne es
ĠCap ital
ol ute
Ġcan al
èĥĮ æĻ¯
Ġsimpl er
Ġthem es
Ġmanten ir
å·¥ä½ľ çļĦ
çİ¯ ä¿Ŀ
Ġindepend ence
Ġatt ending
éĩį åºĨ
H ot
st age
ĠStud ent
Ġinstall er
xy gen
al ias
Ġr it
al most
Ġh ace
ffff ff
W elcome
åĽŀ æĿ¥
Ġcast le
Ġgener ations
itect ure
D ATA
Ġdis charge
l ings
è®¤ å®ļ
Ġh oney
un da
_ )
S pan
Ġz oom
M ove
ĠThe atre
éĥ½ åı¯ä»¥
ĠVict oria
Ġabund ance
ÑĢÐ¸ ÑĩÐ°
Pro ps
as is
Ġst airs
Ġj ove
ĠMus lim
add ed
p he
Ġc tx
Ġlo b
Ġcontro vers
ĠÐ¿Ñĥ Ð±Ð»Ð¸
att ributes
r age
ress es
ĠL am
g ov
Ð²Ðµ ÑĢÐ¾
ĠÑĢÐ°Ð·Ð»Ð¸ ÑĩÐ½Ð¸
ĠÐŀ Ñģ
Ġl un
ĠE C
sc al
Ġint end
rt l
M us
ĠD ue
D rop
ĠGovern or
Ġhol idays
S N
ĠOrig inal
å·ŀ å¸Ĥ
os os
Ġpresent ly
T M
Ġobtain ing
ĠÐºÐ° ÑĢ
W arning
Ġpip eline
ons ieur
Ġauthentic ation
ĠF ix
Ġkind ly
ĠB ody
Ġr ac
Ġun iqu
UR I
b ast
åİ ¨
æīĢ åľ¨
æµĻ æ±Ł
Ġins pection
anche ster
Ġnarr ative
ĠSta ff
Com put
Ġse ized
ĠUs ed
ĠSte am
Ġstreng then
Ġlic ensed
ĠD rop
åīį çļĦ
Ġmac ro
ÑĤÐ¾ Ð²
Ġag ed
Ġref use
Ġfocus es
Ġi ii
ĠS UM
Ġnum ero
Ġpro d
m art
Ġfem en
Ġpres erved
Ð¡ Ð»ÐµÐ´
è¯ģ åĪ¸
Ġir re
Ġmen or
th ird
Ġal umin
å¤± è´¥
Ġbl end
P layer
ch art
ĠCom ments
ÑĬ Ðº
ĠAut om
Ġr uta
Ġpush ing
h h
èī ¾
Ġcomb in
Ġtempl ates
Ġan om
Ġlib eral
al ph
ĠD ur
ot ive
og s
ĠJ am
neg ative
Ġpr ince
allow ed
iz ard
del ay
ĠM ode
Const ants
ub s
çĽ´ åĪ°
c ers
v n
ĠConst itution
build ing
Ġrep ublic
Ġstom ach
Ġgovern or
Rev iew
æģ °
Ġche aper
in th
G ame
ĠF R
Ġcol lections
ir ical
OP T
S W
Ag ain
s leep
log o
åĩº çĶŁ
R ob
é¢ Ī
ĠChrist ians
ĠA I
ĠAs k
ow a
ĠB rian
ĠTor onto
ĠPal est
ä¾Ŀ æĹ§
F unc
ĠCor p
Ġfail ing
Ġk in
æĻ ĭ
Ġneut r
æĢİ æł·
ĠVal id
ĠWi Fi
ĠI gn
umb led
ri el
par allel
hav ia
æ¶Ī éĺ²
Ġ$ ,
Ġch ains
ĠAs ian
P Y
Ġmac OS
ç»´ çĶŁç´ł
er able
im ag
ĠProfess ional
Ġmy sq
Ġsm oking
ĠFl ore
è¯ģ æį®
Ġshel ter
S creen
hel per
ĠLO G
Ġ Ä
Ġmeaning ful
Ġmax imal
çĽ Ĩ
w en
Ġfig ured
æĪĲ å°±
ss h
again st
un al
Ġun necessary
min ute
Ġinsert ed
A mb
Ġsl ice
Ġres ident
Ġre ign
Ġevident ly
Ġs our
(' /
çĴ ĥ
åį³ å°Ĩ
trans ition
Ġrg ba
ĠR yan
Ġtyp ed
AR R
æĪĲ æŀľ
Ġge ometric
Ġgod s
ĠS in
ĠP od
ÐºÐ° ÑĤÐ¾
Ġlog ged
ĠP ic
empor ary
Ġd pkg
ĠO cean
ETH OD
ĠV ien
åĲ¦ åĪĻ
Ġland ing
Ġindepend ently
E ffect
direct ory
L eg
çĸ ı
ĠJord an
ĠW inter
Ġtri ps
Ġp g
tes y
ĠJew s
fortun ate
^ ^
Ġrele ases
èį¯ çī©
Ġtrium ph
Ġcompan ions
ÑĩÐµ Ð½Ð¸
Ġfort un
çĨŁ æĤī
Ġvolunte ers
Ġper ceived
Ġfem in
Ġr ab
const ant
Ġhands ome
ç® Ń
ĠF REE
NavBar Cell
å®ļ ä½į
Ph oto
ĠH ans
ĠF ried
B rowser
æĪĳ æĺ¯
Ex per
åı¯ è§ģ
alt ies
W atch
ä»İ äºĭ
ÑĢÐ° Ð±
Sym fony
åĪĨ ä¸º
+ (
ä¸į å¤Ł
æŁ ľ
èĳ£ äºĭ
å¼ķ åıĳ
ins ic
Ġstream ing
r nia
ĠG re
onom y
Ġg rip
Ġs ap
year s
çľŁæŃ£ çļĦ
çĥ ¤
apt ure
èĩ³ ä»Ĭ
ĠMot or
fol der
c reat
ĠM ars
ĠL ux
æ² Ī
IM ARY
Ġindex es
å¥ ī
ĠJ u
çĭ¬ çī¹
ĠSt ream
ĠSt yle
ĠM oon
Ġpresent a
)) \
Log in
è® ¼
ÑĢÐµ Ð´Ð¸
ĠRep resent
ts d
éŃ ħ
N UM
EL D
Ġreject ed
Ġwhere ver
ĠColumb ia
d h
S em
Ġcor ners
es qu
bour ne
ĠIm port
çĮ Ľ
Ġpurs ue
alth ough
Ad v
ĠS end
æĹ ĭ
ĠProduct s
Ġsole ly
åľ¨ çº¿
ĠP ope
Ġsh a
iff s
ĠVict or
Ġbelong ing
ä¸į ä½ı
Ġdeg ener
DO CTYPE
Ġscient ists
Ġdram atic
At tr
Ġcolumn a
ÐºÐ° Ð·Ð²Ð°
arr ison
ĠSt orage
x is
Ġrest riction
ĠÐĶÐ¸ Ð¼Ð¸
æĭ ³
Ġcatal ana
Dom ain
exp and
ĠÑĤÐµ ÑĢÐ¸
........ ........
ĠÐĵÐµÐ¾ÑĢ Ð³Ð¸
Ġcond itional
Ġalem any
ĠC T
t ouch
ĠR ab
Reg ion
è¦Ĩ çĽĸ
Ġrem arks
Ġapproach ing
S pr
uten ant
D U
Ġt we
åħļ åĳĺ
LE TE
ĠSaf ety
Ġir regular
æĪĳ å°±
æĶ¹ éĢł
Ġprof ound
ä¸Ģ è¾¹
Ġdev il
è®¨ è®º
ab ul
Ġpod ria
Ġphenomen on
g ue
Ident ifier
ĠC ut
}} }\
column width
Ġre plic
è¿Ĳ çĶ¨
éĿŀå¸¸ çļĦ
is ations
Ġref erenc
Ġcomp rom
æŀ Ŀ
ĠLa ure
Ġfro zen
Ðļ Ð¾
comp ile
ĠE le
ic ide
Ġin clusion
Ġrepresent atives
éĿ© åĳ½
ĠS elf
ä¸Ģ ä»£
b ia
V AR
Ġf ence
åĳĪ çİ°
Ġdef ining
Ð² Ð¸ÑĤÐµÐ»
l inks
Ðļ Ð°
Ġst abil
Ġg ross
Ġo ct
des ign
å§ ĳ
}) =
ĠT el
ho o
æĺ¯ æľĢ
ĠS amsung
Ġrad ial
dis able
akes peare
worth y
Ġsobre tot
Ke ep
t oc
ÑĩÐµ ÑģÐºÐ°ÑĤÐ°
ĠRec ords
Ġhar vest
reg on
Ð² Ð½Ð¸ÑĤÐµ
Ġmed i
ĠVol ume
per a
ĠT engo
te ch
Ġsitu ated
ĠDon ald
{ %
object s
æĪĲ éĥ½
ĠG as
èµ ĭ
ĠMA X
ä»ĸ åľ¨
æº ª
N odes
åĪ© äºİ
is ible
ä¼ĺ åĮĸ
ĠE S
ĠI raq
Ġc ousin
ym er
li ver
Ġcons olid
ren a
m el
g nu
Ġinnoc ent
Ġobject ives
or dered
åĵª éĩĮ
DE BUG
ä¼Ĺ å¤ļ
CE PT
Ġmechan isms
ĠF ailed
pl ant
åĳ¼ åĲ¸
S cale
in valid
ĠL I
Pro gress
æĪĺ äºī
ä¸Ĭ ä¸ĭ
Ġpassion ate
Ġn ous
çĨ Ĭ
Ġinter pre
ĠL lu
è£ħ ä¿®
me asure
ĠH appy
ĉ s
åħĥ ç´ł
Ġpl ates
Ð»Ð¾ Ð²Ð¸
D OM
Ġadequ ate
ĠNE W
Ġcor on
æĪ Ĵ
Ġhope fully
Ġparticip ation
st ation
ĠHolly wood
Ġcontract s
r and
ĠT ru
ĠRes ponse
k ill
Ġf are
Ġe rect
the w
åĲĦ ç±»
Ġabs ent
Ġa jud
script ors
ĠJer usalem
Ġinv ite
Hist ory
ĠB ou
è¡Ģ ç®¡
åĪļ åĪļ
Ġsl aves
eng u
G reen
èµ· äºĨ
çĸ ²
ant i
m f
å·¥ èīº
r ules
æĢ ¨
ĠCo oper
Es gl
ĠD al
è§Ħ åĪĻ
Ġrelig i
åŃ£ åº¦
æī© å¤§
ob le
ĠÐµÐ·Ð¸ Ðº
En um
HT TP
ÑĢÐ¸ Ð¹
ĠT rib
åı¬ å¼Ģ
Ġr h
Ġexpl oring
Ġdirect ories
ex pression
M al
, [
+ "
Ġvalid ate
qu ote
Ġpron ounced
ĠÐ¸Ð¼Ð¿Ðµ ÑĢÐ¸Ñı
åĲ« æľī
Or gan
çļĦä¸Ģ ç§į
av an
Ġsize of
Ġt ape
åĬł å¤§
Ġl iv
Ġtr aces
çº ¤
por ters
ias m
ĠM osc
çĲĨ çĶ±
æĺ¥ èĬĤ
L en
mer cial
ĠÐ¢Ð¾ Ð²Ð°
Ġ ÑĩÐ°ÑģÑĤÐ¸
ĠR ot
ä¸ī å¹´
Ġdiss ol
Ġclass room
Ġdim in
Ð¿ÑĢÐµ ÐºÐ¸
Ġst ays
èģĮ å·¥
Ġz e
Ġin con
åıĤ æķ°
( __
Ġc ups
@ {
ĠMag azine
åĪ° çļĦ
he ro
ä¸įå¾Ĺ ä¸į
sw er
Ġst er
ĠCas a
Ġto k
enced or
Ġl od
es i
ra ctions
p d
Ġcurv ature
cor rect
ĠW is
iss ip
sequ ence
Ġdr ift
Ġde pression
Ð¶ Ð½Ð¾
aut ilus
Ġn urse
Ġbare ly
ĠH ind
ĠL ock
Ġcam eras
å½» åºķ
Ġacknow ledge
Ġmes h
w arning
çªģ åĩº
å¯ º
éĿĴ æĺ¥
Ins ert
Ġident ifier
Â ´
te res
Ġfr on
Ġcult ura
Î ·
) ->
ĉĉĉĉ ĉĉĉĉĉ
for ced
c ame
s ch
è´¸ æĺĵ
Sele ction
åĪ¶ å®ļ
Ġform aci
Ġesc aped
Ġbuy ers
gener ate
Ð¼Ð° Ð½Ð¸Ñı
ig ious
åŃ©åŃĲ ä»¬
ĠÐ¥ Ð¾
ĠÐ¼Ðµ ÑģÑĤ
ir us
H L
æĪĲ äº¤
åĲ¸ æĶ¶
S ir
å¼º åĮĸ
ä¸Ģ ä»¶
Ġrev ista
ĠM ach
Ġtrop ical
ĠS now
k ov
Ġdes erve
le ans
Ġstruct ural
ĠB ush
= [
f w
Ġpro position
Ġsearc hed
ä¸Ĭ è¿°
ather ine
Ñĩ ÐºÐ°
ç»Ļ æĪĳ
F LA
èģ ª
åĮ» åŃ¦
çĻ¾ å§ĵ
hed ral
ĠPortug al
Wrap per
ĠFl ash
ĠSim ilarly
ĠStud y
å½ĵ å¹´
æµĭ è¯ķ
ĠH il
ä¸Ģ è·¯
å¤§ æ¦Ĥ
le ading
Ġre par
Ġfl ip
later ra
è¿ĩ äºĨ
c op
åĬł å·¥
, {\
ĠEx change
est one
Ġo bert
Ġcomp art
lt im
he alth
Ġb aking
Ġtr ap
ä¸Ĭ åİ»
Ġintellig ent
æ¡ Ĥ
n odes
Ð¿ÑĥÐ±Ð»Ð¸ ÐºÐ°
ĠP ho
AT CH
Sc ore
ĠÐ°Ð» Ð±Ñĥ
ä¸ĵ é¡¹
Ġtien es
Ġperform s
Ġmoder ate
ÑĢ ÑĤ
ĠV el
Ġfe ver
æľ¬ æĿ¥
ili ary
Ġcas os
ĠTe ch
Ġstream s
Ġparticular s
Ġmur m
Ġco il
pro tocol
ĠW indow
Ġhung ry
Ġa ircraft
ĠP itt
Pref ix
Ġaccount ing
." ,
\ ;
Ðľ Ð°
m itting
ä½ľ ä¸ļ
Ġeas iest
Ð¿Ðµ ÑĢÐ°
ĠPhil adelphia
M art
æ¶ µ
q t
L ife
Ð½ ÐµÐ½
Ġtri als
Ġorgan isation
ĠMin i
Ø ±
ĠCast le
B oot
ĠP ir
Ġd t
Ġelectron ics
Ġperiod ic
th ings
cal cul
IN TER
Ġc attle
ĠQu ery
ĠĠĠĠĠĠĠĠĠĠĠĠĠĠĠĠĠĠĠĠĠĠĠĠĠĠĠĠĠĠĠĠ ĠĠĠĠĠĠĠĠĠĠĠĠĠĠĠ
éĢĤ åºĶ
ç³ Ĭ
With out
Ġhuman ity
Ġg ains
Be an
æľ µ
Ġdeterm ining
e ur
Ġbet a
Ġbad ly
Ġt ones
o ir
ĠSing le
Ġ' %
Ġproceed ed
> "
Ġgener ates
å¨ ľ
ab aj
å¹³ è¡¡
Ġmet ers
Ġtable t
Ġve u
> '
al gebra
Ġadv ised
Th ree
Ġshort cut
Ġequ als
Ġthro at
éĶ ¦
æ²» çĲĨ
Un known
ç»Ļ äºĨ
se ver
ĠF uture
Ġun install
Ġat oms
Vis ible
l b
Ġvol ts
Ġr anging
al ia
ere n
i ances
Ġpet ita
Ġestud i
th ick
ol ation
no DB
ä¹ ĥ
x id
p ag
ĠS L
F OR
am ount
Ġ ×
Ġtr ash
ĠÐ² Ð»Ð°
æ¯ı ä¸Ģä¸ª
te am
nes ota
Ġseg uir
L java
Ġimportant ly
xim adament
Ġwon dered
æİ¢ ç´¢
ĠLook ing
Inter val
Ð¢ Ð¾
è¯ī è®¼
æĥ³ æ³ķ
ĠSen ior
Ġtrop es
sc an
Ġm old
Ġinf lation
May be
ĠRog er
Ġcomp ost
Ġmet er
ĠLED s
éħ ±
Ġx ar
D urant
ĠTH EN
\ }$,
c ou
Ġden y
Ġaccur ately
r ors
Ġh itting
Ġre but
Char acter
m ons
ĠS Y
=" $
åİ ī
ul ent
ĠD isk
test ing
W r
d anger
ĠM ove
Ġdif er
å¦» åŃĲ
åľº æĻ¯
Ġd x
ost ics
ĠB C
Ġse q
ĠBo olean
form er
re ach
ĠRes ources
D iff
ĠAp pro
Ġ icons
or ca
ĠÐ¸Ð· Ð²ÐµÑģÑĤ
M c
ar lo
Ġacc used
Ġinf ection
æī¶ è´«
V ICE
Ġ ^{
ĠId ent
Ġcre aci
a ired
Ġlik elihood
å¼Ģ å¿ĥ
ie val
iss et
çŃī å¾ħ
ĠLe ft
Ġun t
, (
Ġch urches
ĠÑģÐ»ÐµÐ´ Ð²Ð°
è¡¥ åħħ
ustom ed
Ġdecre ases
Ġrespond ed
ĠSci ences
ace ae
ç±» ä¼¼
Ġ[ ],
h aving
ob by
pat tern
bo ards
ĠInt erest
åľ¨ ä¸ŃåĽ½
Ġadapt ed
ĠÐ°Ð² ÑĤÐ¾
re z
ĠÐ¾ Ð¿ÑĢÐµÐ´Ðµ
Ġd amp
Ġf iction
ĠÐ± Ð»Ð¸
w ear
Ġt une
es pecially
ĠIn v
Ġ= ========
Ġnetwork ing
Ġcan cell
Ġamb igu
A lex
Ġestud iar
æ² ĥ
Ġreg ulation
Ġins ights
Ġr untime
elf are
am an
å¼ ¯
ph rase
Ġprime res
... )
ĠS N
çĶŁ éķ¿
å½ ¹
ç®Ĺ æĺ¯
ĠFranc esc
ĠC el
Ġid le
Ġass ault
Ġmat t
ĠTrans port
è¢« åĳĬ
Ġgeneral ized
ĠSup reme
Ġs quad
èĥ½ éĩı
ĠA gr
äº ©
i y
å¹¿ æ³Ľ
ĠCon nection
cp u
Ġminim ize
ĠI mp
,\ ,\
Ġpresc ription
åį° åº¦
Ġco in
ep end
åĪĻ æĺ¯
Col lections
Ġmus cles
Ġmot ors
ç»Ĩ èĬĤ
Ġdis aster
Ġes port
Ġent ities
" ].
Ġwind s
Ġreal itz
ĠT ouch
ĠCle an
it as
ĠF ro
Ġin aug
ĠT ell
ĠX ina
cur sor
Ġiniti ative
åĬĽ åº¦
Ġver ified
ĠEv ents
Ġ" .
ĠÑģÑĬ Ð²ÐµÑĤ
Cl uster
ĠGr ace
inst ein
å¯» æī¾
og u
qu ire
P rivate
Ðŀ ÑĤ
Ġrec re
å¯¹ æŃ¤
long rightarrow
E scriptors
Ð²ÑĢÐµ Ð¼ÐµÐ½
ĠChe m
çļĦ è®¾è®¡
ce iver
D b
xx x
Ġpat ience
g ather
Ġre com
R o
Ġpack ets
åĳ Ģ
Ã ¦
Ġgu ides
v ard
v iar
w t
Ġn p
u ation
se ason
ĠÐ¿ÑĢÐ° Ð²Ð¾
èħ Ķ
ĠE mer
M aterial
$ &
ert a
x e
Ġprom otion
Ġswit ches
ÂłÂł ÂłÂł
Ġsign ing
Ġw avelength
pr ison
aut or
Ġm elt
å¾Ī å¥½çļĦ
å¤§ åĪ©
å¤§ å¹ħ
LO C
Ġciut ats
" ],
Head ers
Ġdou b
Ġin habitants
ä¼ĳ æģ¯
yect o
j unit
ĠC redit
rop ol
foot notes
Ġsoph istic
b one
Ġoper ated
ĠSer ial
ĠIn fo
ho res
Ð³ ÑĢÐµ
ĠC OL
Ġport ar
åħ» èĢģ
MO DE
r ams
Ġdeterm ines
CO M
å¾Ī å¤§çļĦ
sa fe
Ġres idual
Ġind ul
ĠRead ing
th a
Ġred irect
g raf
pend ing
Ġnew est
Ġcop ied
ist ance
Ġcreat ures
ĠA lemanya
aut y
Ġp and
Ġn ave
Ġt ournament
åĩł å¤©
X i
ĠC osta
ĉ *
æµ ħ
ç» ĺ
pr ice
c uts
éĥ½ çŁ¥éģĵ
æ¤ ħ
M a
mat ical
ĠO nt
M ag
ÑģÑĤÐ¸ ÑĤÑĥ
ĠAtl antic
ĠT arget
Ġcorre ctions
ĠS ide
ĠC over
Ġdrop ping
åĴ ĸ
spring framework
Ġin k
red uc
In formation
çīĪ æľ¬
Ġaim ed
ä¸ ¢
Ġbe ef
iform es
H a
is en
ec ess
Ġmod ification
ĠMan ufact
> ::
Ġim g
Ġbr ick
un i
Ġex plic
s us
Ġcont ributed
çİ¯ èĬĤ
å¤© ä¸ĭ
} |\
Ġap ar
ĠH old
ĠB ull
Ġam end
pos itor
Ġpal ace
ĠL ocation
Ġread only
Ġprov ince
å½ĵ äºĭ
Ġr anks
Ġll ind
ĉ} ;
åıĤ èĢĥ
C ent
ĠCar les
\ }\
w rit
ç¨ Ģ
èģĶ çĽŁ
ç«ĭ åį³
å¥½ åĥı
Ġmass a
Ġge ogr
ĠSE O
ĠAv ailable
o qu
ie res
ãĢĭ çļĦ
Pro fess
ache l
j at
Ð²Ð¾ ÑĢÐµ
r oute
A U
Ġburn ed
ĠCon sole
Ġtrad u
Ġs isters
Ġfrances os
m aven
" --
m ation
Ġlabel ed
n p
: [
math op
åı¯èĥ½ æĺ¯
( --
Ġe g
V O
ÑĤÐ° ÑĤ
Ġref und
æ°´ æŀľ
åĽĽ å·Ŀ
å¤ª å¤ļ
Ġcount ing
Mem bers
Ġ ÑĪÐ°
ĠM I
Ġdest ru
Ġcom te
C ert
Ġconsult ation
Ġne ur
çĶµ åķĨ
Ġ" ";
Ġpossess ed
ĠR C
def in
ĠPro f
Ġflow ing
å¼ Ĺ
at r
ress os
d ag
oc o
ä¸Ń éĹ´
Ġ/ ><
ĠAl b
æľĢ æĸ°
ic is
è´¢ æĶ¿
Ġvari eties
Ġmonument al
b ils
éħ ·
Ġconserv ation
N eed
}} ^{\
Ġmem br
Ġhum or
ĠWal ter
G M
r ir
Ġcom ent
Ġse al
Ġdefe at
Ġcorrespond ence
Ġident ifying
Ù Ħ
N ative
Ġse ated
Ġcharacter ized
Ġso fa
ag ged
æ¹ ĺ
ĠÑĥÑĩÐ¸ Ð»Ð¸ÑīÐµ
ĠW E
ä»ĸ äºº
ĠAg ency
Ġdump ster
ĠE ver
und ry
Ġ< ?
Ġb other
è¡Ĺ éģĵ
Ġid x
Ð½Ð¾ Ð²Ð°
ĠF low
è¢ Ń
Ġpat ent
Ġexperi encing
ÑģÑĤ ÑĢÑĥ
Ġmerc y
ĠU V
Ġcapac it
èĢĮ ä¸į
å¼Ģ åĲ¯
æł ı
res ize
qu ier
Ġeffect iveness
ur us
ĠÑĨ Ñı
m aps
}$ }
G T
p it
ch anges
cont rib
ĉ ĠĠĠĠĠĠĠ
Ġ( `
bas ic
ĠGir l
Spec ial
B AR
R ole
Ġu i
Ġtw ist
Ġsk illed
h ops
Ġsym pathy
Ġactiv itats
Ġn an
art he
Ġshut down
work ing
Ġdialog ue
ĠTh ings
Ġpun ct
ĠN i
Ġg ang
ĠM os
çİ» çĴĥ
Ġbis be
ĠM uch
ĠA rizona
Ġpull ing
ĠÐ¼ ÑĬ
Ġnormal ized
è´§ å¸ģ
VID IA
éĿ¢ åīį
const raint
Ġth under
ĠPro b
Ġsitu aci
Ġsur f
ĠÐ¢ Ð¸
Ð¿Ð° Ð´
Ġbel oved
æĭĽ èģĺ
Ġtop ology
Ġpass engers
Ġd ock
Ġn u
ĠÐ¸ ÑģÑĤÐ¾ÑĢÐ¸
Ġvar ies
ÑĤÐ° Ð»Ð¸Ñı
çĬ ¹
æĢ Ĵ
Ġdev iation
Ġphot on
ĠE arly
Ġeng aging
STR ING
od el
Ġfluctu ations
ĠC rit
æł· åŃĲ
ĠM om
Ġpro ps
Ġcollect ive
B ro
ĠN at
ĠKore a
ÑĤÐ¾ ÑĢÐ°ÑĤÐ°
ĠI ron
Ġf ons
ĠÑĤÐµ Ð»Ðµ
è¯Ħ è®º
e ve
Ġtrav elling
footnotes ize
Ġp i
ĠSc an
B al
éĢ ¼
åĩº è¡Į
ĠD NA
Ġvirt ually
Ġestud iant
åįģ äºĮ
ÑĢÐ° Ð½Ð¸
Ġcomp ile
Ġto mb
ymmet ry
bel ow
So ft
é£Ł çĶ¨
ĠB R
ĠS ix
Ġa fect
ed es
ĠVeg as
Ġdisappoint ed
opt ional
çĹĽ èĭ¦
ĠN ik
Ġel ls
å® ł
you ng
Ġrect angular
ĠPh one
sl ice
æĬ ¼
Ġmay or
ĠR S
" },
ĠH ER
Ġrout es
A bs
! ]
op ts
ĠDes pite
Ġposterior ment
m ateix
Ġc ave
CO MM
è´¢ äº§
æľº åľº
Ð»ÐµÐºÑģ Ð°Ð½Ð´
ĠIt em
: ~$
çļĦ æľĭåıĭ
äº¿ ç¾İåħĥ
d bo
Ġtrans itions
ĠÐµ Ð¿Ð¸
ĠSu ccess
å¸¦ æĿ¥çļĦ
ä¼ļ åľ¨
ĠB os
ĠD ES
é«ĺ èĢĥ
æ»¡ æĦı
le arning
Ġmuse um
Ġestablish ment
Ġva ix
Ġent rar
çī© æµģ
at io
Ġact ively
æĪĲä¸º äºĨ
Ġwhis pered
åķĨ åĬ¡
ech a
å¹¿ åľº
èĤ ĸ
æľº æ¢°
ĠP E
amaz on
Ġfr ank
comp iler
Ġm ature
Ġconj ug
å¹´ ä»£
A j
ĠÑģÐ¼ ÑĬÑĢÑĤ
F ocus
Ġe poch
h w
Ġsol uci
è¾ ŀ
è¿Ľ æŃ¥
èĤ ļ
t u
åģļ åĩº
æĹł äºº
ĠMarg aret
index Of
Ġvolunte er
æ³¨ åĨĮ
B egin
ÑĩÐ¸Ð½Ð° Ð»Ð¸
)-- (
Ġmyster ious
Ġsol der
ĠB ry
Ġsou ls
et e
Ġacquis ition
ĠPenns ylvania
éĶ »
æĸĩ åŃĹ
c id
Names pace
ĠÑĢÑĬ ÐºÐ¾
Ġv ocal
Ġtarget ed
Ġse p
Ġes o
? !
Ġhe x
ĠU pon
Ġcon e
éģ µ
wh y
s bin
ĠT ar
Ġequ ips
åıį æĺł
éĢī æīĭ
æĥ³ è±¡
ç¬¬ ä¸Ģä¸ª
Ġf u
sub sec
Ġawk ward
Ġproduct es
s qu
Ġsystem atic
Ġarr ange
IC K
P rior
Ġgl obe
Ġengine er
ä»ĸ è¯´
M i
an aly
ĠLim ited
Ġj ail
Ġtop ological
ĠC ad
ĠM s
ue ba
Ġhand les
ĠC er
M ouse
um ble
XX XX
av al
ĠE thernet
n ative
ĠÐ° Ð´
ĠMor gan
V P
Ġru in
ric ulum
Ġselect or
ĠAll en
ele ments
ç¼º ä¹ı
åĩºçİ° äºĨ
åĲĦ ä¸ª
ast ing
é¥ ¼
ĠVal ent
Ġc ats
Ġlog ger
c ions
Ġv uit
Ġcrit er
Ġcontinu ar
Ġw icked
O ST
Ġour s
ç¥ ¥
ĠL arge
ire n
ĠDep ends
Ġ ÃŃ
in als
ä¿¡ å¿ĥ
ment ioned
Ġcre ix
åĬł éĢŁ
æĹłè®º æĺ¯
ĠD IS
ache lor
T ags
ra ise
ĠHou ston
ĠF al
Ġover head
Ġutil itzar
çĶ· åŃĲ
Ð·Ð¾ Ð²Ð°
ic ia
Ġtim estamp
ĠIde as
Ġdr um
Ġsk etch
ĠÐ¿ÑĢÐµÐ´ ÑģÑĤÐ°Ð²
Fol der
ä¸į æĥ³
Ġinsp ir
ul aci
Ġcon quer
æ¼Ĥ äº®
å¿ Į
ĠTh read
ens ing
Ġslow er
Ġde be
è¿ Ī
Ġabsor ption
im ated
}{ *
ĠM ind
ä¹ Ķ
Ġwh olly
åĮ ¹
ne a
Lem ma
åħ ģ
Ġco ins
Ġtem a
emper ature
s ix
Ġf s
Ġ} {
ret ched
re act
og onal
at ius
ĠF iles
ĠMin istry
Ġvint age
L anguage
Ġh ind
S cal
Ġsal ary
è¡Į æĥħ
ob i
çļĦ åŁºç¡Ģ
Ġll ocs
Ġexclus ively
) }_
éķ¿ æ²Ļ
Ġdeliver ing
èĭ± è¯Ń
Ġswit ched
ĠMar ie
sp in
ĠB ishop
Ġcompos itor
TR UE
and al
Ġport able
ĠS yn
ĠRe ial
ĉ ĠĠĠĠĠ
Ġor al
ure au
add y
ĠH DD
n ol
ç´¯ è®¡
ĠSing apore
Ġcom ma
ÐµÑĢ ÑĨÐ¾
Ġhor rible
Ġtri angle
Ġthick ness
èĤ ª
Ġcon front
ĠĠĠĠĠĠĠĠĠĠĠĠĠĠĠĠĠĠĠĠĠĠĠĠĠĠĠĠĠĠĠĠ ĠĠĠĠĠ
ĠÐĴ Ð¾
ĠOff icer
Ġtransform ed
ĠÐ¾ Ð¿Ð¸
ä¸ĵ éĹ¨
---- "
Ġat e
æľī æĹ¶
ug g
Ġsou p
un ion
Ð¹ ÑģÐºÐ¸Ñı
ĠB ird
Ġsup pliers
Ġmitj ans
at omic
Ġcurios ity
ĠRec ord
U ri
Ġg ardens
ÑĢÐ¸ Ð½
ä¸į èµ·
ĠNever theless
æ¸© æļĸ
Ġle mon
Ð°Ð¹ Ð½
è¡¨ éĿ¢
up per
w ent
Ġsc attered
èİ ²
Ġr acing
ĠN ig
ĠG O
}) ^
Es port
EN SE
re tt
Pro du
èĦĤ èĤª
ĠÐ½ÑıÐºÐ¾ Ð¸
Ġhe m
Ġrecommend ation
Ġin hib
anim ation
Ġde most
Ġc ure
Ġch ronic
Ñĥ Ñģ
æħ Ī
Ġwarrant y
* .
è¯ ±
Ġold est
Ġsplend id
er on
Ġcomb ining
ĠPak istan
ĠÐ¾Ð± Ñı
å¾ĭ å¸Ī
.. ...
dest roy
ä¸Ģ ä»½
Ð¹ Ð½Ð¸
) &
é«ĺ æł¡
LO W
ĠW ars
gr ades
as ync
ev ol
Ã ª
i ac
ĠC ape
ĠÐ¸ ÑģÑĤÐ¾ÑĢÐ¸Ñı
çĩ ķ
æħ İ
ĠCamp ionat
ap are
Sup er
Ġanomen ada
Ġd irt
S am
è¡¨ æ¼Ķ
ä¸Ģ çº¿
um ped
è¿Ļ ä¹Łæĺ¯
und ers
å¤§ åŀĭ
H it
Ġsu ited
ĠStr uct
Ġcl one
Ġdis pers
ĠÐ³ ÐµÐ½Ðµ
Ġcl asse
Inst itut
W ord
Ġcomp ression
ĠAl ways
ĠG ate
or us
xt ures
Ġemerg ing
Ġphys ician
Ġcon ced
åį° è±¡
T B
Ġprom ises
Ġinterf erence
æ¯ı ä¸ªäºº
åľ¨ æŃ¤
èĲ Ŀ
Ġval ign
ĠP ont
ĠPat rick
sh al
ct ica
ĠS oci
èĢģ å¹´
ĠK ansas
Ġcle ared
çĽ¸ åĲĮ
èĳ ¡
in x
Ġpresent ar
ÑĩÐ¸ÑĤÐµÐ» Ð½Ð¾
ĠPlay er
Ġdownt own
Ġrot ate
Ġpar ad
çŀ ¬
ter iors
Ġinvestig ated
ĠĠĠĠĠĠĠĠĠĠĠĠĠĠĠĠĠĠĠĠĠĠĠĠĠĠĠĠĠĠĠĠ ĠĠĠĠ
'] ['
oid s
ĠÑģÐ²ÐµÑĤÐ¾ Ð²Ð½Ð°
Ġsubst itute
}} =
Ġcom arca
Ġexc ell
P ers
Ġcontempor anis
ĠR ail
ĠMo ore
EN C
âĢ ³
Ġmod est
ä¾Ŀ æį®
ĠSI ZE
ÑģÑĤÐ¸ Ð³Ð°
oc c
Ġins ult
é¦ĸ æ¬¡
ĠÐ¾ÑĢÐ³Ð°Ð½Ð¸ Ð·Ð°
Ġset man
Text ure
Âł $.
ĠL ess
ug s
éĽ ķ
Ġprom ising
ath y
O rient
ĠEmp ire
Ġcomp ound
Ġabandon ed
comm unic
ĠS omething
ĠPer formance
Ġmas cul
Reg istry
Ġ" ",
Ġhighlight s
ch air
ĠM oney
Î ¼
Ġfol k
Ġ ĉ
è¿ŀ æİ¥
ĠM iami
ç§į æ¤į
Ġv otes
su ario
Y ear
Ġcontinu ously
l est
Ð³Ð¾ Ð´Ð¸
èĤ¡ å¸Ĥ
on ing
inte ger
den ly
ĠVis it
Ġcon ject
ÑĢÑı Ð±Ð²Ð°
Ġviol ation
H ey
Ġn ucl
ĠSaf ari
Ð»Ðµ Ð¼Ð¸
Ġde grad
Ġt ener
ĠÐ°ÑĢ Ð¼Ð¸Ñı
ĠCons erv
um ping
è¶ħ çº§
n l
Ġf ires
Ġhur ried
ĠCas ino
Ġnue vo
ĠP il
Cont ents
Ġj oke
Ġhand y
ç¡® è®¤
Ġfin ishing
ĠÐĵÐµÑĢ Ð¼Ð°Ð½Ð¸Ñı
Ġphotograph s
ĠP rior
on line
Ġas i
Ġwas hing
A X
amb a
az a
b usiness
Ġdesp air
Ġinterpret ed
Ġfeed ing
èĤ¡ ä»·
ud d
Ġgo ver
resol ve
Ġen abling
ĠW y
Ġ\ &
ev al
d uration
ĠÑĢÐµ Ð¶Ð¸
ĠInit ial
ãĢĭ ä¸Ń
Ð»Ð¸ ÑģÑĤÐ¸
Ġg loom
æĥħåĨµ ä¸ĭ
ov al
ĠB ot
ĠTr ade
ĠFol lowing
ĠH ur
å© ´
ĠJ osh
çŁ Ľ
Bas ic
Ġt ension
ou re
Ġclos ure
ĠC ort
L ower
r x
ĠS ierra
art e
è¿ĳ æľŁ
AM ES
Ġv in
: .
Ð´Ð° ÑĤÐµÐ»
un ing
em en
($ _
Ġll um
ĠEst oy
xt y
Ġpl ata
æĽ´ å¥½çļĦ
åħ± äº«
w i
è¿ĩ æĿ¥
Ġc ush
eral d
Gener ator
Dep end
Ġexpand ing
ä¹ī åĬ¡
ĠFe atures
Û Į
Ġl id
T ON
Ġindu ction
om ing
Âł cm
Ġbr id
Ġcoll apse
æĢ§ æł¼
ĠT erra
}_{ -
Ġpl acement
R ender
Ġthe atre
ĠðŁ Ļ
ĠProte ction
Fe atures
Ġw ard
ä¸°å¯Į çļĦ
N ormal
Ġdesign ers
Ġs v
Ġembar rass
Ġoff ensive
è¿Ľ åı£
Ġp ending
io let
Ġb er
inter ior
Ġbar rier
B ind
ĠW olf
Ġescol a
Ġch unk
Ġjust ify
ä¸įéĶĻ çļĦ
plement ation
ĠT ai
æĽ´ æĸ°
ĠPack ages
åİŁæĸĩ åľ°åĿĢ
Ġfiles ystem
s ig
ab c
h app
es os
ç¾ ½
ç¤º èĮĥ
Ġillustr ate
ĠW ikipedia
Ġla wn
\% $
Ġnic ely
Ġspec ification
ä¿¡ çĶ¨
ĠK ate
ĠL android
ich ael
Ġat om
ÑĢÐ¾ Ð½
oth y
SS L
ç»Ļ å¤§å®¶
con c
Ġacc ent
ym e
light s
ĠJ oin
ĠEn joy
Ġsil k
ĠVill age
Ġlimit ing
D avid
Ġintrodu cing
Ġsurv ival
Ġexerc ises
èµĶ åģ¿
Ġje alous
Ġsh ake
l bum
ĠD uc
ounc es
Ġflo ors
r untime
C UR
Ġp ier
Ġpract ically
éĻ µ
ĠÐ° Ð½
Ġp ose
ar ter
Ġr m
Ġ" %
Ġexist ed
ge bras
run ning
Ġn aked
Ġll ista
Ġsat ellite
ç¼ Ŀ
ĠW ine
Ġbe ings
Ð²Ð¸ ÑģÐ¸
åį §
Ġcompl aint
Ġcomp iler
Com m
( .
ÑĨ ÐµÑĢ
Ġbook ing
èī °
G al
ĠTh ird
ĠMed iterr
åŁº äºİ
Ï ħ
æĸ° èĥ½æºĲ
Ġprison ers
ä¸į åľ¨
å¤© æ´¥
Ð½Ð° Ð½
æĪª èĩ³
L imit
: '
M Y
Ġre fr
fe ed
Method s
åįĹ äº¬
åĲĥ é¥Ń
Ġdre ts
Ġ$ ("#
S ample
ĠT x
ĠB B
ĠW ireless
æ» ļ
aquest s
n ik
ĠM eg
Ġkind ness
Ġrat ings
Ġadvert is
Ġst ro
éĥ¨ ç½²
æ¯ ģ
Ġst ern
æĬĬ æı¡
lim inary
Ġcook ed
b ank
ĠE th
ÑĩÐµ Ð»Ð¸
Ġnav igate
Ġcoll ision
çľ ī
ke eper
è´¢ å¯Į
s ocket
St ats
å®Į ç¾İ
ro it
ĠOly mp
ĠU til
Ð¹ Ð½Ð°
N othing
] {\
Ġpres um
Ð´Ð¾ Ð²Ð°
B IT
ä¸Ń åŃ¦
Ġdef ence
Ġvolt ages
Ġdec ir
m iddle
ä¸ļ ç»©
by e
èĩª è¡Į
å¤© çĦ¶
Ġdis cre
ĠSpe ed
ang les
or b
enc s
Ġcateg oria
sp irit
Ġreg istr
t v
Ġqual itat
Ġconscious ness
éĤ£ æł·
ĠVis ual
ĠS ets
ĠJava Script
Ġrub ber
Ġp ap
Ġsens es
as sembly
Ġis omorphism
Ġpar ser
Ġinv ention
el and
Ġen um
Ġoper ational
ĠWith in
us a
Ġr uss
æĦı å¤ĸ
ĠÐ» Ð¾
Ġant ib
Ġremain der
çĲ ´
ie u
ĠD ell
Ð± ÑĬÑĢ
Ġattack ed
Ġdo se
Ġcontin ually
æħ °
Ġex ce
ĠV PN
ĠEx p
ÑĢÐµ Ñģ
Ġreason ing
Ġj ub
Ġs its
ĠGR UB
ä¸Ģ èĩ´
Dele gate
ÑĤÐ¸ Ðµ
ĠÐ´ Ð²Ð¸
ĠU k
Ġannounce ment
ĠK han
struct ure
H ar
us hes
æ²³ åįĹ
Ġjug ador
æĿĳ æ°ĳ
ĠA unt
Ġst ochastic
Ð³Ð° Ð²Ð°
Ġcelebr ation
p her
Ġv ila
T I
Ġasympt otic
çĤ ®
ĠS port
E mp
Ġdign ity
åĨħ å¿ĥ
Ġsch ol
ah a
Ġsens ible
ul ative
cal endar
Ġ~ /
Ġord in
LE D
cc a
è¡Ģ æ¶²
Ġsynt hetic
ĠK evin
ĠM anchester
ĠV ector
lig a
Ġenforce ment
n est
Ġoffic ially
---------------- ----
ĠHaw ai
ĠAd vent
h arm
æī Ń
Ð¡ ÑĬ
ÐŁÐ¾ ÑĩÐ¸Ð½Ð°Ð»Ð¸
ear ly
Ġl ou
ĠAnn ual
éĵģ è·¯
ĠC V
ass ign
ĠW ales
Ġred shift
ĠÐ¿Ð¾ Ð±Ðµ
am el
ĠConfig uration
Comple te
Ð³ÑĢÐ° ÑĦ
EE EE
en z
ĠM L
s ar
ä¸ª æĢ§
Ġresult at
å¸¸ å¸¸
mys q
Ð¿ Ð°ÑĢ
ĠÑĥÑĩÐ°ÑģÑĤ Ð²Ð°
Ð»Ð¾ Ð³Ð¸Ñı
comp are
Ġr ushed
ĠL ad
Ġgovern ments
Ġinf erence
æĬ Ľ
ç¢ ĳ
Ġsimpl est
Ġalign ment
ĠBas ic
ĠL ic
æĲ ¬
åĪ© çİĩ
Ġ ÑĨÐ¸
r ise
back s
med skip
Ġpos ar
Ġaddress ing
å§Ķ ä¼ļ
å¾ª çİ¯
d ash
Ġdiag rams
ĠEx ec
å¾Ī å®¹æĺĵ
ĠFr ances
ĠShe l
Requ ired
ĠLu is
ĠVAR CHAR
W orks
ĠW ait
Ġconsider ably
éĩĩ è®¿
å¤§ ä¼ļ
Ġreview ed
P D
Ġsup ers
ĠG olf
d rive
ĠÑĩÐµ ÑĢ
Ġglass es
Ġcook ie
Ġtend ency
çº¢ èī²
ĠB ey
t ensor
> ()
Ġdel ta
æĪĺ æĸĹ
ĠElect ric
ĠG PS
ri ber
Ġle ar
Ġro pe
Ġwa ist
Ġdiscipl ine
ĠRev olution
Ġapp et
ibu ix
Ġso vere
ĠB BC
Ġang el
èĢģ åħ¬
Ġ\ !
r qu
Ġback ed
Ġincl ined
ĠBre ak
ĠP ick
[ ]{
ĠT ok
Ġpar l
ä¸Ģæł· çļĦ
ĠUnc le
Ġac res
ĉ c
im eter
å² ©
ĠR u
Ġin cent
ĠNew ton
èĶ¬ èıľ
Ġcollect or
Ġcav all
m ot
Ġref in
ä¼ģä¸ļ çļĦ
Ġtre nc
æĽ´ æľī
al ert
ĠB L
Ġtouch ing
Ġinter faces
ĠC ow
åģľ è½¦
æµģ éĩı
ug u
æĪĳ åľ¨
Ð»Ð¸ Ð½Ð°
ç«Ł çĦ¶
Y et
åı° æ¹¾
Ġt iles
Ġaud it
lot te
æľĢ ä½İ
ĠCho ose
Ġ$\ {\
Ñĥ Ðº
st an
ç«Ļ åľ¨
ĠÐ½Ð° ÑĢÐ¸ÑĩÐ°
Ġcon clusions
leg s
ĠFol low
ĠF ed
face book
çĽ¸ äºĴ
^{ (\
åį ľ
Ġform ulation
Ġem br
uel a
in form
ÐºÐ¾Ð½Ð¾ Ð¼Ð¸
Ġreg ression
Ġquant itat
è¯» ä¹¦
n an
em ploy
y et
ç»´ æĮģ
ä¸» æĮģ
Ġsil ly
Ġsec und
Ġp ine
ss l
ĠAust in
Ġmap a
ĠJud ge
agr ang
^{ *
æ±Ł èĭı
ĠV ent
of ia
ond on
Ġa ria
Ġpack aging
Ġcamp o
ib ilitat
Ġo re
ĠP ear
Ġdaugh ters
ĠD OM
ĠP arent
is co
per haps
Ġperson nel
ĠÐ¿ ÑĬ
ĠSw itch
ĠP au
ä¸»è¦ģ æĺ¯
i ars
Th ough
äºº æķ°
ĠAnth ony
st ick
Ġpun ishment
v ens
ĠV ice
ĠCar los
Ġl let
ĠReview s
ÑĤ Ð²Ð°
Ġelement os
iem po
unt ed
åħ¨ å¸Ĥ
Ġboot ing
read ing
Ġdiscuss ing
Ġex ports
Ġfr anch
Ġli ability
ĠK al
Ġb arg
åŁº å±Ĥ
In vent
åĽĽ ä¸ª
ĠH ills
er ce
if def
cons in
Ġb il
P s
es ar
èĬ ¯
Ġproject ed
ĠP H
ĠÐ¼ÑĥÐ·Ð¸ ÐºÐ°
Ġaccommod ation
S K
Ġdynam ical
p pa
bet ter
Ġ\ "
ĠWord Press
é¸¡ èĽĭ
ba ix
ĠG PIO
ĠÑĤ ÑĢÑıÐ±Ð²Ð°
anch or
Ġven ue
èĲ Ħ
el astic
è¿ĺ æ²¡æľī
load ed
éĽ ¾
en ix
çĸ Ĩ
Ġtyp ing
Ġexcept ions
up t
ĠMin nesota
éĨ ī
Ġsoci etat
Ġbeautiful ly
ĠMary land
æŀĦ æĪĲ
Ġreve als
j d
C amp
m pl
Ñĥ Ð¼
çļĩ å¸Ŀ
ĠS R
éĹ®é¢ĺ çļĦ
V G
ĠÑĢÐ°Ð·Ð¿Ð¾ Ð»Ð¾Ð¶Ðµ
Ġr ang
é©¬ ä¸Ĭ
enc ial
éĻ ¶
ĠGr am
Ġdiv isi
Ġbreath ing
âĢ¦ âĢ¦
ĠDef inition
com pl
P ara
Ù Ĩ
æĶ¶ è´¹
è¯´ è¯Ŀ
çĺ ¤
Ð¼ÐµÐ½ ÑĤÐ°
S equence
Ġclim b
Ġwh oles
tw itter
Ġnever theless
ann on
Ġprof its
Ġd ans
Ġformul ario
: =\
äºĨ å¾Īå¤ļ
ab ad
èĳ¡ èĲĦ
ĠK it
å£° æĺİ
ĠÐĿÐ¸ ÐºÐ¾Ð»Ð°
err at
ĠCol umn
\ |\
c ord
Ñı Ð½
ĠÑĥ Ð±Ð¸
Ġg low
Ġver se
comple x
ĠB aby
Ġequival ence
ur at
Ġ/* !
ĠEst ate
Ġpl asma
'] );
Ġconj unction
alt ra
Ġmagnific ent
Ġcert ification
Ġest ad
Ġrec ruit
V irtual
Lear n
Ġinter pol
Ġto ilet
çľŁ çļĦæĺ¯
ä¹ Ļ
ing o
Ġear liest
è¡¥ è´´
ç´§ å¼ł
å±ķ çİ°
åī ²
Ġbr ide
Ġrep airs
M o
ĠM ission
Fol lowing
åī ª
ĠCon vert
ig i
èĢĮ ä¸įæĺ¯
get Value
sc opic
Ġc ust
ÑĤ ÑĥÑĢ
Ġmin istry
oper ation
èĦ± è´«
Ġend less
Ġdes irable
Ð» Ð½Ð¸Ñı
Ġexcess ive
side bar
W est
Ġcomplet ing
(' .
ĠR ound
é¢Ĩ åħĪ
ri ques
(" /
Ġad mission
Ġtr unc
Ġprec ip
Ġin herent
Ġpublic ly
Ġrece ipt
è¯¦ ç»Ĩ
Ð ¦
Ġed at
ist le
åĲĦ é¡¹
Ġfirm ly
Ġinterrupt ed
Ġcapac itors
C u
Ġinvest ments
æĭ Į
Ġbu f
Ġspecific ations
Ġfl ights
og ical
Ġr ack
ĠPet ers
Ġpopular ity
Ġuniform ly
éĺ Ķ
ĠSch olar
ĠEm ail
ç² ĺ
Ġun o
ä¸į å¤ļ
F amily
t ility
ol as
S ometimes
ĠR s
: -
æĹħ è¡Į
End point
Ġto gg
ĠEm peror
ER Y
Ġcomp iled
to ok
sim ulate
est udi
ĠÐ¿ÑĢÐ¸ ÑģÑĬ
ET A
ac ord
Ġdec idir
b atch
Ind eed
Ġf ent
Ġ( ;
AN S
Ġlat ency
æŁ ³
@ "
ĠÑĩ Ð¾Ð²Ðµ
ick ets
Ġcom ercial
co ok
Ġintern acionals
Ġs igh
ĠBr asil
Ġqu ark
Ġst amp
å¥ Ī
ĠD raw
æĥ ĳ
unci ar
åı¸ æľº
Ġenthus iasm
d ra
çĶŁæ´» çļĦ
Ġdis rupt
Ġrelax ation
im iento
Ġhum ble
est il
t b
Ġg roc
G H
åĽŀ çŃĶ
Ġelement ary
rest rict
ĠÐĺ ÑĤÐ°Ð»Ð¸Ñı
ac ies
Ġreason ably
èĪª ç©º
P aul
åĳ µ
å°Ĩ åľ¨
èĢĥ çĶŁ
ĠÐºÐ¾ Ð¼Ð°Ð½
Ġconserv ative
Ġhe ter
Ġnurs ing
en ance
Ġper f
ow ski
) *
b inary
Ġdress ing
Ġtransl ated
Ġb ass
ĠAct iv
Ġpreced ing
Ġst ocks
ĠV III
Ġart istic
Ġmass age
air y
Ġi Cloud
idd ing
st rip
ĠPro blem
å¹³æĸ¹ ç±³
Ġto y
ĠU rb
Ġ' ',
grad ient
Des ktop
ĠAss istant
Ġfool ish
cons istent
çļĦ ä¸Ń
Ġsup per
u uid
w indows
ĠÐ¡ Ð²Ðµ
Ġrec ru
Copy right
Ġaqu ell
lt ima
Ġo xygen
se p
un defined
æīį ä¼ļ
Stand ard
p riv
Ġu k
f are
èĬ ³
? .
St ill
Ġsigu i
ĠÐ¾Ð± ÑīÐµ
Ġa u
ĠNot es
d riven
ĠK ids
Wh ite
ar ith
ĠC ell
æį Ĳ
ä»İ æĿ¥
Ġd well
Ġaccommod ate
L I
Ġfear s
åł µ
ĠÐ± ÑĢÐ°ÑĤ
Ġl ung
Ġconvers ations
H tml
st ru
ĠÑģÑĤÑĢÐ° Ð½Ð°ÑĤÐ°
æĿĥ åĪ©
t le
fore ach
Ġcompet e
am ination
Ġst olen
è®© ä»ĸ
ant es
gl as
à ¥
Ð½Ð° ÑģÑĤÐ¸
å¥½ å¥½
ä¸ĸçķĮ ä¸Ĭ
Ġp ile
" /
çĽ Ĺ
Gener ated
Ġfound er
ĠÐ¡ÐµÐ²ÐµÑĢ Ð½Ð°
() ))
ĠS everal
pl ess
Ġs ender
Ġparticip ating
Ġcomp ress
æĸĩ åŃ¦
Ð³Ð¾ Ð»Ñı
ĠTur k
åĨ »
l c
æľī æ²¡æľī
L iter
abil itat
;\ ;\
end re
Ġrelax ed
Ġug ly
Ġj er
Ġup set
B ound
Ġver bs
å¾Ī å°ĳ
ĠClass ic
ĠHD MI
çŁ¥ åĲį
æģ ¨
ox y
Ġis ot
ĠW r
ĠL ot
Ġcompos ite
ĠH R
D en
ĠD in
Ġsnap shot
om as
Ġel astic
C ursor
Ġsuggest ing
ĠðŁĻ Ĥ
Ġgl orious
Ġal umn
æĸ¹ çļĦ
Ġcar n
Ġne arer
ID TH
æĲŃ è½½
Ġ' ';
Ġde ce
Ġj ue
Ġenc ryption
Ġdial ect
nav List
Ġp ots
pass ed
åĳ¨ è¾¹
ĠT yp
Ġadjust ed
her ical
Ġdomin ated
ĠÐ³ Ð°
ÐĿ Ð¾
Ġrec or
not ag
se cret
Ð´ Ð¾ÑĢ
çīĪ æĿĥ
åıį èĢĮ
col es
Ġenc rypted
ĠIN S
He alth
ĠJ S
Ġann iversary
æ·± åĪ»
Ġcritic ism
Ġformer ly
ĠB uck
Ġfo am
âĪ Ĵ
ÑģÐ¸ Ð»
Ġimm ense
ple asant
Ġy oga
èµ ł
ĠJ ay
Ġ= ======
Ġav ui
Sh ape
ab ol
ä¸Ĭ ä¸Ģ
effect ive
d ale
é¢Ħ æľŁ
Ġext ending
åı ī
op ort
Des ign
æľī ä¸ª
ar ial
Ġeas tern
Ġfrag ments
out ube
Im peri
ä¸Ģ æĺ¯
ĠÐ° Ð½Ð³
ĉ [
Ġf usion
Ġmark er
ben ch
ĠO bserv
Ġimplement ing
åĽ´ ç»ķ
Ġa rose
å°ı ç±³
Ġprivile ge
Ġmunt anya
IS H
Ġetern al
ä¸ĩ äºº
ĠK ings
man agement
Ġ ÑĩÐ°
for Each
Ġest r
Ð³Ð° Ð½
J ack
Ġquar ters
éĤ »
ri k
Ġg le
ĠN ation
Ġactiv ate
ĠH it
ĠT alk
åįı è°ĥ
test s
c ass
ograph ical
... ]
l ord
Ð½Ð° ÑģÑı
Ġa unt
Ð´Ð¸ Ð¾
Ġter res
Ð¶Ðµ ÑģÑĤÐ²Ð¾
Ġin coming
ĠC NN
itut ed
æĭĴ ç»Ŀ
Ġlaw yers
f actory
ĠG h
ta h
ĠL ane
ĠG ray
èľ Ĥ
c nica
es see
ĠReg ional
Ġhar sh
Ð¿ÑĢÐ¾ ÑģÑĤÑĢÐ°Ð½
method s
Å¡ ÃŃ
ĠE ve
List en
ĠAr n
Ġdefault s
Ð½Ð° ÑĤ
ĠA F
ĠMa ur
ab e
Ġexpl oration
Ġda wn
åĬŀåħ¬ å®¤
Ð² Ð½Ð°ÑĤÐ°
ĠD omin
Ġact ed
ĠÐ¸Ð· ÐºÑĥ
éĶ» çĤ¼
ĠN ev
ĠCom ment
gt k
çŁĽ çĽ¾
Ġduplic ate
UR N
Sn ap
åħ¬ åĳĬ
å¤Ħ ç½ļ
åħ¬ çĽĬ
ĠJ enn
Ġfab ulous
ĠPer fect
Ġconf using
id y
pro be
ĠJ ess
ĠA B
âĦ ĥ
éĽĨ ä½ĵ
Ġpart e
Ġclass Name
ç²¾ åĩĨ
é¸ £
åĲ¬ åĪ°
st ics
çļĦ å°±æĺ¯
ann ah
Ġblog s
æĺ¯ éĿŀå¸¸
åĲĦ ä½į
atal og
Ġincorpor ate
Ġg ust
Aug ust
r p
QUE ST
å¯ Ħ
Ð½Ð¾ ÑģÑĤÐ¸
ĠUn less
ĠÐĳ ÐµÑĢ
éĤ ¦
Ġma id
VAL ID
Ġar reg
Ġl ane
ĠS to
ĠMiss ouri
é¢ ĸ
Ġpray ers
Ð¼Ð¸ ÑĢ
empres a
sw ing
Ġmathemat ical
Ġco ord
oun ge
æľī å¤ļ
os ph
åĽ Ĭ
Ġaccept ance
é£ŀ æľº
S an
Ġbuck et
Ġrefr iger
ç½ ©
ĠM atch
çĩ ¥
Ġprom oting
gg reg
ĠÐŀ Ð±
* "
éĢĲ æŃ¥
am ar
ĠH ell
Ġal pha
A z
Ġd bo
ä¿ Ĭ
å¥³ åŃĲ
Ð»Ð¸ ÑģÑĤ
å°Ŀ è¯ķ
Valid ation
t is
åı¸ æ³ķ
Ġfacilit ate
Ð¼ Ð±
Ġtok ens
Ġv oted
Y e
ve ct
Ġar que
let ic
IL D
ĠV i
Ġs nd
> ";
Ġvis ibility
sl ant
ate ur
ä½ı æĪ¿
Return s
Ġannoy ing
åĩı èĤ¥
Ġcom port
ra ine
ĠAr gent
Ġcas ar
ĠRef erence
ĠPrin cess
ĠI X
b eg
t alk
mer ge
Ġtremend ous
est e
oc om
Ġmid night
Ġllib res
C ook
=\ "
Ġprison er
ä¹Ł ä¸įä¼ļ
ĠSe ason
/ {
ĠH arris
Lay ers
r ance
n v
Cond ition
Ġel if
Ġcampaign s
off s
äºĴ åĬ¨
pl acement
Ġmanus cript
ĠÑĦ ÑĢÐµÐ½
Ġuncertain ties
Ġun fortunate
Ġspeed s
} >
nd rome
ĠÐ½Ð°Ð³ÑĢÐ° Ð´Ð°
H om
' _{
M arch
åĳ¨ åĽ´
an ne
b id
èĥ Ģ
Ġs lope
l aci
éĤ£ ç§į
ĠÑĩ Ð»ÐµÐ½
ĠSh akespeare
éĢĤ å½ĵ
column s
el ines
Ġat omic
Ġthr ust
c ity
nce p
ac re
Ġev itar
}\ |
Ġvari ants
how ever
Ġpse udo
Ġdescript ions
">< !--
Ġa z
t ogether
Ġattract ed
or o
Ġfor a
ÑĦÐ¾ÑĢ Ð¼Ð°
ĠL ap
cs v
Ġc iv
OL D
ĠCong r
Ġbul let
Ġm ate
Ġsal ut
Ð¿Ð° Ð½Ð¸Ñı
ak h
P y
] +
ĠBr un
R a
ĠFor um
S ite
ĠNot ice
ä¸¤ ç§į
ĠK r
Un fortunately
Ġap ost
Ġsub str
æīĵ åĩ»
Ġf ishes
Ġde u
Ġh ired
Ġpurch ases
Ġpublish ing
é£ ĺ
Ġto b
æ°Ķ è´¨
åĬŁ æķĪ
ĠO regon
å´ ĩ
Ġaplic aci
ĠG row
R ich
Ġg em
ĠBel g
Ġsubsequ ently
Ġc ement
Ġland ed
Ġce ased
... </
æĶ» åĩ»
T x
ĠS creen
$ {\
è° Ĳ
an alysis
Ch ain
Ġpop ulations
Ġcon du
Ð¿ Ð»Ð°
ĠÐ¼Ð¾ Ð³Ð°ÑĤ
Ġsim ulated
Ġcov ari
D ictionary
f und
ĠÑģ Ð»
) >
å®ŀ è¡Į
Ð¼ÐµÐ½ ÑĤÐ¸
Qu estion
Ġprodu cer
ä¸Ģ çĶŁ
Ġremind ed
ĠWH EN
ĠR io
Al tern
Rem ote
ĠFou rier
Ġtrad icional
e enth
ĠIs a
Av ailable
Ñĩ Ð²Ð°ÑĤ
Ġevol ucion
ig ator
Ġl uego
ĠÑĨÐµÐ½ ÑĤÑĬÑĢ
or ials
Ġdesper ate
j os
Ġem issions
Ġbench mark
con sum
ĠÐ³ ÑĢÑĬÑĨ
æłĩ å¿Ĺ
Ġserv idor
Ġsimilar ity
code c
Ġw ed
æ» ¨
ĠÐĲ Ð»ÐµÐºÑģÐ°Ð½Ð´
åŀ Ĥ
Ġhol der
ĠBu en
ĠÐ¶Ð¸ Ð²Ðµ
comm ons
åĳ¨ æľŁ
Ġf oss
Ġbasket ball
æĤ ł
Ġthe sis
Ġplant es
ĠCH AR
p ie
ä¹Ł æ²¡
ĠCont ract
Ġtrig gers
ater al
ÑĤ Ð½Ð¾
Ġex tern
Ġch ampion
enc er
do ors
Ġclass ified
deg ree
Ġharm ony
æĺ Ĩ
im et
Ð³Ð¾ Ð²Ð¾ÑĢ
Ġbond s
Sh are
Ġam en
Cle ar
Ġtext s
æĶ¶ èİ·
es k
Ġes a
ĠMem orial
Ġmuest ra
Ġ' .
Ġrend ering
S B
Ġi bn
Ġj am
Ð¼ Ð½Ð¾
ine a
B ottom
ĠOr ange
dev ices
ĠH u
ĠP om
Ġcent res
ĠG raph
pt o
è¾ ĸ
Ġc ob
Ġdo ctrine
ĠTh under
UT E
ĠSol utions
Ġbug s
Ġactiv ation
Ġconsecut ive
ĠSe attle
Ġcontin ent
A qu
ĠP sych
èĲ¥ ä¸ļ
Ġind oor
ĠCin ema
ĠC ry
ĠÑĦ Ðµ
Object s
Ġcost a
ĉ =
he ard
ÑĢÐ° Ð¹
ÐºÐ° Ð´Ðµ
R ows
è´ ª
é«ĺ çº§
Ġreconst ruction
tain ing
åĪĽ ä½ľ
Ġno on
ast ia
p ract
é«ĺ ç«¯
Ġutter ly
W as
çº ½
P red
H or
ÑĤ ÑĬÑĤ
Ġgood ness
æŃ¤ åīį
çŁ ©
Ġdirect ors
En vironment
ä»Ĭ æĹ¥
Ġabs urd
è£ħ é¥°
unt il
Ġw iring
ĠN ich
Ġoff line
ĠBet ter
sh arp
Ġadministr ative
charg ed
P HP
ent rada
inc ial
æĳĦ å½±
Ġbe ars
ap ps
Ġutil iz
Ġdiagn osis
Ġc ents
E conomia
ĠÑħ ÑĥÐ´Ð¾
Ġmet res
å°Ĭ éĩį
Ġcontrad ict
Ġme itat
ĠVol ta
Err ors
ess ed
Ġtal ented
Ġproblem es
Ġw are
ÑģÑĤ ÑĤÐ°
(" %
Î º
ĠN VIDIA
m ist
Ġsearc hes
Ġd ried
inet ic
an z
Ġdevelop ments
Ð½ Ð½Ð¸
Ġsing er
eff icient
Ġnull ptr
Oper ator
ĠÐĺ Ð²Ð°Ð½
æİ¥ è¿ĳ
Ġautom ated
åħĪ åĲİ
çŃĸ çķ¥
Ġcon volution
Ġg onna
çľĭ è§ģ
åł ª
Fl ag
å¿ĥ ä¸Ń
Run ning
ĠB attle
ÑĢÐ¸ ÑģÑĤÐ¸
Ġsmart phone
Ġfasc inating
ific ates
Ġimp uls
Ù ħ
Ġs ant
Ġcor p
å½ĵ å¤©
Not ification
Ġb ust
Ġfe ather
re peat
d ie
Ġpet ition
itt y
Ġhospit als
Ġf ame
æµ· å¤ĸ
æĳ ĺ
Ġp on
- .
é½ ¿
ĠS ax
the ms
s ics
Ġequ ity
Ġmist aken
Ġachieve ment
ĠF ish
Ġend point
çļĦ çĥŃ
æ¶Ī åĮĸ
ĠR T
ĠR esta
pos itions
Ġpe aks
B ay
f its
bo at
Ġess ays
Ġle isure
Ġpl at
ific at
Ġret rieve
ĠIm per
Ġoverl ap
æĪĸ æĺ¯
Ġencour aging
An imation
Ġcitiz en
Ð¼Ð¸Ð½Ð¸ ÑģÑĤÑĢÐ°
Ġcapacit ance
Ġinter vention
Ġmig ration
U A
x f
Ð²Ð¸ Ñĩ
æĹł çĸĳ
è° ¨
comfort able
Ð¿ÑĢÐ¾ÑģÑĤÑĢÐ° Ð½ÐµÐ½Ð¸Ðµ
oc ity
hab itat
ĠE M
å¹¼åĦ¿ åĽŃ
C G
Ġemploy ers
Ġbase ball
Ġbr ut
æł¡ åĽŃ
g ie
ĠC AN
Ġvi ure
l m
on ces
Ġex empl
åı Ķ
ĠF ive
NE W
ĠC trl
ĠC her
è¡Ģ åİĭ
cont ents
Ð·Ð¸ Ð´ÐµÐ½
Ġt y
^* (
Â «
ä¸¤ å¹´
éĵ ľ
Ġdens itat
phant om
Ġcol ored
Ð¼ ÑĬÑĤ
ne ath
Ġfl ame
Ġc raw
Ġus u
æµ ¸
Ġbab ies
Ġfrances a
ex ion
ĠPe ace
b undle
bro ken
Ġavoid ed
Ġte cn
ĠMod ule
Ġweight ed
Ġto ys
Ġdeclar ation
ĠMon itor
Ġinv itation
Ap ply
back up
ĠÑĩ Ñĥ
å¯¹ æ¯Ķ
éĽ¶ åĶ®
arthe ta
åį ĵ
read er
Ġsub group
ĠÐ¡ ÑĤÐ¾
æıĲ ç¤º
n ature
ĠJ ason
Id s
Ġcollect ing
Ġl ap
Ġanaly zed
v artheta
^* \
Ġmed ian
ĠOr leans
Ġpeace ful
Further more
M en
Ġcolor ing
Ġatt ain
oc aml
éĴ »
ym an
Ġc p
ĠMag ic
ĠPhil ipp
Ġvulner able
éģĵ çĲĨ
ĠTur key
Ġmedic ation
ĠN elson
Ġsophistic ated
Ġa est
Ġdis ks
Ġclassific ades
all classes
Ġinf lam
æ¡ Ĩ
é»ĳ èī²
arcel on
ÑĨÐ¸ Ð¾
hy thm
ĠT itle
åħ¨ çľģ
çĤ ī
ĠHig gs
dat os
AT TR
å» ī
Ð¿Ð¸Ñģ Ð²Ð°
anc ies
Ġodd s
Ġinterview s
B ad
ser ial
Ġdur able
M W
ä»ħ ä»ħ
Ġoptim ize
Ġst air
Ġarg ued
Ġterc er
Ġtack le
æĹł æķ°
æħ ķ
vert ical
Ġre hab
ĠA the
ent i
am ous
Ġsubst itu
t ell
æĪĳ è¯´
Ġf uck
Ġap par
è¯ Ī
ag ne
è®¤ åı¯
åĲĪ éĢĤ
å¹¶ éĿŀ
Ġpro to
åİ ¦
ä¹ĭ ä¸ĭ
æľī æĹ¶åĢĻ
å¿ĥ æĥħ
"" "
æĻ® éģį
Ġrank ed
o j
Ġlast ing
Ġver ification
em b
Ġp ound
äºº å®¶
ĠTr ack
ĠK elly
ç³ ķ
Ġdraw s
æĹ¥ èµ·
Ġsqu ee
Ġm u
ĠÐľÐ° ÑĢÐ¸Ñı
man ys
ĠA th
ĠD J
( -\
Ġcan n
ĠN T
Ġcou ch
Ġrepeated ly
ĠC arm
Ġcompat ibility
Ġinf er
ĠBel ow
Ġreflect s
Ġsh aped
Ġover se
ĠP WM
Ph il
Ġrat ios
Ġengine ers
be at
Ġpod cast
Ġoverwhel ming
Ġint imate
Ġbuild s
K ing
Ġscreen ing
; --
çļĦ ä¸»è¦ģ
ĠÐĴ ÑĬ
Ġh ither
åħ¬ äº¤
s b
p k
èĬ Ŀ
S il
sat isf
h ouses
K it
Ġcry ing
F UN
c v
Ġred und
ĠM and
Ð²Ðµ Ð½Ð¸
ĠA y
æĸ° æµª
ĠEvery one
Ġaltern ate
Ġshel f
m its
ĠWh it
Ġpse ud
Ġest ructura
enc ode
Ġdecre asing
rem ote
Ä «
Ġr ays
Ġrad ical
Ġc ables
ĠQu estion
uel ve
Ġf iscal
çī¹ å¾ģ
Ġen contr
ac cur
rom agnetic
è½¦ ä¸»
ĠCl ark
å¤´ åıĳ
ar ma
on ut
olog ists
ĠY a
ç±» åŀĭ
è¾ ©
ĠS ex
Ġ" );
ä¾¿ æĺ¯
Ġst ere
Ġdelight ful
in formation
Ġmiss ions
Ġback ups
ĠÐĵ ÑĬÑĢ
d og
Ġsort ed
text color
Ġcap a
Ġim posed
ÑĩÐµ ÑģÑĤÐ²Ð¾
Ġderiv atives
Ġv oting
te enth
Ġten nis
U X
rel ative
Ġexecut ing
c art
ĠOption al
ä¸´ åºĬ
st ab
Ġearn ings
åı ¹
Ġsup plier
Ġregul atory
Ġam ple
ĠCle ar
Ġmin erals
Ġthreat ened
C a
èĻ ¾
Apr il
math it
Ġvot ers
ĠV A
Ġ! !
Ġjum ped
Ġin cur
ĠCl ar
Ġfamil iars
æĪĲ åĪĨ
å¿ħ çĦ¶
m ix
ĠR ain
ast a
let te
ĠGl ass
ĠA ve
Ġexplain ing
Ġun ited
ĠJ en
Ðĵ ÑĢÐ°
gh an
inter pret
ĠÐłÑĥ ÑģÐ¸Ñı
Ġcrow ded
en ial
Ġinici ar
ĠÐ¤ÑĢÐ°Ð½ ÑĨÐ¸Ñı
Ġlight ly
m is
Ġprov a
Ġprim itive
Ġfun eral
Ġint im
C ALL
Ġanal yst
ĠW el
M ail
Ġspecial ized
ĠG ordon
all ing
çĸ ¯
Âł mil
Ġisol ation
èĤ ĥ
agrang ian
T urn
Ġl ag
at om
ph ysical
O bs
ĠT oy
Ñħ Ð°Ð¹
Ġdesc obert
Ġper ception
æī ®
ĠAd ams
Ġf oo
Ġinflu enced
Ġele ctions
Se pt
éĤ£ éĩĮ
urch ase
Ġol ive
ĠReg ion
Ġpot atoes
M ask
text normal
Ġw ool
Ġcont empl
Pat rimoni
Ġ( {\
Ðĵ Ðµ
ĠC ole
Ġfurn ished
' "
Ġsing les
å¾ ½
l ass
Ġes ment
å¨ ĥ
çļĦ äº§åĵģ
ĠExper ience
us ive
èĦ Ĩ
ç©º è°ĥ
ĠCal cul
èĴ ľ
un to
ret ch
oc key
ĠWork ing
ch at
equ ations
å±ħ ä½ı
ĠAb stract
ud ge
us k
ç´ł è´¨
Ġun stable
L i
ad ays
Ġpropor cion
L ord
åŁİ åĮº
åĩĨ ç¡®
Ġsex e
ĠPR IMARY
ĠF resh
h id
Ġtr am
Ðº Ð»Ð°
******************************** ********************************
ĠC G
ĠDe an
select or
æµģ ç¨ĭ
Ġlaugh ter
im en
ĠAlg orithm
Ġsel dom
Ġconnect s
Ġfl or
IN ST
åĩŃ åĢŁ
Ġca res
d ue
Ġproduct ivity
le arn
Ġp ont
e ight
Ġo mitted
ĠAn aly
Ġimp at
Ġcred entials
f actor
Ġpl ots
Ġder rot
Ġch rom
cor ollary
ì Ŀ
Ġf led
N a
Ġmotiv ated
Ġs ore
ĠM Y
ĠP ierre
te le
Ġpro xim
cept ions
Ġcl erg
ur als
pol y
Ġgaz e
Ġd ess
Ġbar ri
IG H
g mail
æĽ´ ä¸º
Ġstation ary
åħ³ å¿ĥ
ĠP ad
P DF
ĠS erv
Ġcry st
}\ $
RE SS
wl wifi
ĠP ra
z illa
Ġdef init
Ġla zy
get String
Pl ace
tri angle
C B
ĠN avy
ĠCom b
yl on
F ace
R ate
Ġcorrupt ion
Ġal b
Ġsp okes
æ³ķ åĽ½
ĠV it
ip art
ĠY ears
ĠP P
Ġbe ast
è¿ĳ å¹´æĿ¥
ä¸Ī å¤«
ĠF urn
Ġ ÑĪÐ¸
N ov
" ];
ĠE g
Ġcontain ers
w arn
ĠJa ume
Ġno ves
ĠÐ·Ð° Ð²ÑĬÑĢÑĪÐ²Ð°
ĠDemocr atic
ul k
Ġan ual
J une
. \\
av ier
ç¦» å©ļ
lyph icon
Ġmoist ure
Ġse ve
per o
ĠHow ard
Ġre wards
par ing
Ġcreat ivity
Ġcoll isions
is ot
ĠÐ¿ÑĢÐ¾ ÐµÐº
æĿŃ å·ŀ
Ġsol ucion
int s
Ġ( @
Ġfest iv
æĮ ¤
ĠFore ign
Ġall erg
Ñħ Ð¸Ñı
ull s
ĠCO VID
è½¬ åŀĭ
f m
Ġfeas ible
ĠS PI
str ument
æī§ æ³ķ
ĠGe V
çĸ«æĥħ éĺ²æİ§
ĠPart ners
C la
ch t
in ici
Ġbe ans
Ġfer ro
Ġintegr ate
aci o
H on
RO W
ĠSp ot
Ġb ite
} ~
Input Stream
Ġale manys
ç¬¬ äºĶ
ĠD allas
Ġcons ume
Ð¶ Ð¸ÑĤÐµÐ»
ĠFoot ball
ĠT ools
å± Ī
è§Ħ å¾ĭ
Ġgravit ational
Ġn ap
Ġdist ress
ĠÐ¢ Ñı
ĠLaw rence
å¦Ĥ ä¸ĭ
ential ly
y ll
Ġs b
è¾ħ åĬ©
çļĦ æľºä¼ļ
ĠS ad
ext end
ä» °
Ġindivid ually
ur u
Ġbe ating
Ġimpro ves
az i
Ġvend ors
Ġharm on
h olds
Ġjud ges
ĠC ool
Ġprivile ges
O cc
ign ation
Ġperturb ation
ibliot eca
Ġoper ates
Ġconsider ations
åıĳ è¡Į
Ġprotect ing
Ġswe pt
Ġj ar
Sk ip
Ġim plications
Ġsh o
Ġbet ray
Ġcult ures
Ġsal ad
al tern
ĠCl inton
Ġmotiv ation
us c
Ġdes cent
ä»¶ äºĭ
thems elves
as ters
Ġto m
Ġacceler ation
Ġstain less
Ġlumin osity
gre SQL
in herit
ĠÐ¿Ð¾ ÑģÑĤÑĢÐ¾
F D
col Last
ĠÐ¼Ð¸ Ð½Ð¸
Ġh alt
Ġfle w
ĠE FI
ĠViet nam
éĤ£ å°±æĺ¯
ĠX box
Ġaffect ing
ĠN FL
tain ment
rub y
ĠGal axy
Ġdivor ce
Ġout fit
F ix
Ġh iring
Ġde emed
ator ial
åĽº å®ļ
ĠTerm s
he ets
ĠJord i
Ġcharg er
å¼ ¥
ĉ p
ÑģÐµ ÑĤ
ink le
å±ı å¹ķ
Ġagreg ar
Ġresp uesta
N amed
ĠG P
ä»¬ çļĦ
) ^\
ĠIs lands
Ed ificis
Ġgu ided
Ġunivers ities
ĠL ater
Ġpers istent
ĠG ent
in ely
Des pite
ĠFriend s
Âłmil ions
ad ers
Ġover night
åĢº åĬ¡
ant iga
Ġh alo
Ġwhere in
ĠG Hz
Ġsp awn
sim ilar
ĠAnd y
æ³ Į
Ġrest es
Ġcar b
éĥ¨ çļĦ
ĠÐ¡ Ñĥ
n vidia
ä¸» ä½ĵ
Ġpat ches
Ð² ÑģÐºÐ¸
Col l
Ġwarn ed
ĠChar lie
Ð±Ð° ÑĤÐ°
åĵ ²
Ġre pro
ĠÑģÐµ Ð·Ð¾Ð½
C red
Ġval ued
Ġjewel ry
W ORD
- ,
C ong
G N
cl one
æ³ Ħ
Ġ" ${
ous ing
ä¸Ģ å¼ł
ÑĤÐ¸ ÑĢÐ¸
back slash
Off ice
éĥ İ
Ġexpl ot
ĠEd it
Ã§ Ãł
Ġm p
Ġbank ing
with in
ĠWis consin
Ġeigen values
launch pad
ĠP ER
Ġpat ron
? ,
s ized
allow een
çĽ Ĵ
Ġtreat ing
e ither
val or
ÑģÑĤÐ° Ð½Ð¾
èİ· åıĸ
Ġorb ital
m essages
éª Ĥ
Ġpregn ant
Ġb rowse
æĻ °
Ġgr asp
Ġquadr atic
T ele
*} [
Ġprev ents
è¯ ŀ
ĠQ GIS
Ġround s
ĠP ap
Ġnot ify
Ġfor cing
oss ible
å¤ ¹
m nt
å¤± åİ»
Ġur ged
ĠH ero
èī¯ å¥½
Ġlli ure
Ġm ari
d ensity
? --
æĤ Ķ
Ġcorrect ed
f at
ĠAM D
W in
it ated
Ġs ue
Ġass ure
ad ir
numer us
ĠMaj esty
Ġad option
Ġmed alla
æģ ¼
r ig
Ġaddition ally
Ġinqu iry
Ð½Ð¸ ÑĨÐ¸ÑĤÐµ
Ġmat em
o i
ul at
Ġrank ing
her ic
b itat
éĩĳ å±ŀ
Ġthreat s
Ġo w
Bl ue
Ġte oria
ĠAtl anta
numerus form
Ġun happy
C enter
ĠPed ro
ĠSam uel
Ġoff ense
Ġper mut
Ġrec ur
Ñħ Ðµ
æķ´ æ²»
ĠÐ¡ Ð°Ð½
çļĦ æ°´
Ġst ub
ĠB ah
lic s
Ġdr unk
æĥħ æĦŁ
Ġle ase
Ġdist ribut
Ġstret ched
Di agn
Ġp aused
ĠGr ad
ÑĪÐµ Ð½Ð¸Ðµ
Ġjub il
èº« æĿĲ
re re
Ġd f
F n
çľĭ äºĨ
Ġch rome
ĠF I
çŀ¬ éĹ´
Ġpol ygon
Ġdiff usion
ĠÑģ ÑĤÑĢÐ¾
çĹħ äºº
ĠB illy
Ġsuper b
ĠCon struct
x html
Ġb und
ç¨ ¿
ãĢĭ ãĢĬ
å¾ ¡
Ð²Ð¾ Ð±Ð¾
ĠE R
ne igh
valid ate
a ware
Ġg ambling
ke e
Ġult ra
å« ģ
Ġn ing
Ġcont rolling
ĠÐ¾ÑĤ Ð´Ðµ
$. }
Ġess ence
ĠE mb
æį ķ
Ġ> >>
sur face
Ġhol low
The ir
Ġseem ingly
al ong
Ġsk i
Ġim aging
Ġattach ment
Ġbuy er
ĠRep air
Ġcomun itat
ĠÐ½Ð° ÑĢÐ¾
å±ķ å¼Ģ
Ġn s
Ġinform al
ĠA part
Ġdirig ir
Ġd ibuix
Ġauthor ized
Ġsp ac
Ġperson atges
part ition
part icular
Esport istes
ĠPh ill
Ġsh oe
ĠÐ¸Ð¼Ð¿Ðµ ÑĢÐ°
ÑīÐ° Ð¹Ð½
Ġprint s
lah oma
Min erals
S ame
Ġcomunic aci
itc her
oubt edly
s am
å¼º çĥĪ
ĠS ent
p ast
qu ick
Ġhand ful
Ġ ou
Ġd war
ĠÐµ ÐºÑģ
id as
Ġcompass ion
Ġsu cc
Ġr amp
Ġinvest ing
åľ° çĤ¹
ĠBut ton
è¥¿ å®ī
ĠM enu
e ous
Ġsub mission
Com pos
ĠC HECK
Ġsecre ts
Ġpolar ization
èħ »
Ġfellow s
text sf
Ġspec ially
Ġperson atge
ĠÐ¶ Ð¸ÑĤÐµÐ»Ð¸
ĠB apt
ĠW oman
å¾Ĺ åĪ°äºĨ
ĠQu ant
| ^{
Ġinclo ent
c rypt
r v
Ġf el
d ump
Ġachie ving
ÑĪ Ð½Ð°
Ġeat en
C ity
åĸ Ĭ
ÑģÐµ Ð»
H ard
Ġdisag ree
Ð· Ð²Ð°Ð½Ðµ
ĠSc ient
Ġpropiet aris
Ġproduct ive
Const ant
w ire
å±¥ è¡Į
ĠM un
åŁºæľ¬ ä¸Ĭ
Ġb ark
Ġret ro
s ocial
Ġcent r
æ¡Ī ä¾ĭ
AP P
tim estamp
Ġpregn ancy
LO AD
Ġj acket
Ġpron unci
æ· ĭ
æĬĢ å·§
åľº æ¯ĶèµĽ
col First
ex act
å² ³
è§Ĩ è§ī
it i
æĭ ¨
å½¢ æĢģ
Ġc aut
ĠHel en
ang led
ĠInd iana
ad ic
ib us
å¤§ å°ı
Ġes gl
Ġphenomen a
åľ° çļĦ
Ġworks hops
STAT US
es is
ĠS weet
å°ı ç»Ħ
Ġpre view
Ð½Ð° ÑĩÐ°
Ġmy th
è¡¨ æĺİ
sw arm
Ġfix ing
åĮĸ åŃ¦
. $$
ĠDe lete
in us
ĠD iff
çķĻ ä¸ĭ
Ġvi agra
ĠI ce
D an
gr and
op a
o ft
st ory
Ġcou ples
Ġs ost
Ġremov es
ĠGree ce
Ġr aster
Ġtraject ory
æĶ» åĿļ
uro s
ĠN ut
æĴ ¤
ĠS ou
ody nam
æ¡ ¶
Ġplan es
er i
ÑĦ ÑĢÐ¸
Ġ\ ,\
æ£Ģ å¯Ł
ä¸Ģ çīĩ
Ġconfirm ation
Ġ ÑīÐ°
å¹´è½» äºº
ĠD ry
Ġex pend
Ġsus pected
Ġr age
ĠLa ura
Us age
J O
all ed
Ð»Ðµ Ð½Ð°
ĠÐĳ Ñĥ
Ġeduc ated
Ġh iding
ä½ł ä¼ļ
ĠG onz
Ġbro ker
Ġassum es
For ce
Ġdesign ated
Ġacc ustomed
bin om
Ġexc el
ĠMon th
pro blem
f an
Ñģ ÑĬÐ½
for th
ĠCl ose
Ġsle pt
Ġex ert
æĽ Ŀ
Ġl ighter
ul ates
Ġn ick
ab ama
ĠÑģÑĤÑĢÐ° Ð½Ð°
ons ense
G overn
> )
Ġ[ _
Ġv m
ĠRuss ell
Ġoccup ation
New s
id era
Ġhonest ly
Ġsacr ific
Ġhe d
Ġca ution
Hol der
Com o
Ġconf ined
ĠEm ploy
ÐºÐ° Ð·Ð°
Ġp apa
åĵģ ç§į
ĠB irth
éķ¿ æĹ¶éĹ´
Ġvi u
ne ut
e or
pri or
os i
éģ ¥
ĠÐ¾ÑĤÐ½Ð¾ Ð²Ð¾
Ġmar ble
L IST
ar an
{ (\
Ð¾ÑĢ ÑĬ
Ġcancell ation
Ġtag ged
Ġw elfare
Ġcont empt
Ġh aci
ĠÑģ Ð»Ð°
ĠÑģÑĬ Ð±Ð¸
Ġsc oring
Ġconsequ ently
ed e
sh aped
å½ĵäºĭ äºº
ĠPan el
Ġlegit imate
ĠC ot
Ġseg u
ĠK arl
éĩĳ é¢Ŀ
Ġco aching
new s
Ġrec ib
ĠN ormal
Ġdownload ing
æĬ ¹
Ġrom ance
ab i
Com b
Ġri vers
Ġhacer lo
G ui
Ġem brace
ĠCurrent ly
ĠR ange
am ong
En able
Ġutil ized
ip es
Ġproceed ings
(" \
Ġoccas ional
Ġaccess ed
åħĦ å¼Ł
ĠW riting
æ³¨ éĩį
Ġcom tat
æĪĳ è§īå¾Ĺ
Ġgen us
ĠB urg
Ġbott les
Ġmount ing
Ġo ak
ĠL ag
ĠÐ½Ðµ Ñı
åı ł
Ġde mo
çŃ ĭ
çĹ ķ
con vert
æ£ Ĵ
Ġas sembled
ele m
ĠRam on
S en
Ġupgrad ing
ĠU l
CON FIG
ÑĢÐ¸ Ñħ
Ġthr one
ĠUnivers al
top ic
éĿŀ æ³ķ
ĠB ear
Ġport rait
Ġar ises
ĠA bs
å±Ĥ æ¬¡
ĠFil ter
æ£® æŀĹ
Ġlength s
æĴ Ĵ
Line ar
èĩª ä¿¡
Ġr ay
Ġfin anc
ern ate
Ġfix es
ub er
Ġp ets
Ġb om
Ge ometry
Ġdiab etes
m v
Ġprincip i
s db
Ġrecon eix
åįļ çī©
Ġiniti atives
çħ§ é¡¾
ĠStart ing
ĠG rey
pi res
Ġscreens hot
f iques
gu ide
ç¾¤ ä½ĵ
ĠCond ition
re po
Ġgr ants
ĠNap ole
ĠR ou
Ġp ockets
Ġinsp ire
ĠAd vis
Ġhighlight ed
ĠFin ance
è¾ ½
Ġbelief s
R aw
ÐºÐµ Ð´Ð¾Ð½
Ġet her
ĠD oc
Pro to
pl aces
ĠIndust ry
è° ±
Ġreson ance
ĠBit coin
Ġsh ining
ĠB ron
ĠIn ternal
arg uments
im b
æĩĤ å¾Ĺ
N Y
èī² å½©
ifi able
Ġfl ush
ä¸Ń å°ı
Ġtob acco
Ġdefens a
æ¸ħ æ´ģ
Ġillustr ation
S ort
çł´ åĿı
Ġactiv ated
C ant
L ow
åĲ Ĭ
ĠH alf
\! \
f ac
Ġc oding
Ġcost ly
éĢļ éģĵ
åı¯ä»¥ åľ¨
Ġsuspend ed
grad uate
let t
Ġim atge
å¥³ çĶŁ
ĠEd ge
Ġj ury
Ġfast est
ĠF ant
Ġfilter ing
ext rem
Ġver d
C ross
Ġreli ability
Ġwork place
ĠF ellow
Ġcooper ation
lu x
cl i
ĠJ oy
ab ra
gl ass
lish ing
Ġcompany ia
Ġall ocation
Ġc ottage
S elf
)} (\
ge om
Ġdam ages
if ndef
Ġar ising
éĥ½ å¾Ī
ä¸į ä¸Ĭ
å« ©
åıį å¼¹
un known
empl ates
Ġr ou
ĠL ex
ĠG ot
éĤĢ è¯·
åºĶ å¯¹
ÑĤÐ°Ð»Ð¸ Ð°Ð½
b ay
Ð²Ð¾ ÑĢÐ¸
$ ^
Ð´Ð¸ Ð½Ð°
ĠX IX
åħħ çĶµ
ĠR X
ĠÐº Ð¼
r h
ĠS ony
Build ing
Ġun c
Ġdes ires
ĠA ld
ific ant
Ġp ear
im ore
Ġde ployment
ĠF E
ĠAlf red
Ġcomp elled
P ane
ĠP le
ĠÐ¶ ÐµÐ½Ð¸
Ġmod ifications
Ð¿ Ð»Ð¾
æ¸ ¡
ä¿¡ åı·
Ġ{ $\
ĠÐ¼ Ð»Ð°
ourn als
f ashion
åºĶè¯¥ æĺ¯
ä»¥ ä¸ĬçļĦ
Ġcon quest
Ġw ont
ĠL is
Ġdis connect
ertain ly
quest ra
ĠÑĤ ÑĬ
ĠÑģ Ð¾Ð±
d io
O bserv
ĠT u
Ġw ax
op ens
own ers
lo ves
ĠÐ²Ðµ ÑĩÐµ
ounc ing
ĠD ip
ĠP ain
. =
æ¬ ł
Ġ ,\
Ph ys
) }.
G D
o ons
ge ometry
Ð²Ðµ Ð½Ð°
æĮĩ æĮ¥
ĠF le
are l
ĠOri ental
ĠK y
ä»ª å¼ı
Ġd y
Ġoptim ized
fe atures
{ |
ĠIP v
Ġw ond
Ġap olog
åľº æīĢ
C ost
Ġlo vers
è½¦ èº«
ĠT YPE
; )
ri ors
æı Ń
ĠSim ply
B ACK
ĠTh ou
ap ef
ĠLet ter
ĠOR DER
Ġs addle
whe ther
ĠT ag
ĠD ays
è¯ ĳ
Ġpreg unta
Ġshout ed
CON T
C V
Ð ¨
AT OR
Ġdef ensive
æĿ¿ åĿĹ
Ġl an
P ad
Ġpass at
å®Į æķ´
Ġsla very
Ġen semble
çĪ ¬
lic t
ĠT i
ĠArc GIS
opt im
g ir
Ġv ow
Ġrest oration
Ġwid get
åĽ½ å¤ĸ
k b
åĨ³ èµĽ
Ġp izza
Ġt v
ĠÐŁ ÑĢÐµ
Ġassert ion
Ġas ign
Ġsix th
Ã ¸
per fect
Add itional
Ġsu its
sp ired
ĠKent ucky
Ġin sc
çł ĸ
Ġco q
O FF
Ġnot ing
å®¶ æĹı
åį± æľº
" (
ä¼ĳ éĹ²
Ġpro long
sw ap
äº§åĵģ çļĦ
Ġhe ap
ĠForm at
I FI
ĠN ative
ĠÐĶ Ð¶Ðµ
çĶ¨ æĿ¥
Me anwhile
ĠMex ican
ĠB right
Ġj aw
H am
ip ment
Ġguarant ees
Ġfortun ate
Ġport ions
En v
w al
Ġsum mon
ari ans
ĠD ifferent
Ġdisput e
PAR AM
Ġgener ators
al us
Ġblock ing
ĠS F
Ġtestim ony
over view
SCR IPT
cor respond
Ġde alt
ĠP red
ĠM inecraft
be ans
æĺ¨ å¤©
æķ´ çĲĨ
ä¸į ä¹ħ
Ġex cluded
Ġit ali
è¿Ļ æĹ¶
åħģ è®¸
å¤ ķ
Ġgener als
ĠIndust rial
P air
| $
Sh ift
Ġaggreg ate
ĠÑĩÐµ ÑģÑĤÐ¾
c in
Ġprevent ing
f p
RE CT
ĠÑģ ÑĨÐµ
ÑĬÑĤ ÑĢÐµ
ĠC ancer
% "
Ġg la
æ°Ķ çļĦ
ĠÐ¿Ð¾ Ð¼Ð¾
Ġ@ "
n amed
Ġt in
Ġ[ -
Ġm A
Ġlabor atory
lect ric
Ġaggress ive
ong s
mat htt
ĠL ang
comm ended
Sc an
Ġen jo
ÑĤÐ° Ð»
Ġconnect ivity
ĠÐ¿Ð¾ ÑĢÐ°Ð´Ð¸
çĵ ·
çī© ä¸ļ
ĠÐ¿ÑĢÐ¾ Ð´Ñĥ
` )
PRO JECT
ad j
Frame work
ĠB ond
Ġpublic at
Ġcr imes
ĠCE LL
é«ĺ ä¸Ń
k ers
ĠTenn essee
Ġpurs uit
Ġf ocal
Ġb arn
ĠN ou
ty pen
g one
Per iod
ĠOnt ario
ĠN ort
Ð¡ Ð²Ðµ
ç¾İ é£Ł
IC ATION
ÑĩÐ¸ Ð½
iph one
inter val
çŃĶ æ¡Ī
ĠAg reement
ĠP ant
éĺŁ çļĦ
Ġanaly tic
ĠÐ± Ð¸Ð»
Ġen velope
åıį å¤į
ĠL ore
Ġtrans it
Ġfar mer
è¾ ¨
RE NT
cles i
Ġhor a
ç¢ ³
Ver b
Ġn os
åĮº åĪ«
Z Z
dat etime
ethe less
éĶ Ĳ
æŃ¦ åĻ¨
åĩº åıĳ
Ġcapac itat
Ġcon science
Ġhom ogeneous
Ġgr amm
æİ ĺ
ĠCon text
Ñİ ÑĢ
ĠEsp any
Ð²Ð¸Ð½ ÑĨÐ¸Ñı
Ġmean ings
ĠRec overy
èĩ £
çĨ ¬
), (
mark et
ric ks
Ð¼Ðµ Ð½Ð¸
Ġgover ning
uer to
ĠÐ± ÑĢÐ¸
appro pri
ĠConst ruction
ey es
ales a
Ġdelay ed
ĠV ers
ĠE li
Ðł Ðµ
ĠMat thew
Ðº ÑĨÐ¸Ñı
Ġaccept ing
Ġmarg inal
ĠCar lo
ĠÐ¼Ð¾ ÑĢÐµ
Ġcub ic
CLA RE
is an
DE F
Ġimm une
FI ELD
ĠCol lect
reng th
Sh ared
ĠS K
Ġalumin um
ĉ -
ä¸ ²
Ġcred its
Ġhur ry
Exec ution
è°ĥ èĬĤ
ä¸Ģ æ¬¾
Ġbless ing
~ (\
Ã ¥
Ġut most
am or
Ġsele cci
g oto
ĠF inder
Ġenc uent
Ġcount ed
M ount
Ġar rows
AS K
ç¼ĵ è§£
Ä ĵ
ĠĠĠĠĠĠĠĠĠĠĠĠĠĠĠĠĠĠĠĠĠĠĠĠĠĠĠĠĠĠĠĠ ĠĠĠĠĠĠ
ĠS SL
abul ary
Ġmon itors
äºº ç¾¤
trans action
mem bers
Ġd ough
ĠÐ· ÐµÐ¼
Ġgar lic
Ġassol ir
ma jor
str ings
ĠÐ¤ ÑĢÐ¸
Ġcent ered
IC AL
Ġv ague
Ġal tered
Ġadvent ures
J un
b oss
ag i
çļĦä¸Ģ äºĽ
un iform
Ġpropos als
Ġback ward
Ġimag ined
M obile
AT AB
Ġaut umn
st ead
ĠSche matic
ĠB egin
R andom
Ġtr icks
æĭĽ çĶŁ
N orth
æ³ķ ãĢĭ
ĠÐ·Ð°Ð¿Ð° Ð´
Ġbeh ave
ĠE aster
W D
Ġ| =
Ġgrat itude
es per
RA Y
es ch
ĠL iver
part icle
ĠAl an
ĠX P
\| _
Ġforg ive
Ð²Ð° Ð½Ð¸Ñı
ĉ The
int ro
Ġmis erable
æµ ©
ÑĤ Ð½Ð°
Ġwe ary
IO Exception
set Text
Ġinv isible
T or
åģ¥ èº«
åĪĽ å»º
ĠD eg
Ġcur riculum
Ġbed rooms
Ġsuc ce
ä¸į èī¯
é» İ
ĠC ultural
Ð³ ÑĥÑĢ
éĢ »
G old
Ġlimit ation
Ġmas ters
ex amples
cion es
Det ail
Ġclust ering
re o
w y
ĠK ernel
Ap pend
Ġcour tesy
Ġs aves
Ġs ized
se ed
un ately
kw args
l v
igu el
reduc ible
se lection
Ġrepar aci
èį£ èĢĢ
B inding
Ġsh ine
ĠU TC
è¯¾ åłĤ
rib u
h fill
he res
Fol low
Sm all
ĠERR OR
us age
ĉ\ \
Ġorgan isations
Ġmach inery
yst er
turn ed
Ġemp irical
çŃ¾ è®¢
Ġansw ering
ĠPro perties
am ine
ĠÐĵÑĬÑĢ ÑĨÐ¸Ñı
Ġen front
çĿ¡ çľł
ĠUn able
Ġprevent ed
ÑĢÐ° ÑģÑĤ
Ġexpl ored
åĪĨ ç±»
ell ido
çİ Ľ
t rain
Ġes qu
ion a
èĤĮ èĤ¤
de ad
Ġdis pon
sh op
Ġaux iliary
ĠComple te
el n
å¸ ½
ĠL abel
ĠMan ual
Ġplug ins
ere ix
è Ł
åŃ Ŀ
ios os
ĠM AC
æĢ» ä½ĵ
Ġsh adows
Ġtw isted
P ir
Ġf usta
Ġanaly tical
ĠÐ³ Ð¸
left arrow
T ouch
Ġpropag ation
ç®Ģåįķ çļĦ
åħļ å§Ķ
Ġlon ely
Î ¯
Ġaf eg
Not Found
Ġcon greg
Ġpre jud
è®¾ ç«ĭ
èµļ éĴ±
ĠÐ¾ÑĤ Ð±Ð¾ÑĢ
ul ly
Ġalleg ed
Ġre construct
Ġste al
go og
æĢ§ åĴĮ
se ctions
é¢ľ åĢ¼
asc ular
Ġp ardon
ĠM are
Ġent ers
è¡Į é©¶
ĠF act
åķ ¡
ç¿ ¼
Ġprot oc
Ġop ponent
off ee
Ġc ached
h ur
x c
å¤§ éĩıçļĦ
ĠInn ov
r ather
t od
end ant
Ġint uit
Ġoccur rence
èĤĮ èĤī
% ï¼Ľ
ĠGu y
å¸¦ é¢Ĩ
Ġdepart ments
ĠÑĥÑģ Ð¿Ðµ
ĠÑĥ ÑĩÐ°ÑģÑĤÐ¸
ĠP AR
ĠE ither
gr ace
ĠR aj
Ġ\ [
o ys
Ġ" #
ear th
ann ers
ĉ const
Ġsup press
Ġassert That
Ġmed ieval
em bed
IE W
ĠO scar
ĠP ages
Ġk B
ĠL CD
igr ants
Ġexcell ence
åħļ çļĦ
ud son
) '
Ġwork flow
ĠÑħ ÐµÑĢÑĨÐ¾
Ġdel ivers
ĠÐ¾Ð± ÑĢÐ°
çĶŁ åŃĺ
ä½İ äºİ
We ight
Ġout let
ĠSe bast
Ġc ater
Ex port
stat ement
ĠT ower
ĠAquest s
in vest
An n
Ġcl ay
RE T
bound ed
ss a
ä»£ çĲĨ
ath on
Ġo z
ĠCh amber
Ġcompl aints
ĠPref erences
Ġneglect ed
ĠE ug
ĠG it
sol id
over flow
ä½Ĩ åľ¨
PORT ED
Ġ' ./
Ġc f
B inary
t bl
çľĭ åĩº
in cl
Ġf res
script s
s ound
Ġkey word
Ġprogress ive
ĠÐµ Ð»Ðµ
Ġsp arse
Ed ge
Ġpe ers
iden ote
Âł Ð³
ĠSt ack
ĠEnter prise
Sw itch
Ġfier ce
Ġcl o
Ð½Ð¾ Ð²Ð¾
typen ame
Ġobserv ing
Ġentertain ing
pos a
iant e
ess ment
m obile
ĠG ard
MOD ULE
Ġcom edy
Ġspl itting
Ġrig id
æĺİ çļĦ
Ð¿Ñĥ ÑģÐºÐ°
å°ı å¿ĥ
ĠÐ¿ÑĬÑĢ Ð²Ð°ÑĤÐ°
S outh
ĠN AV
xim a
ĠRel ations
ĠÐĿ Ð°Ð¹
Ġb ona
ific a
Ġpat io
Ġmicro controller
ĠR af
ĠE SP
ĠÑĢÐ¾ Ð»Ñı
d iction
Ġd s
Int ent
B usiness
Ġg a
Qu ant
an ies
ops is
om on
Ġdis advant
Ġsem antic
æĺ¯ æĮĩ
Ġpract ition
Ġalgebra ic
Seg ment
Ġhe al
ĠR and
ĠBar bara
Ġob s
] ))
ĠÐł Ð¸Ð¼
ĠU nd
åĲĮ äºĭ
wild fly
h n
) (\
ber ries
ĠÐ¿ÑĢÐµ Ð¼Ð¸Ð½Ð°
Ġtr abaj
Ġgrat u
ĠM ix
Ð ĸ
ad apt
Ġmaxim ize
ĠM T
ĠFrank lin
èĩ Ĥ
Ġp pa
! /
ÑĩÐµ ÑģÐºÐ¾
Ġindic ation
Ġch rist
Ġco herent
Ġdis par
Ġutil izar
Ġveloc itat
ĠYou th
issip pi
Ġv ist
èĤ¡ æĿĥ
çİ° éĩĳ
(' #
x d
åį µ
æ·± åº¦
h ig
ĠAr k
Ġcompet itors
ĠA SSERT
D ear
Ġmar ine
Ñı Ð²Ð°ÑĤ
éĥ¨ ä½į
æ·» åĬł
$- $
åľ¨ å®¶
h ands
ck ed
Ġlle i
res olution
æĹ ¨
åħį çĸ«
ä¸ī å¤§
Ġm k
æļ ĳ
-------- --
tr as
Ġcompl ain
ap olis
it ches
èµ ´
ent ric
ĠÐĳ Ð°Ð»
t aken
we alth
Ð¶ ÑĤÐµ
ĠUS D
å·¨ å¤§
æ¸ħ æĻ°
Ġexist e
Ġneutr ino
ĠG nome
ç¤¾ äº¤
ĠAdd itional
Ġ( =
Ġr he
ĠV encedor
j Query
Ġb ubble
qu iet
X Y
å½ĵ ä½ł
Ġadm ire
tain ed
Don ald
èĥľ åĪ©
IP S
Ġinitial ize
up arrow
Ġprin ces
ĠÐ¶Ð¸Ð²Ð¾ ÑĤ
Ġapart ments
ç¾İ å¥½
ĠT it
Ġt ies
Ġobl igation
i ov
iqu el
æ¯ı æĹ¥
ĠGir ls
åĲĮ å¿Ĺ
Ġcustom ized
Ġconc erts
ĠCreat ive
T AG
he at
Ġcons idera
es cola
Ġanticip ated
Ðµ ÑĨ
Ġal ien
æµģ åĬ¨
M or
pare ncy
$ '
Ðº Ð½Ð¾Ð²Ðµ
Ġmarc a
ÐłÐ°Ð· Ð¿ÑĢÐ¾ÑģÑĤÑĢÐ°Ð½ÐµÐ½Ð¸Ðµ
Ġa uction
po inter
ĠW ard
Ġtra iler
Ġcamb iar
ce il
Ġne uro
ĠE P
ag ar
div ision
Ġwhe at
Ġno isy
U pload
ĠJoh ann
pat cher
Ġst rap
Ġpresent ing
ĠTH IS
ĠWe ight
ĠDel hi
Ġed ifici
I r
z ens
ple x
ĠChar lotte
Ġover r
ĠS TR
ind ependent
æĬ ¬
åŃĲ å¥³
g all
comput e
ĉ #
Ð°ÑĢ Ð´
è´ ¾
ä¸į åĩº
bor ough
Ġf oc
Ġes dev
Ġnow here
int ent
umb ing
Â £
èĲĿ åįľ
Ġdeath s
ĠAb d
c red
ĠF erm
ilder ness
U K
å² Ń
bre vi
ern ess
Ġviv id
ĠÐ½Ð°ÑģÐµÐ»Ðµ Ð½Ð¸ÐµÑĤÐ¾
agon al
Int eg
Ġreal m
äºĭ é¡¹
Ġb io
ĠÐĴ Ð°ÑĢ
Ġrev ision
Ġh ug
Ġwind ing
J uly
}. }
åĲ« éĩı
e as
pi pe
æ£ ī
Ġrecon c
æĺ¯ æĪĳ
Rem ember
ĠÐ¾ ÐºÑĢÑĬ
ĠHar vard
Process or
Ġqued a
Ġintent ar
St atic
On line
ĠR ick
Ġsecret ary
Ġdesenvolup ar
Ġprobable ment
ch anging
Ġimport ed
é£İ æĻ¯
Ġfl aw
Ġre plication
ĠAS C
en ough
Ð° Ð½Ð°
åŃ¦ ç§ĳ
Ġp sy
} /\
Ġoccur ring
ĠPar a
Ġcontext s
çºª å¿µ
O s
ç»ĥ ä¹ł
l av
quitect ura
Ġh ood
ĠR ap
ĠÐ¾Ð± Ð°
çĪĨ åıĳ
Ġabund ant
ĠRod r
Ġ( +
ĠAl ber
çº¿ çļĦ
Ġf iring
he rence
Ġag enda
å»º æĪĲ
Ġli ver
Ġr uled
èµ° äºĨ
ĠM ario
åĴ ±
Ġocc idental
Ġrom ans
ĠÐ§ ÐµÑĢ
Ġtr aged
Ġcontrad iction
Ġhyd ro
M il
Ġsh ifts
Ġcontinu um
ĠÐ¼Ðµ ÑģÑĤÐ°
ĠA w
u art
Ġnucl i
è¿ĩ äºİ
è´ ¤
aff e
æıĲä¾Ľ äºĨ
ou ver
Lo op
åĪ« äººçļĦ
Ġb or
Ġvill ages
Ð¿Ð° Ð´Ð°
åĨħ é¥°
è¯´ æ³ķ
-- _
Ġus o
å¦Ĥ æľī
Ġiter ations
ex tern
d ocker
ne z
ĠGr id
åĤ ħ
sign ature
* ,
Ġbo il
rem arks
Inst ead
Ġdig est
ĉ f
val ued
Construct or
ĠN ations
Ġsh ades
ĠY an
S idenote
ĠF P
ĠTo o
EEEE FF
ĠÐ½Ð° ÑĢÐµ
é¦ ¨
ellig ence
est ir
Ġignor ant
Ġhaci endo
å¹ ½
let ed
=\ {
åĴĸ åķ¡
Ġcon n
ev es
im mer
it ari
Ġm aker
Ġbr ass
fl ush
Est e
Ġjun ior
em et
Ġdistrict s
ĠÐ· Ðµ
sp acing
ĠP rep
Ġsuccess or
ĠÐ¿ÐµÑĢÐ¸Ð¾ Ð´Ð°
pl ings
Ġqual ify
Ġinflu ences
Ġmem orable
Ġbeat en
oc cup
è¾ĥ å¤§
Enc oded
æ· Ģ
g old
Ġdre ta
ĠÐ½Ð° ÑģÐ»ÐµÐ´
æ²¡ æĥ³åĪ°
Ġle v
åĤ ²
Ġnave g
Ġinter sect
ĠÐ²Ð¸ÑģÐ¾ ÑĩÐ¸Ð½Ð°
Ġs ot
Ġun conscious
Ġdesc obr
Ġsi xty
Ġto xic
Ġche ek
å¢ ĵ
fl ix
Ġpant alla
é«ĺ è¾¾
Ġc c
èµ Į
Ġsoft ly
æ°Ľ åĽ´
op ard
ĠSpec ifically
Ġsol ic
Ġdipl om
em pre
ĠBr ig
Ġt d
Ġreal izar
ĠPlan ning
ĠG ET
ĠN ash
F ill
/ -
ann i
ĠS ic
Ġwin ners
process ing
ul u
Ġmes ura
Ġsell er
ĠMel bourne
æ¯ı ä¸Ģ
un itat
Ġto ps
Ġlay ing
Ġl ent
å£ ³
ĠMur ray
Ġspl ash
Ġw ages
And roid
è´Ń çī©
Ġper ipher
ĠCon vention
H en
ap ro
ĠÐĳ ÑĢÐ°
S UB
åħ¶ æ¬¡
ener y
Ñħ Ð°Ð½
ä¾¿ å®ľ
Ġemb od
Ġnut rition
Ġrecip ient
ĠBru ce
åĪ Ĭ
Ġinev itable
ĠEx cel
ĠUs ually
ĠS ession
te chn
åķ ¥
èµ° åĲĳ
Ġspect acular
Ġincorpor ated
Ġneighbour hood
ĠÐ·Ð° ÑīÐ¸
å·¨ å¤§çļĦ
Ñı Ð²Ð°Ð½Ðµ
å¼Ĥ å¸¸
Ġhaz ard
ÑĪ Ð½Ð¾
Ġle ver
Ġw iki
ĠPhot os
Ġsee ks
Ġsusp icion
Ġal iment
list en
Ù Ī
Ð¹ ÑģÐºÐ°ÑĤÐ°
Ġsem bla
ĠM R
eg u
Ġb arr
ag ine
is Empty
Ġsound ed
ĠIm ages
Ġpro clam
æİ¥ ä¸ĭæĿ¥
ĠPrim era
Ġtrig gered
Ð´Ð¸ ÑĤÐµÐ»
Ġcy ber
Ġimpact s
Ġrec erca
Ġsty lish
Ġdens ities
Ġdecl ined
Ġmechan ics
ĠH yd
Ġmake up
int endo
Ġb od
Ġmanufact ured
ĠF ra
éļı æĹ¶
ĠBu ilder
ke eping
Ent itats
ĠS ame
Ġout s
ä¸į ä½Ĩ
æĥ ¨
Ġpob les
Ġmar x
can vas
t ok
' -
ĠÐ¿ÑĢÐ¸ Ð½
je ctions
Ġtor re
åĿĲ åľ¨
Ġsun shine
Ġridic ulous
Ġbacter ia
ĠR ing
Ġcomm od
ĠS cal
T ax
ĠÑİ Ð³Ð¾
ĉ struct
Ġc af
RES ULT
ĠLu ke
éģĵ å¾·
ĠSus an
Ġex clude
éĤ ĵ
aquest es
å°º å¯¸
ver tex
åıĬ åħ¶
Ġcap ita
Ġproceed s
ex ecut
Prem is
Ġsup os
B F
EN CE
Ġdis g
E p
ĠS SH
Th row
Ġacknowled ged
Ġmar it
v ision
Ġf ract
Ġsqu ares
C N
m apping
ä¸ľ æĸ¹
è¸ ª
ĠBer l
Ġj azz
ĠPro gress
Ð¿ÑĢÐ¾ÑģÑĤÑĢÐ°Ð½ ÐµÐ½
[...]
